<unk>	0
<s>	0
</s>	0
<aym>	0
<bzd>	0
<cni>	0
<ctp>	0
<gn>	0
<hch>	0
<nah>	0
<oto>	0
<quy>	0
<shp>	0
<tar>	0
an	-0
de	-1
en	-2
▁p	-3
os	-4
ar	-5
es	-6
ha	-7
er	-8
▁l	-9
▁de	-10
ta	-11
▁a	-12
▁c	-13
▁s	-14
as	-15
▁m	-16
▁o	-17
on	-18
in	-19
ku	-20
ra	-21
re	-22
ue	-23
▁n	-24
te	-25
or	-26
ci	-27
ti	-28
▁q	-29
un	-30
▁ha	-31
▁e	-32
▁y	-33
va	-34
pa	-35
▁h	-36
▁la	-37
pe	-38
is	-39
ch	-40
do	-41
ka	-42
▁t	-43
da	-44
▁en	-45
▁que	-46
al	-47
mi	-48
▁es	-49
gu	-50
▁i	-51
di	-52
ri	-53
▁J	-54
cha	-55
ro	-56
mb	-57
▁j	-58
▁el	-59
qa	-60
la	-61
▁1	-62
mo	-63
ma	-64
na	-65
to	-66
li	-67
▁P	-68
ón	-69
▁u	-70
pi	-71
ba	-72
ve	-73
▁(	-74
▁C	-75
▁E	-76
▁k	-77
▁A	-78
▁con	-79
▁re	-80
tu	-81
▁su	-82
man	-83
ara	-84
▁un	-85
▁se	-86
vi	-87
▁M	-88
▁D	-89
▁S	-90
▁los	-91
▁r	-92
mp	-93
▁ñ	-94
▁pe	-95
lo	-96
▁f	-97
eh	-98
ca	-99
ik	-100
ap	-101
▁¿	-102
kuna	-103
ción	-104
le	-105
hu	-106
ov	-107
▁L	-108
ay	-109
he	-110
▁b	-111
▁no	-112
ñe	-113
ana	-114
mos	-115
▁por	-116
▁Jeh	-117
ía	-118
▁in	-119
▁w	-120
▁co	-121
▁ja	-122
ová	-123
▁d	-124
ios	-125
).	-126
▁al	-127
▁T	-128
me	-129
▁si	-130
▁he	-131
▁2	-132
si	-133
py	-134
ui	-135
go	-136
▁Jehová	-137
▁v	-138
▁ka	-139
▁“	-140
ua	-141
je	-142
tr	-143
g̃	-144
ter	-145
▁B	-146
us	-147
ki	-148
▁.	-149
▁H	-150
án	-151
▁mba	-152
▁del	-153
men	-154
▁las	-155
ur	-156
▁I	-157
ab	-158
▁Dios	-159
▁di	-160
co	-161
▁U	-162
éra	-163
dad	-164
ga	-165
▁umi	-166
▁R	-167
▁para	-168
▁N	-169
are	-170
éi	-171
qan	-172
ya	-173
ib	-174
ina	-175
sa	-176
ero	-177
ir	-178
ué	-179
il	-180
vo	-181
ko	-182
▁ti	-183
ande	-184
se	-185
era	-186
res	-187
▁pro	-188
▁lo	-189
ña	-190
dos	-191
cu	-192
▁mu	-193
cion	-194
ás	-195
▁hag̃	-196
tan	-197
ari	-198
▁cu	-199
▁pa	-200
..	-201
▁g	-202
ce	-203
du	-204
▁te	-205
én	-206
gui	-207
▁una	-208
chik	-209
jo	-210
po	-211
▁|	-212
▁va	-213
▁an	-214
▁hag̃ua	-215
mbi	-216
wan	-217
▁to	-218
kuéra	-219
gua	-220
lia	-221
▁Ñ	-222
tra	-223
ára	-224
▁K	-225
▁Jes	-226
▁ta	-227
ues	-228
tos	-229
ten	-230
yu	-231
ja	-232
kua	-233
el	-234
apo	-235
▁me	-236
hay	-237
▁per	-238
fi	-239
que	-240
za	-241
▁le	-242
▁ma	-243
manta	-244
▁oñe	-245
tar	-246
wa	-247
▁O	-248
pas	-249
▁ya	-250
mbo	-251
▁ko	-252
paq	-253
ol	-254
▁vi	-255
teĩ	-256
▁19	-257
cia	-258
▁ser	-259
éva	-260
ty	-261
▁wa	-262
▁chu	-263
tes	-264
ando	-265
ll	-266
▁oj	-267
ús	-268
▁ku	-269
▁G	-270
▁mi	-271
chi	-272
bi	-273
ái	-274
▁ca	-275
▁po	-276
▁-	-277
kue	-278
▁3	-279
▁so	-280
▁Es	-281
bo	-282
▁”	-283
cer	-284
▁hi	-285
▁hu	-286
▁peteĩ	-287
▁Jesús	-288
▁El	-289
▁ra	-290
por	-291
ris	-292
tro	-293
▁des	-294
mente	-295
pan	-296
▁F	-297
▁ne	-298
▁na	-299
tas	-300
ni	-301
éicha	-302
▁ru	-303
ran	-304
▁La	-305
una	-306
▁ñan	-307
▁nos	-308
▁sus	-309
▁lla	-310
▁Y	-311
▁pre	-312
ño	-313
▁as	-314
▁ar	-315
▁ri	-316
▁mo	-317
lla	-318
▁En	-319
ente	-320
▁je	-321
iblia	-322
:1	-323
ión	-324
▁ex	-325
ces	-326
▁ika	-327
▁oi	-328
iko	-329
▁ña	-330
tin	-331
▁ten	-332
kuy	-333
▁chupe	-334
ér	-335
▁Biblia	-336
▁ap	-337
ekue	-338
hecha	-339
nin	-340
▁esta	-341
ia	-342
mba	-343
mon	-344
00	-345
vei	-346
tor	-347
▁como	-348
▁más	-349
ciones	-350
▁ni	-351
▁up	-352
▁res	-353
andej	-354
▁pue	-355
áva	-356
ru	-357
▁tu	-358
dor	-359
▁man	-360
▁nis	-361
pu	-362
ali	-363
des	-364
▁hab	-365
▁oje	-366
▁"	-367
▁,	-368
ápe	-369
hi	-370
ho	-371
ere	-372
les	-373
▁Ha	-374
▁mana	-375
mpo	-376
chu	-377
los	-378
den	-379
épa	-380
kuaa	-381
asa	-382
▁est	-383
ien	-384
ino	-385
▁5	-386
▁dis	-387
qui	-388
▁4	-389
erã	-390
andejára	-391
asqan	-392
ei	-393
gi	-394
▁tra	-395
tros	-396
▁nues	-397
▁oĩ	-398
it	-399
▁gu	-400
ke	-401
▁nin	-402
▁‘	-403
cho	-404
▁?	-405
xi	-406
ec	-407
▁omo	-408
▁ñe	-409
das	-410
▁V	-411
▁Pe	-412
vy	-413
▁Ñandejára	-414
gue	-415
tam	-416
ani	-417
▁avei	-418
▁ho	-419
ren	-420
ritu	-421
der	-422
▁porã	-423
bre	-424
▁mun	-425
taq	-426
▁Q	-427
▁??	-428
aspa	-429
▁ikatu	-430
tí	-431
be	-432
ras	-433
lin	-434
om	-435
▁esp	-436
▁chay	-437
▁pers	-438
▁ci	-439
io	-440
▁Up	-441
ére	-442
▁qui	-443
▁W	-444
qu	-445
ene	-446
▁sa	-447
kan	-448
gar	-449
▁ver	-450
▁mar	-451
mien	-452
▁ve	-453
pyty	-454
▁ac	-455
ómo	-456
épe	-457
car	-458
▁6	-459
uer	-460
ante	-461
gun	-462
▁wata	-463
mí	-464
ano	-465
mas	-466
▁heta	-467
▁ñande	-468
▁ñane	-469
▁é	-470
éro	-471
▁20	-472
▁Por	-473
▁Re	-474
ite	-475
ver	-476
mplo	-477
▁qué	-478
cas	-479
ños	-480
lar	-481
mbre	-482
▁par	-483
▁hin	-484
▁ima	-485
kunata	-486
mar	-487
▁ro	-488
so	-489
ales	-490
▁pu	-491
▁mis	-492
ena	-493
▁ch	-494
▁llaq	-495
bli	-496
risti	-497
võ	-498
kun	-499
▁runa	-500
yo	-501
tã	-502
no	-503
Qué	-504
esti	-505
óva	-506
▁15	-507
im	-508
▁person	-509
▁tie	-510
illa	-511
arqa	-512
▁Ja	-513
▁á	-514
pytyvõ	-515
▁er	-516
▁rupi	-517
▁fa	-518
▁(1	-519
lu	-520
xa	-521
▁che	-522
dar	-523
sta	-524
vare	-525
▁son	-526
lan	-527
▁nda	-528
▁her	-529
ones	-530
▁7	-531
▁18	-532
uni	-533
▁No	-534
ías	-535
▁pr	-536
enta	-537
▁In	-538
kus	-539
ún	-540
mpa	-541
▁imp	-542
▁allin	-543
uka	-544
▁Sa	-545
▁sobre	-546
▁10	-547
▁pri	-548
anku	-549
▁Chay	-550
mbién	-551
▁este	-552
andu	-553
oi	-554
▁comp	-555
▁pi	-556
▁12	-557
▁’	-558
▁kay	-559
Mba	-560
úva	-561
▁oiko	-562
▁op	-563
con	-564
ul	-565
▁os	-566
ablo	-567
▁[	-568
▁ayu	-569
▁lle	-570
▁da	-571
tre	-572
terei	-573
zo	-574
ían	-575
▁or	-576
▁8	-577
....	-578
tl	-579
:2	-580
pyr	-581
▁San	-582
min	-583
▁ningo	-584
▁lu	-585
▁huk	-586
cri	-587
▁iñ	-588
et	-589
cos	-590
▁Ju	-591
▁Mba	-592
▁11	-593
gre	-594
éichapa	-595
tri	-596
ble	-597
eron	-598
▁hinaspa	-599
▁ojapo	-600
▁él	-601
▁Mar	-602
▁ndo	-603
▁am	-604
mano	-605
▁rehe	-606
▁tiempo	-607
ramo	-608
▁opa	-609
cio	-610
▁is	-611
▁Se	-612
▁cuando	-613
▁qa	-614
cen	-615
▁tér	-616
iq	-617
▁Ma	-618
▁está	-619
uru	-620
kin	-621
és	-622
japo	-623
▁9	-624
▁us	-625
▁kan	-626
per	-627
▁ob	-628
▁fue	-629
tras	-630
▁Al	-631
▁yacha	-632
via	-633
▁hacer	-634
ton	-635
”.	-636
for	-637
can	-638
apy	-639
miento	-640
▁”.	-641
gra	-642
cción	-643
▁vida	-644
ge	-645
▁ba	-646
▁ohecha	-647
ven	-648
▁13	-649
ista	-650
▁14	-651
dre	-652
▁Pablo	-653
▁go	-654
▁Con	-655
uy	-656
▁tan	-657
▁may	-658
ár	-659
dio	-660
jer	-661
▁cristi	-662
arã	-663
▁años	-664
ray	-665
erra	-666
asu	-667
▁ju	-668
▁cos	-669
we	-670
ensa	-671
▁Pa	-672
▁yo	-673
▁Ko	-674
▁17	-675
tó	-676
zar	-677
▁térã	-678
dive	-679
▁Si	-680
▁Los	-681
alab	-682
chos	-683
áno	-684
▁fe	-685
fer	-686
dr	-687
ber	-688
▁deci	-689
▁nisqa	-690
tado	-691
▁¡	-692
gos	-693
dades	-694
ehe	-695
▁cas	-696
▁upe	-697
AN	-698
▁llaqta	-699
ario	-700
▁An	-701
▁también	-702
▁puede	-703
gen	-704
▁mbo	-705
uh	-706
asqa	-707
íva	-708
▁todo	-709
manos	-710
ís	-711
▁16	-712
fo	-713
éve	-714
áicha	-715
porã	-716
mer	-717
kat	-718
▁simi	-719
anos	-720
▁201	-721
las	-722
▁cha	-723
▁lib	-724
▁sin	-725
kur	-726
▁bu	-727
▁eje	-728
▁Para	-729
▁servi	-730
yna	-731
▁hay	-732
▁ombo	-733
ita	-734
ban	-735
osa	-736
▁cre	-737
▁día	-738
▁ore	-739
jos	-740
▁sal	-741
▁Mo	-742
endo	-743
▁pero	-744
ona	-745
nos	-746
▁for	-747
tev	-748
hápe	-749
wi	-750
▁pres	-751
chas	-752
▁sab	-753
mby	-754
▁De	-755
▁yvy	-756
anchik	-757
lor	-758
yuq	-759
▁hina	-760
▁chupekuéra	-761
dro	-762
xon	-763
encia	-764
▁•	-765
évare	-766
risto	-767
▁les	-768
▁Diospa	-769
fica	-770
kas	-771
pon	-772
dia	-773
lti	-774
alla	-775
▁sen	-776
▁cor	-777
tir	-778
▁todos	-779
tsi	-780
ill	-781
▁era	-782
▁personas	-783
vos	-784
▁Ar	-785
▁upéva	-786
ína	-787
▁estu	-788
),	-789
▁car	-790
esa	-791
ín	-792
yta	-793
...	-794
▁kasqan	-795
char	-796
kuái	-797
▁segu	-798
ea	-799
▁nde	-800
uc	-801
ala	-802
teri	-803
▁Co	-804
ói	-805
énte	-806
▁uk	-807
ete	-808
▁Com	-809
tura	-810
udad	-811
fec	-812
entes	-813
▁hikuái	-814
▁Péro	-815
sto	-816
Ima	-817
▁Na	-818
ES	-819
▁He	-820
▁hagu	-821
par	-822
▁gui	-823
▁Cu	-824
ens	-825
ór	-826
▁bien	-827
▁pas	-828
▁au	-829
mento	-830
ñan	-831
▁muy	-832
▁han	-833
ýpe	-834
áta	-835
cias	-836
▁suyu	-837
ese	-838
▁Ti	-839
▁oñemo	-840
▁había	-841
íritu	-842
▁nue	-843
▁predi	-844
tante	-845
kunaqa	-846
demos	-847
pyrũ	-848
tevẽ	-849
▁ogu	-850
pay	-851
▁py	-852
▁iki	-853
Cómo	-854
▁pacha	-855
:3	-856
▁qu	-857
▁dijo	-858
at	-859
▁do	-860
▁neces	-861
pué	-862
▁entre	-863
má	-864
▁Ro	-865
▁oik	-866
ptin	-867
▁(2	-868
▁palab	-869
▁debe	-870
▁Cor	-871
▁Pero	-872
más	-873
▁Ta	-874
▁año	-875
isi	-876
tla	-877
ase	-878
oso	-879
▁tiene	-880
enda	-881
▁Sal	-882
▁fi	-883
▁jepe	-884
pó	-885
▁”,	-886
▁Jehovápe	-887
-1	-888
▁kaq	-889
tz	-890
cial	-891
▁Is	-892
▁vez	-893
tia	-894
▁voi	-895
▁fami	-896
▁men	-897
▁}	-898
CI	-899
▁yn	-900
▁{	-901
▁on	-902
▁Ñe	-903
irqa	-904
▁pá	-905
émplo	-906
▁ciudad	-907
▁inter	-908
▁cons	-909
▁nuestra	-910
▁Juan	-911
mbe	-912
dores	-913
jap	-914
uk	-915
ON	-916
pués	-917
▁kaw	-918
cur	-919
sión	-920
▁exp	-921
uel	-922
▁nispa	-923
aron	-924
▁ejemplo	-925
ãi	-926
▁%	-927
teo	-928
hẽ	-929
▁'	-930
▁prof	-931
▁cosas	-932
▁nisqaqa	-933
▁pay	-934
dí	-935
érepa	-936
iqin	-937
▁fuer	-938
▁rire	-939
▁buen	-940
▁com	-941
aran	-942
ye	-943
▁cono	-944
▁runakuna	-945
▁traba	-946
▁espíritu	-947
erovia	-948
ts	-949
▁eh	-950
▁oh	-951
tica	-952
▁Te	-953
iterei	-954
▁Da	-955
asión	-956
▁As	-957
gación	-958
▁escri	-959
gan	-960
titu	-961
kuérape	-962
▁pos	-963
▁ñiqin	-964
g̃u	-965
tal	-966
▁watakuna	-967
isqa	-968
culo	-969
▁guive	-970
▁mundo	-971
▁ab	-972
taha	-973
▁jave	-974
▁dos	-975
kuq	-976
way	-977
▁oha	-978
mbiapo	-979
ará	-980
onde	-981
▁espi	-982
ova	-983
▁ter	-984
▁pun	-985
▁Su	-986
icha	-987
▁200	-988
▁porque	-989
ky	-990
▁nuestro	-991
▁así	-992
▁/	-993
déve	-994
ima	-995
ál	-996
cional	-997
▁hague	-998
mbue	-999
katu	-1000
▁casa	-1001
kã	-1002
hára	-1003
gún	-1004
▁Umi	-1005
▁fin	-1006
rand	-1007
pim	-1008
▁impor	-1009
eb	-1010
name	-1011
▁ehémplo	-1012
mpli	-1013
cación	-1014
Por	-1015
iki	-1016
▁can	-1017
g̃uarã	-1018
▁tla	-1019
emos	-1020
▁uste	-1021
▁x	-1022
ju	-1023
▁Jesus	-1024
▁congre	-1025
mpre	-1026
ez	-1027
▁san	-1028
▁lugar	-1029
mu	-1030
▁Jos	-1031
itl	-1032
bier	-1033
▁otros	-1034
▁jas	-1035
▁ven	-1036
▁quien	-1037
▁amor	-1038
fox	-1039
refox	-1040
▁ense	-1041
hy	-1042
tli	-1043
iti	-1044
puru	-1045
▁min	-1046
zón	-1047
▁ati	-1048
▁ndai	-1049
asi	-1050
▁ellos	-1051
mana	-1052
cto	-1053
▁oĩva	-1054
kon	-1055
........	-1056
dió	-1057
g̃a	-1058
▁Di	-1059
▁eso	-1060
▁uka	-1061
▁noso	-1062
tilla	-1063
▁algun	-1064
▁Le	-1065
▁Jehova	-1066
ros	-1067
tá	-1068
anaka	-1069
▁Pedro	-1070
▁reci	-1071
▁Satan	-1072
▁sig	-1073
▁g̃uarã	-1074
▁ay	-1075
ración	-1076
chan	-1077
cl	-1078
lación	-1079
iva	-1080
ankupaq	-1081
óta	-1082
anpaq	-1083
▁ú	-1084
▁cómo	-1085
van	-1086
▁nosotros	-1087
▁Fi	-1088
éta	-1089
idad	-1090
blica	-1091
huitl	-1092
end	-1093
▁dice	-1094
▁fu	-1095
brand	-1096
▁yan	-1097
hor	-1098
ynin	-1099
▁Ca	-1100
▁Esta	-1101
▁kon	-1102
▁hese	-1103
▁ome	-1104
bu	-1105
tun	-1106
▁icha	-1107
▁mal	-1108
chin	-1109
hora	-1110
▁hasta	-1111
▁ñañe	-1112
▁artí	-1113
che	-1114
▁hombre	-1115
▁DE	-1116
len	-1117
▁pregun	-1118
ende	-1119
uti	-1120
▁katu	-1121
▁espiritu	-1122
▁ndive	-1123
máno	-1124
ikuaa	-1125
▁teko	-1126
▁hijos	-1127
▁Sin	-1128
▁mismo	-1129
▁Cuando	-1130
trar	-1131
▁mama	-1132
▁Mi	-1133
▁ára	-1134
argo	-1135
▁karqa	-1136
rael	-1137
▁ins	-1138
vid	-1139
▁Ch	-1140
▁Ya	-1141
vis	-1142
▁podemos	-1143
inci	-1144
▁llaqtapi	-1145
▁parte	-1146
▁ir	-1147
var	-1148
▁sí	-1149
jor	-1150
▁yana	-1151
▁infor	-1152
▁hína	-1153
mpi	-1154
▁testi	-1155
mara	-1156
lé	-1157
▁ayudar	-1158
▁ani	-1159
▁medi	-1160
▁prim	-1161
▁ó	-1162
▁muer	-1163
▁reg	-1164
ne	-1165
▁pues	-1166
▁mucho	-1167
ká	-1168
véva	-1169
pues	-1170
▁rur	-1171
▁ij	-1172
▁vai	-1173
▁chayna	-1174
▁cristianos	-1175
▁ohechauka	-1176
▁Me	-1177
▁gran	-1178
▁hermanos	-1179
▁emb	-1180
▁guare	-1181
▁Jo	-1182
kusqan	-1183
▁To	-1184
gina	-1185
OS	-1186
.)	-1187
▁willa	-1188
▁están	-1189
tido	-1190
▁◄	-1191
▁X	-1192
xihuitl	-1193
▁ley	-1194
▁vo	-1195
yan	-1196
▁apó	-1197
▁tui	-1198
▁yu	-1199
win	-1200
émpo	-1201
▁uno	-1202
almente	-1203
▁ad	-1204
▁tanto	-1205
vas	-1206
ekuéra	-1207
empre	-1208
▁nu	-1209
enen	-1210
jar	-1211
▁pan	-1212
▁David	-1213
mons	-1214
rá	-1215
▁áño	-1216
▁►	-1217
ctor	-1218
▁oñ	-1219
▁después	-1220
ñete	-1221
ío	-1222
fa	-1223
kum	-1224
▁Ab	-1225
rar	-1226
pora	-1227
▁Satanás	-1228
▁Pro	-1229
tad	-1230
cti	-1231
▁toda	-1232
:​	-1233
▁<	-1234
lí	-1235
▁decir	-1236
▁estaba	-1237
picha	-1238
chka	-1239
▁ermáno	-1240
lidad	-1241
hua	-1242
yki	-1243
▁princi	-1244
kó	-1245
▁gra	-1246
ado	-1247
4).	-1248
kar	-1249
▁vol	-1250
kurqa	-1251
pyt	-1252
▁pegua	-1253
CION	-1254
▁kama	-1255
▁mejor	-1256
ini	-1257
▁hace	-1258
▁contra	-1259
cep	-1260
▁opor	-1261
5).	-1262
▁apósto	-1263
▁of	-1264
rõ	-1265
▁rre	-1266
▁tar	-1267
▁Ra	-1268
eran	-1269
▁Upéi	-1270
▁jan	-1271
blo	-1272
▁nombre	-1273
taqmi	-1274
▁hénte	-1275
▁Commons	-1276
▁oipytyvõ	-1277
▁Lu	-1278
▁manam	-1279
▁wañ	-1280
▁ojap	-1281
mbres	-1282
yoq	-1283
Sal	-1284
chá	-1285
NA	-1286
uw	-1287
cado	-1288
▁jey	-1289
▁hecho	-1290
dera	-1291
▁watapi	-1292
▁kun	-1293
▁dese	-1294
chaw	-1295
ible	-1296
▁Upévare	-1297
▁mujer	-1298
kay	-1299
▁ama	-1300
ýva	-1301
▁tierra	-1302
▁esc	-1303
úi	-1304
▁iporã	-1305
urante	-1306
ores	-1307
▁familia	-1308
▁país	-1309
aria	-1310
alidad	-1311
aya	-1312
eri	-1313
▁solo	-1314
oni	-1315
eve	-1316
▁Uni	-1317
sia	-1318
▁siempre	-1319
▁pueden	-1320
▁oñembo	-1321
pota	-1322
kana	-1323
ció	-1324
▁gente	-1325
llo	-1326
▁CAN	-1327
CIONES	-1328
▁tuicha	-1329
▁bí	-1330
kõ	-1331
ré	-1332
ág̃a	-1333
all	-1334
▁Las	-1335
▁estudi	-1336
▁iñi	-1337
taqa	-1338
▁respe	-1339
▁yanapa	-1340
▁ayuda	-1341
▁Cristo	-1342
▁21	-1343
▁cab	-1344
pos	-1345
tonces	-1346
▁cora	-1347
▁cer	-1348
chkan	-1349
▁péro	-1350
dan	-1351
▁confi	-1352
▁congregación	-1353
cí	-1354
▁cuenta	-1355
”,	-1356
▁mb	-1357
▁ohe	-1358
dente	-1359
▁kall	-1360
▁pien	-1361
▁Paragu	-1362
▁esto	-1363
▁conse	-1364
▁Po	-1365
▁fun	-1366
areko	-1367
▁Qu	-1368
cal	-1369
▁muchos	-1370
▁ñandéve	-1371
▁apren	-1372
ido	-1373
▁tiémpo	-1374
▁situ	-1375
▁embargo	-1376
tivo	-1377
▁vivi	-1378
RA	-1379
▁Des	-1380
lli	-1381
▁ojo	-1382
mpe	-1383
▁killa	-1384
▁tetã	-1385
tapas	-1386
ẽva	-1387
8).	-1388
ánte	-1389
-2	-1390
▁war	-1391
kama	-1392
▁Car	-1393
▁jajapo	-1394
mación	-1395
cor	-1396
▁jahecha	-1397
3).	-1398
bir	-1399
▁manera	-1400
▁palabras	-1401
zación	-1402
lig	-1403
▁antes	-1404
▁CANCIONES	-1405
▁ambue	-1406
háicha	-1407
▁chi	-1408
▁sier	-1409
▁cada	-1410
uso	-1411
ereko	-1412
redi	-1413
▁debemos	-1414
isqan	-1415
▁tener	-1416
▁24	-1417
▁rupive	-1418
agu	-1419
lee	-1420
▁donde	-1421
▁́	-1422
▁Israel	-1423
▁propi	-1424
iste	-1425
▁todas	-1426
có	-1427
olí	-1428
inaka	-1429
▁ī	-1430
▁ara	-1431
▁podr	-1432
▁nuestros	-1433
▁bo	-1434
▁[...	-1435
▁pasa	-1436
▁cambi	-1437
▁cual	-1438
eta	-1439
▁apo	-1440
vin	-1441
ví	-1442
▁estar	-1443
▁rehegua	-1444
▁[...]	-1445
▁espe	-1446
▁anci	-1447
tian	-1448
▁suti	-1449
▁desde	-1450
▁pya	-1451
ervi	-1452
dres	-1453
▁Reino	-1454
kóva	-1455
▁mon	-1456
tran	-1457
unque	-1458
▁yanap	-1459
arqan	-1460
qi	-1461
cido	-1462
ww	-1463
7).	-1464
ry	-1465
▁respon	-1466
▁pueblo	-1467
▁22	-1468
▁sol	-1469
▁rep	-1470
▁pes	-1471
eha	-1472
▁tukuy	-1473
hual	-1474
▁sigui	-1475
▁jus	-1476
▁sido	-1477
qnin	-1478
dó	-1479
▁—	-1480
▁corazón	-1481
▁qawa	-1482
▁dar	-1483
▁ipy	-1484
▁pare	-1485
cios	-1486
▁Diosta	-1487
</	-1488
▁encon	-1489
▁nisqan	-1490
▁É	-1491
cta	-1492
▁gen	-1493
kara	-1494
lea	-1495
▁Firefox	-1496
▁llama	-1497
▁uñ	-1498
hin	-1499
kõi	-1500
▁multi	-1501
isa	-1502
▁tienen	-1503
6).	-1504
ure	-1505
▁verdad	-1506
▁algunos	-1507
▁ce	-1508
▁días	-1509
uego	-1510
cuer	-1511
▁hag̃u	-1512
▁Un	-1513
▁nirqa	-1514
zó	-1515
▁jo	-1516
000	-1517
▁apóstol	-1518
ỹva	-1519
▁sea	-1520
mé	-1521
endi	-1522
kunapi	-1523
▁forma	-1524
jas	-1525
▁simipi	-1526
▁hizo	-1527
ise	-1528
▁José	-1529
fes	-1530
▁actu	-1531
▁oikuaa	-1532
▁señ	-1533
lica	-1534
fri	-1535
uda	-1536
gin	-1537
eli	-1538
▁otra	-1539
tación	-1540
▁mayor	-1541
tili	-1542
▁bíbli	-1543
▁aka	-1544
▁Lo	-1545
▁:	-1546
▁kaws	-1547
▁len	-1548
▁omombe	-1549
cie	-1550
▁upéicha	-1551
▁So	-1552
rin	-1553
▁pru	-1554
demás	-1555
tico	-1556
▁tenía	-1557
wanchik	-1558
▁199	-1559
mpor	-1560
▁vis	-1561
cua	-1562
▁ese	-1563
ora	-1564
▁usted	-1565
▁ndaha	-1566
▁gr	-1567
▁kallpan	-1568
9).	-1569
▁Peteĩ	-1570
charõ	-1571
▁rima	-1572
▁pon	-1573
▁cui	-1574
uan	-1575
dido	-1576
guas	-1577
▁fal	-1578
▁Jesuc	-1579
▁oho	-1580
▁rey	-1581
▁lí	-1582
▁mä	-1583
▁deb	-1584
bió	-1585
▁killapi	-1586
kena	-1587
1).	-1588
▁mie	-1589
para	-1590
kwa	-1591
▁página	-1592
▁;	-1593
éramo	-1594
mó	-1595
don	-1596
▁sino	-1597
▁be	-1598
mientos	-1599
iruw	-1600
▁libro	-1601
▁Ka	-1602
kuta	-1603
▁hombres	-1604
sya	-1605
desi	-1606
iri	-1607
rah	-1608
▁Upe	-1609
▁haguére	-1610
úpe	-1611
▁cumpli	-1612
▁primer	-1613
mandu	-1614
tero	-1615
ticia	-1616
terio	-1617
▁kat	-1618
▁otro	-1619
▁Inter	-1620
▁hag̃uáicha	-1621
▁ella	-1622
ori	-1623
▁imayna	-1624
hui	-1625
▁Ña	-1626
▁indi	-1627
▁estas	-1628
:4	-1629
gani	-1630
▁durante	-1631
pyre	-1632
dur	-1633
masin	-1634
TA	-1635
▁fiel	-1636
▁rembi	-1637
ýi	-1638
▁parti	-1639
▁ikat	-1640
▁comen	-1641
▁upévare	-1642
▁qill	-1643
▁muerte	-1644
▁rela	-1645
▁super	-1646
▁kristi	-1647
iha	-1648
rado	-1649
kunapa	-1650
▁permi	-1651
tio	-1652
cía	-1653
▁ami	-1654
▁tari	-1655
▁dire	-1656
▁Chayna	-1657
▁án	-1658
▁pruwin	-1659
greg	-1660
▁mitã	-1661
poru	-1662
tende	-1663
gape	-1664
mbya	-1665
kuynin	-1666
kunamanta	-1667
uete	-1668
vá	-1669
▁ñanepytyvõ	-1670
▁Wa	-1671
▁yachachi	-1672
▁omano	-1673
▁sasa	-1674
cul	-1675
▁minis	-1676
▁héra	-1677
aspan	-1678
té	-1679
▁kuri	-1680
▁jun	-1681
aro	-1682
10	-1683
▁difer	-1684
ike	-1685
arios	-1686
▁estos	-1687
▁Jesucristo	-1688
▁otras	-1689
▁proble	-1690
▁iñiq	-1691
g̃ua	-1692
▁emp	-1693
han	-1694
kastilla	-1695
▁produ	-1696
▁Diosqa	-1697
▁piens	-1698
tori	-1699
tener	-1700
tiva	-1701
▁Z	-1702
llan	-1703
asun	-1704
tados	-1705
▁Este	-1706
2).	-1707
▁cier	-1708
tere	-1709
RE	-1710
▁ahora	-1711
▁Gu	-1712
redika	-1713
▁tembi	-1714
usa	-1715
▁Ru	-1716
▁tekotevẽ	-1717
▁Piruw	-1718
áramo	-1719
▁www	-1720
ern	-1721
tina	-1722
tawan	-1723
▁padres	-1724
9,	-1725
▁(19	-1726
0).	-1727
▁Chi	-1728
ikua	-1729
▁Icha	-1730
▁ini	-1731
▁z	-1732
▁ije	-1733
▁iñe	-1734
▁Ñandejárape	-1735
pro	-1736
▁heko	-1737
."	-1738
▁jis	-1739
▁Go	-1740
▁ári	-1741
cimiento	-1742
▁trabajo	-1743
▁tres	-1744
▁his	-1745
▁comuni	-1746
▁persona	-1747
▁llu	-1748
▁Mois	-1749
ing	-1750
wasqan	-1751
▁importante	-1752
eku	-1753
arro	-1754
▁Á	-1755
▁Tierra	-1756
▁algo	-1757
▁padre	-1758
▁kua	-1759
▁verda	-1760
▁signi	-1761
piqa	-1762
▁198	-1763
▁Tu	-1764
ridad	-1765
hayhu	-1766
▁tran	-1767
▁aswan	-1768
▁poder	-1769
vor	-1770
▁Hi	-1771
chwan	-1772
ación	-1773
▁hawa	-1774
lio	-1775
anapaq	-1776
gel	-1777
▁uy	-1778
kunam	-1779
▁pruwinsya	-1780
▁194	-1781
manasqa	-1782
▁mes	-1783
taki	-1784
tis	-1785
▁Pay	-1786
▁li	-1787
▁Jer	-1788
▁ancha	-1789
gado	-1790
▁Ba	-1791
usu	-1792
▁muchas	-1793
▁hijo	-1794
pot	-1795
eza	-1796
▁wi	-1797
▁corre	-1798
▁dere	-1799
1,	-1800
.000	-1801
fí	-1802
aru	-1803
undi	-1804
cil	-1805
ávo	-1806
▁comple	-1807
▁reali	-1808
apu	-1809
▁hermano	-1810
▁mil	-1811
▁bus	-1812
▁Kay	-1813
▁cua	-1814
uela	-1815
ãva	-1816
unca	-1817
cidad	-1818
mpañ	-1819
▁ou	-1820
▁kongreg	-1821
imba	-1822
eno	-1823
véi	-1824
5,	-1825
ciona	-1826
▁cristiano	-1827
ane	-1828
raq	-1829
zas	-1830
gres	-1831
▁llaqtan	-1832
▁Per	-1833
▁principi	-1834
▁pú	-1835
arete	-1836
▁ñandu	-1837
net	-1838
▁dio	-1839
▁Como	-1840
▁acer	-1841
liw	-1842
anta	-1843
▁organi	-1844
▁amo	-1845
▁marandu	-1846
▁Fran	-1847
▁cen	-1848
▁197	-1849
tzin	-1850
mina	-1851
▁Mu	-1852
ji	-1853
cípu	-1854
▁demás	-1855
Imayna	-1856
▁tri	-1857
kunawan	-1858
mis	-1859
kuri	-1860
yve	-1861
g̃uahẽ	-1862
ehecha	-1863
▁discípu	-1864
▁grande	-1865
qanchik	-1866
▁marka	-1867
3,	-1868
▁ale	-1869
gas	-1870
▁ove	-1871
▁prote	-1872
rió	-1873
cuen	-1874
fe	-1875
▁aque	-1876
oro	-1877
Mat	-1878
▁unos	-1879
▁3:1	-1880
gó	-1881
ono	-1882
▁escu	-1883
6,	-1884
reko	-1885
mentos	-1886
jan	-1887
▁consi	-1888
▁hoy	-1889
inti	-1890
elo	-1891
ime	-1892
▁mé	-1893
▁quienes	-1894
ẽren	-1895
▁Padre	-1896
▁testigos	-1897
ẽme	-1898
eros	-1899
anga	-1900
▁oim	-1901
xo	-1902
úta	-1903
▁web	-1904
▁upéi	-1905
▁195	-1906
égui	-1907
▁ary	-1908
resi	-1909
Cu	-1910
He	-1911
qaku	-1912
▁nuevo	-1913
zado	-1914
cui	-1915
▁ká	-1916
▁nacion	-1917
................	-1918
▁ke	-1919
▁cal	-1920
▁has	-1921
día	-1922
mantapas	-1923
rã	-1924
▁seguir	-1925
endive	-1926
▁madre	-1927
▁Man	-1928
Pro	-1929
▁caso	-1930
4,	-1931
Ma	-1932
ñas	-1933
▁agra	-1934
▁ori	-1935
▁ali	-1936
▁información	-1937
kyre	-1938
▁ukha	-1939
▁Cha	-1940
▁iñimpor	-1941
▁plan	-1942
▁artículo	-1943
inte	-1944
▁Esc	-1945
▁significa	-1946
▁añete	-1947
▁196	-1948
ibo	-1949
▁Pi	-1950
usal	-1951
▁omba	-1952
▁kongregasión	-1953
mília	-1954
▁últi	-1955
lp	-1956
▁jaw	-1957
▁Además	-1958
▁Isa	-1959
▁ado	-1960
toria	-1961
▁demos	-1962
yuqmi	-1963
▁oñepyrũ	-1964
8,	-1965
▁palabra	-1966
ticas	-1967
hina	-1968
▁quer	-1969
hasa	-1970
tió	-1971
▁193	-1972
▁Hu	-1973
▁veces	-1974
tantes	-1975
▁25	-1976
7,	-1977
▁Así	-1978
▁También	-1979
xto	-1980
▁kasu	-1981
▁Bo	-1982
▁jato	-1983
my	-1984
▁kamachi	-1985
▁polí	-1986
ōhual	-1987
su	-1988
ólo	-1989
▁siervos	-1990
guasu	-1991
▁ki	-1992
mantam	-1993
▁feli	-1994
▁gobier	-1995
ánto	-1996
pal	-1997
tritu	-1998
énes	-1999
▁tenemos	-2000
▁Ni	-2001
▁niños	-2002
▁kuti	-2003
ítu	-2004
moĩ	-2005
yi	-2006
curs	-2007
▁ótro	-2008
▁pachakwa	-2009
ñang	-2010
▁pl	-2011
▁ukat	-2012
dá	-2013
▁kuimba	-2014
dado	-2015
▁peque	-2016
▁será	-2017
EN	-2018
▁tal	-2019
ger	-2020
▁nor	-2021
▁Ne	-2022
▁peve	-2023
▁pachakwata	-2024
monio	-2025
▁pens	-2026
▁sir	-2027
▁kapu	-2028
íta	-2029
▁Chu	-2030
▁discípulos	-2031
mína	-2032
gov	-2033
▁fueron	-2034
▁incl	-2035
ac	-2036
▁Heta	-2037
No	-2038
momba	-2039
mor	-2040
guero	-2041
▁bi	-2042
▁ele	-2043
▁Avei	-2044
qué	-2045
▁mos	-2046
chay	-2047
ER	-2048
llos	-2049
▁elec	-2050
kunapaq	-2051
▁Ad	-2052
érõ	-2053
▁Vi	-2054
▁tembiapo	-2055
▁ren	-2056
▁guar	-2057
▁kristiáno	-2058
1$	-2059
▁habla	-2060
AS	-2061
▁Ichaqa	-2062
▁Una	-2063
▁“¿	-2064
▁dios	-2065
esta	-2066
▁buenas	-2067
chikta	-2068
óni	-2069
▁30	-2070
pre	-2071
éma	-2072
▁María	-2073
▁Palab	-2074
2,	-2075
th	-2076
De	-2077
▁Jerusal	-2078
unes	-2079
▁kasqanta	-2080
▁suyupi	-2081
▁Upéicha	-2082
▁191	-2083
▁modo	-2084
ría	-2085
▁suma	-2086
▁hembi	-2087
▁lengua	-2088
▁pla	-2089
vave	-2090
cuī	-2091
▁Che	-2092
▁mboyve	-2093
katúi	-2094
qay	-2095
▁uni	-2096
araq	-2097
▁iñiqmasin	-2098
▁Moisés	-2099
▁kawsa	-2100
quí	-2101
OR	-2102
yá	-2103
▁guasu	-2104
▁yuy	-2105
▁mí	-2106
ciendo	-2107
tamente	-2108
yke	-2109
ud	-2110
log	-2111
tán	-2112
▁piko	-2113
▁bauti	-2114
▁mokõi	-2115
▁jisk	-2116
jey	-2117
▁23	-2118
▁oka	-2119
évo	-2120
úndo	-2121
cre	-2122
▁non	-2123
▁allinta	-2124
▁valor	-2125
▁chugui	-2126
▁Él	-2127
▁agua	-2128
▁poco	-2129
óvo	-2130
guéra	-2131
ral	-2132
Es	-2133
IC	-2134
huan	-2135
▁profes	-2136
mino	-2137
▁ut	-2138
ine	-2139
▁anim	-2140
ācuī	-2141
anza	-2142
▁ape	-2143
▁hablar	-2144
Juan	-2145
▁famili	-2146
▁cul	-2147
há	-2148
ion	-2149
▁posible	-2150
ame	-2151
qar	-2152
ñói	-2153
quier	-2154
▁nada	-2155
▁enti	-2156
▁ojer	-2157
▁nuestras	-2158
tru	-2159
▁emo	-2160
tsa	-2161
arse	-2162
ayta	-2163
▁múndo	-2164
cono	-2165
▁inten	-2166
vape	-2167
▁esa	-2168
dir	-2169
terior	-2170
kor	-2171
▁oreko	-2172
arõ	-2173
istra	-2174
lpōhual	-2175
▁Mana	-2176
▁gru	-2177
KU	-2178
▁tapicha	-2179
ācuīlpōhual	-2180
pañ	-2181
II	-2182
pti	-2183
Pe	-2184
▁enfer	-2185
▁distritu	-2186
▁habi	-2187
▁mill	-2188
▁tenda	-2189
▁Paraguay	-2190
▁resul	-2191
aptin	-2192
sio	-2193
▁medio	-2194
guien	-2195
▁ustedes	-2196
▁llegar	-2197
aite	-2198
▁otaq	-2199
▁qati	-2200
▁Sam	-2201
▁amista	-2202
▁ohasa	-2203
ale	-2204
▁mas	-2205
guna	-2206
hová	-2207
▁Dis	-2208
▁cielo	-2209
monge	-2210
▁$	-2211
tró	-2212
hto	-2213
▁ye	-2214
unta	-2215
▁Upéicharõ	-2216
ró	-2217
▁Oñe	-2218
▁inf	-2219
▁achka	-2220
▁entonces	-2221
▁ran	-2222
versi	-2223
ell	-2224
ron	-2225
uro	-2226
▁servicio	-2227
▁chéve	-2228
’.	-2229
▁apro	-2230
mero	-2231
▁utili	-2232
trito	-2233
qani	-2234
▁primero	-2235
ãn	-2236
▁primera	-2237
▁necesi	-2238
abi	-2239
▁haber	-2240
eral	-2241
fecto	-2242
kuspa	-2243
▁nunca	-2244
▁Par	-2245
raeli	-2246
▁af	-2247
▁datos	-2248
rir	-2249
▁prue	-2250
rea	-2251
ves	-2252
▁May	-2253
▁ñembo	-2254
ído	-2255
▁mensa	-2256
▁ts	-2257
0,	-2258
ayki	-2259
▁ichaqa	-2260
▁obra	-2261
▁iña	-2262
▁Nacional	-2263
▁28	-2264
clu	-2265
▁Nda	-2266
pipas	-2267
▁ñanduti	-2268
▁warmi	-2269
mil	-2270
▁Jez	-2271
▁seguridad	-2272
chakuy	-2273
ñandu	-2274
▁sonq	-2275
aka	-2276
jes	-2277
▁Min	-2278
óna	-2279
▁4:	-2280
▁enten	-2281
▁anti	-2282
rayku	-2283
▁vivir	-2284
▁Upéva	-2285
▁exper	-2286
kunapas	-2287
▁alguien	-2288
▁ojejapo	-2289
cis	-2290
▁obe	-2291
eni	-2292
▁momento	-2293
▁igu	-2294
▁hatun	-2295
▁kus	-2296
".	-2297
▁Je	-2298
--	-2299
eicha	-2300
stitu	-2301
▁ofre	-2302
▁osẽ	-2303
niyoq	-2304
▁israeli	-2305
ria	-2306
mete	-2307
▁Péicha	-2308
▁kaptin	-2309
▁publica	-2310
▁ijetu	-2311
ñar	-2312
ítulo	-2313
▁ante	-2314
bol	-2315
taron	-2316
▁NM	-2317
▁espiritual	-2318
▁Internet	-2319
▁yati	-2320
▁Jahecha	-2321
▁nave	-2322
▁miemb	-2323
dy	-2324
estí	-2325
▁deben	-2326
▁acep	-2327
▁ide	-2328
waq	-2329
chirqa	-2330
dis	-2331
▁Chaymi	-2332
▁aten	-2333
▁den	-2334
míva	-2335
▁trans	-2336
▁té	-2337
▁astawan	-2338
▁luego	-2339
poravo	-2340
▁hon	-2341
▁deber	-2342
▁ár	-2343
bios	-2344
▁servir	-2345
PA	-2346
▁ji	-2347
aremos	-2348
▁bene	-2349
ibi	-2350
alo	-2351
dya	-2352
▁gue	-2353
▁esposa	-2354
▁tradu	-2355
▁orekóva	-2356
tana	-2357
▁compañ	-2358
pen	-2359
kulo	-2360
▁ur	-2361
chasqa	-2362
fici	-2363
▁mara	-2364
▁oikóva	-2365
▁Bu	-2366
▁omon	-2367
Ja	-2368
▁tomar	-2369
▁3:	-2370
▁relig	-2371
rehe	-2372
▁reco	-2373
kunayuqmi	-2374
vía	-2375
has	-2376
mun	-2377
henda	-2378
bido	-2379
▁Oĩ	-2380
▁hérava	-2381
ñor	-2382
ipytyvõ	-2383
▁Timo	-2384
▁apyt	-2385
▁punchaw	-2386
tyo	-2387
▁obs	-2388
▁reuni	-2389
ávape	-2390
erãha	-2391
tencia	-2392
ãmby	-2393
La	-2394
Imanasqa	-2395
rí	-2396
El	-2397
▁edi	-2398
rende	-2399
tando	-2400
jerovia	-2401
▁Ikatu	-2402
▁tiemp	-2403
emi	-2404
Imaynatam	-2405
▁persóna	-2406
▁Diosmanta	-2407
▁Jerusalén	-2408
▁Jezre	-2409
ary	-2410
▁Ci	-2411
▁jawe	-2412
▁santo	-2413
tifica	-2414
chikqa	-2415
▁Ku	-2416
▁sitio	-2417
▁aty	-2418
En	-2419
▁katuete	-2420
▁acti	-2421
ỹi	-2422
desidi	-2423
▁sapa	-2424
▁péicha	-2425
eraha	-2426
um	-2427
▁encuen	-2428
mongeta	-2429
▁Salmo	-2430
▁imi	-2431
▁humanos	-2432
tō	-2433
▁cuer	-2434
▁LA	-2435
▁desarro	-2436
▁dej	-2437
▁clas	-2438
▁wakin	-2439
dero	-2440
▁kapuynin	-2441
▁multimi	-2442
lá	-2443
▁Mateo	-2444
endu	-2445
▁wañu	-2446
▁agu	-2447
▁multimidya	-2448
▁Abrah	-2449
20	-2450
pyta	-2451
▁eran	-2452
▁kunda	-2453
▁amistad	-2454
mbia	-2455
▁Rey	-2456
▁ohu	-2457
▁estable	-2458
▁nuevas	-2459
▁matri	-2460
oy	-2461
▁habían	-2462
▁Ri	-2463
tiago	-2464
▁paz	-2465
▁Qué	-2466
▁Estados	-2467
▁Aunque	-2468
▁upépe	-2469
▁conten	-2470
▁obje	-2471
asy	-2472
▁maña	-2473
ñangareko	-2474
▁reko	-2475
mes	-2476
cipa	-2477
▁yvá	-2478
▁Palabra	-2479
arias	-2480
▁Qui	-2481
▁haguéicha	-2482
▁kñ	-2483
▁volun	-2484
ñepyrũ	-2485
▁oñeha	-2486
son	-2487
Mateo	-2488
▁invi	-2489
▁kuña	-2490
samb	-2491
baon	-2492
val	-2493
▁estado	-2494
▁empe	-2495
lpe	-2496
▁gri	-2497
pera	-2498
▁kallpancha	-2499
▁ansi	-2500
▁siguiente	-2501
▁2:	-2502
ceso	-2503
▁1:	-2504
eterei	-2505
▁escribió	-2506
catl	-2507
▁repres	-2508
ok	-2509
taña	-2510
pia	-2511
▁bendi	-2512
INA	-2513
▁diri	-2514
áma	-2515
▁26	-2516
vicha	-2517
ustra	-2518
▁Estado	-2519
▁esperan	-2520
▁Esto	-2521
▁gotyo	-2522
ñay	-2523
▁ak	-2524
tera	-2525
▁ʼ	-2526
tak	-2527
▁hor	-2528
▁Embo	-2529
culos	-2530
▁Jezreel	-2531
aban	-2532
rio	-2533
ódi	-2534
▁ungi	-2535
▁problemas	-2536
▁siste	-2537
chisqan	-2538
▁Bí	-2539
▁oc	-2540
▁equi	-2541
▁conver	-2542
▁aja	-2543
kunaman	-2544
ze	-2545
▁27	-2546
urqa	-2547
▁hendive	-2548
terna	-2549
inka	-2550
guáva	-2551
▁tlen	-2552
ýta	-2553
uir	-2554
▁karqan	-2555
pyku	-2556
ismo	-2557
▁sufri	-2558
gna	-2559
llas	-2560
ck	-2561
▁asi	-2562
siones	-2563
▁segun	-2564
▁expres	-2565
▁ge	-2566
▁Nue	-2567
énesis	-2568
▁Timoteo	-2569
▁jó	-2570
ocu	-2571
▁sutiyuq	-2572
▁oporo	-2573
hue	-2574
tale	-2575
▁ojapóva	-2576
kri	-2577
▁mues	-2578
▁capa	-2579
▁hinam	-2580
▁wal	-2581
▁iva	-2582
▁ipo	-2583
kumpli	-2584
-3	-2585
▁ancianos	-2586
die	-2587
hovái	-2588
▁recor	-2589
eĩ	-2590
▁Ur	-2591
▁predicar	-2592
kuspan	-2593
▁iñiqmasinchik	-2594
TE	-2595
▁2.	-2596
firefox	-2597
▁podría	-2598
__	-2599
▁historia	-2600
▁mani	-2601
hai	-2602
damente	-2603
guápe	-2604
▁necesita	-2605
ex	-2606
abo	-2607
heko	-2608
▁trata	-2609
verbios	-2610
asta	-2611
▁chas	-2612
▁sentido	-2613
▁tus	-2614
kuyta	-2615
pto	-2616
nguéra	-2617
▁preguntas	-2618
▁jap	-2619
▁presi	-2620
▁ñaw	-2621
▁Artí	-2622
▁públi	-2623
▁Santa	-2624
gamos	-2625
▁omomba	-2626
▁Yo	-2627
usqa	-2628
alli	-2629
sito	-2630
▁comer	-2631
mbarete	-2632
arqaku	-2633
qta	-2634
witu	-2635
ehápe	-2636
▁red	-2637
cuerdo	-2638
▁Jesuspa	-2639
▁iskay	-2640
joja	-2641
intios	-2642
▁gobierno	-2643
LI	-2644
▁Abrahán	-2645
akã	-2646
chis	-2647
▁lleva	-2648
▁ñemo	-2649
▁yachay	-2650
▁menos	-2651
▁ño	-2652
▁judí	-2653
▁cien	-2654
▁llam	-2655
yec	-2656
▁Ale	-2657
antes	-2658
▁pende	-2659
ond	-2660
▁kuy	-2661
anchikpaq	-2662
ikin	-2663
▁nú	-2664
AR	-2665
▁Escritu	-2666
▁ora	-2667
▁buena	-2668
▁usu	-2669
▁Adán	-2670
▁especial	-2671
▁incluso	-2672
▁contro	-2673
▁Ahora	-2674
ándo	-2675
ong	-2676
▁har	-2677
minar	-2678
EM	-2679
réino	-2680
▁contin	-2681
▁hemos	-2682
▁ref	-2683
▁pyahu	-2684
dencia	-2685
raykum	-2686
▁expli	-2687
▁jani	-2688
▁aquí	-2689
aywitu	-2690
kunatam	-2691
gles	-2692
cieron	-2693
▁ndéve	-2694
▁cualquier	-2695
▁allí	-2696
bern	-2697
▁justicia	-2698
venes	-2699
▁pár	-2700
yku	-2701
▁conocer	-2702
▁difí	-2703
pú	-2704
▁*	-2705
lis	-2706
zilla	-2707
▁tante	-2708
▁estaban	-2709
▁yma	-2710
▁Lima	-2711
ciencia	-2712
▁Fa	-2713
▁jaikuaa	-2714
▁kuya	-2715
uelo	-2716
▁rik	-2717
▁saber	-2718
qap	-2719
▁mantener	-2720
▁tarde	-2721
▁gueteri	-2722
▁ita	-2723
▁fuera	-2724
puesto	-2725
▁cin	-2726
▁qaw	-2727
wanmi	-2728
▁īpan	-2729
▁favor	-2730
▁Li	-2731
ymi	-2732
póra	-2733
",	-2734
▁evi	-2735
▁oipota	-2736
estígo	-2737
▁kusi	-2738
▁shin	-2739
órke	-2740
▁conf	-2741
▁mujeres	-2742
jepy	-2743
▁apytépe	-2744
ai	-2745
éne	-2746
▁cel	-2747
vincia	-2748
▁Corintios	-2749
▁ruw	-2750
anto	-2751
▁mensaje	-2752
▁qo	-2753
Imatam	-2754
▁camino	-2755
▁priva	-2756
▁Entonces	-2757
▁ei	-2758
▁Kun	-2759
mána	-2760
▁acerca	-2761
com	-2762
▁opensa	-2763
▁31	-2764
▁jaiko	-2765
▁omoĩ	-2766
▁recono	-2767
▁edu	-2768
▁ax	-2769
▁All	-2770
gn	-2771
gár	-2772
▁2:1	-2773
aje	-2774
▁ifa	-2775
▁situación	-2776
▁millones	-2777
▁xi	-2778
tud	-2779
▁aña	-2780
▁mien	-2781
bas	-2782
▁réra	-2783
▁Escrituras	-2784
torio	-2785
zan	-2786
▁jóvenes	-2787
▁siglo	-2788
chwa	-2789
gro	-2790
ciales	-2791
ias	-2792
nte	-2793
▁dedi	-2794
▁estudio	-2795
ición	-2796
▁def	-2797
▁Bar	-2798
▁respues	-2799
▁xihuitl	-2800
onga	-2801
▁llaqtam	-2802
▁ga	-2803
▁senti	-2804
ãmbyhy	-2805
anaq	-2806
▁mientras	-2807
ópe	-2808
media	-2809
▁respons	-2810
imo	-2811
aqa	-2812
org	-2813
▁29	-2814
able	-2815
▁Au	-2816
ñeha	-2817
kumanta	-2818
▁192	-2819
pya	-2820
▁raz	-2821
▁seres	-2822
qsi	-2823
.”	-2824
▁kayna	-2825
▁Mācuīlpōhual	-2826
óramo	-2827
vro	-2828
▁xa	-2829
▁sacri	-2830
▁fá	-2831
anmanta	-2832
▁má	-2833
▁fortale	-2834
eremos	-2835
gir	-2836
▁hetaiterei	-2837
▁igual	-2838
▁ñap	-2839
téro	-2840
▁cuatro	-2841
▁Unidos	-2842
4:	-2843
pur	-2844
▁Testi	-2845
▁sistema	-2846
blia	-2847
▁anciano	-2848
▁grupo	-2849
▁organización	-2850
olu	-2851
▁jahe	-2852
▁Santiago	-2853
cin	-2854
dioma	-2855
bar	-2856
bles	-2857
▁esper	-2858
turo	-2859
HA	-2860
▁wasi	-2861
Re	-2862
▁Ñande	-2863
pres	-2864
▁Bíblia	-2865
▁yupay	-2866
jero	-2867
▁Ima	-2868
▁km	-2869
▁quiere	-2870
▁preocu	-2871
hort	-2872
encias	-2873
▁israelitas	-2874
▁tendr	-2875
manku	-2876
▁qal	-2877
▁sólo	-2878
ãnga	-2879
gü	-2880
▁din	-2881
▁tuvo	-2882
▁2011	-2883
▁itan	-2884
tol	-2885
▁Huk	-2886
▁liber	-2887
▁ministerio	-2888
▁yoi	-2889
▁Emo	-2890
▁bar	-2891
hax	-2892
guýpe	-2893
▁enseña	-2894
▁ndaikatúi	-2895
▁inte	-2896
▁archi	-2897
▁Después	-2898
▁Tra	-2899
réi	-2900
▁autor	-2901
ñemi	-2902
▁1:1	-2903
ápi	-2904
onte	-2905
▁Mes	-2906
▁bajo	-2907
pich	-2908
▁4:1	-2909
vesti	-2910
▁asy	-2911
▁Señor	-2912
▁misma	-2913
▁moa	-2914
▁lugár	-2915
aniel	-2916
tudia	-2917
▁aunque	-2918
aramo	-2919
upi	-2920
ñana	-2921
▁Cab	-2922
araní	-2923
▁enter	-2924
▁Artículo	-2925
tuni	-2926
gio	-2927
▁dé	-2928
▁úni	-2929
▁exa	-2930
kari	-2931
▁bon	-2932
▁chaynataq	-2933
umi	-2934
unaka	-2935
▁llumpa	-2936
▁oguero	-2937
▁ermano	-2938
▁runaqa	-2939
tancia	-2940
gion	-2941
▁mayu	-2942
▁algunas	-2943
▁esperanza	-2944
▁apa	-2945
OV	-2946
▁oguereko	-2947
:​1	-2948
▁cap	-2949
▁5:1	-2950
endápe	-2951
▁pie	-2952
▁pruwinsyapi	-2953
▁oñemoĩ	-2954
▁activi	-2955
▁duda	-2956
▁jasy	-2957
ÓN	-2958
oven	-2959
▁qell	-2960
ticos	-2961
sí	-2962
menta	-2963
cel	-2964
▁og̃uahẽ	-2965
▁pasado	-2966
cā	-2967
sé	-2968
▁sacrifi	-2969
▁punto	-2970
▁Cas	-2971
pegua	-2972
ísi	-2973
mio	-2974
▁6:	-2975
▁pensar	-2976
01	-2977
rus	-2978
▁Job	-2979
▁rei	-2980
cida	-2981
xico	-2982
▁Ita	-2983
▁artíkulo	-2984
▁oportuni	-2985
2:	-2986
jerure	-2987
▁pensa	-2988
▁Tim	-2989
▁ase	-2990
anqa	-2991
tur	-2992
▁pachapi	-2993
▁Fe	-2994
erva	-2995
mple	-2996
taría	-2997
▁aca	-2998
▁nueva	-2999
▁ví	-3000
▁congrega	-3001
irõ	-3002
▁err	-3003
▁zona	-3004
▁Que	-3005
énto	-3006
tivos	-3007
PE	-3008
DA	-3009
elee	-3010
gon	-3011
▁bake	-3012
curso	-3013
▁Hay	-3014
sin	-3015
▁vy	-3016
titud	-3017
sy	-3018
▁oñeh	-3019
▁idioma	-3020
▁kachkan	-3021
tĩ	-3022
fía	-3023
▁Yu	-3024
tín	-3025
cerdo	-3026
respon	-3027
and	-3028
▁sur	-3029
▁Mé	-3030
▁auto	-3031
▁tras	-3032
kis	-3033
▁relación	-3034
▁tú	-3035
="	-3036
▁paqar	-3037
cla	-3038
ñam	-3039
▁pecado	-3040
apor	-3041
anti	-3042
▁Tla	-3043
▁oño	-3044
▁Hijo	-3045
▁káda	-3046
▁lívro	-3047
▁Ei	-3048
chua	-3049
▁rimay	-3050
▁yachas	-3051
ctos	-3052
▁Saywitu	-3053
chk	-3054
unión	-3055
▁ángel	-3056
▁fieles	-3057
▁tiémpope	-3058
▁natura	-3059
mán	-3060
MO	-3061
▁ñambo	-3062
▁huñ	-3063
eras	-3064
kunatapas	-3065
▁akin	-3066
▁escla	-3067
▁compren	-3068
▁hacia	-3069
▁tor	-3070
▁ikatúva	-3071
ord	-3072
pis	-3073
▁cara	-3074
▁oman	-3075
vió	-3076
▁ose	-3077
ẽrendu	-3078
yama	-3079
hory	-3080
esakã	-3081
▁hetave	-3082
▁oin	-3083
▁yvypóra	-3084
chiy	-3085
BA	-3086
▁espera	-3087
▁ea	-3088
br	-3089
tú	-3090
enes	-3091
▁aprender	-3092
▁oñeme	-3093
▁derecho	-3094
IN	-3095
kunku	-3096
▁estamos	-3097
""	-3098
ingo	-3099
erna	-3100
zada	-3101
hína	-3102
▁família	-3103
▁qillqa	-3104
▁amigos	-3105
▁condu	-3106
▁reuniones	-3107
sen	-3108
▁noñe	-3109
ciembre	-3110
▁miembros	-3111
▁1,	-3112
véima	-3113
▁oikua	-3114
str	-3115
hera	-3116
▁#	-3117
▁humil	-3118
▁hembiapo	-3119
▁munay	-3120
rafo	-3121
▁principio	-3122
món	-3123
▁Qa	-3124
▁dispos	-3125
dona	-3126
gador	-3127
▁hinalla	-3128
▁ikatuha	-3129
teî	-3130
▁ungidos	-3131
▁agrade	-3132
kata	-3133
jy	-3134
▁asamb	-3135
apýpe	-3136
▁acuerdo	-3137
IS	-3138
▁según	-3139
▁futuro	-3140
g̃ui	-3141
▁hucha	-3142
▁Isaías	-3143
Che	-3144
naqa	-3145
ento	-3146
vir	-3147
tereíva	-3148
tía	-3149
▁fir	-3150
▁wis	-3151
▁llevar	-3152
véta	-3153
▁cir	-3154
dón	-3155
javy	-3156
▁mor	-3157
▁jue	-3158
ax	-3159
▁(*	-3160
▁rembiapo	-3161
aprende	-3162
▁opyta	-3163
▁añe	-3164
▁)	-3165
▁asis	-3166
▁&	-3167
zca	-3168
cir	-3169
2.	-3170
▁Minis	-3171
ló	-3172
pin	-3173
▁ovy	-3174
▁enseñan	-3175
▁Pu	-3176
úvape	-3177
▁ukax	-3178
tón	-3179
kotevẽ	-3180
zos	-3181
mbra	-3182
▁Jehováre	-3183
▁obede	-3184
vlé	-3185
▁cerca	-3186
▁ah	-3187
▁fácil	-3188
▁bíblicos	-3189
llu	-3190
▁oservi	-3191
tapa	-3192
▁diciembre	-3193
rasil	-3194
▁Comunes	-3195
ey	-3196
tamos	-3197
▁suce	-3198
▁voluntad	-3199
▁paqarisqa	-3200
arai	-3201
▁chaymi	-3202
bra	-3203
maha	-3204
▁ojerovia	-3205
▁autori	-3206
▁razón	-3207
▁yuyay	-3208
▁esf	-3209
trucción	-3210
chĩ	-3211
▁Pue	-3212
▁ansiáno	-3213
▁Bíbliape	-3214
▁ohechakuaa	-3215
taba	-3216
edad	-3217
kasión	-3218
">	-3219
▁jepi	-3220
eguasu	-3221
▁conven	-3222
▁ojos	-3223
▁sánto	-3224
téva	-3225
▁Cómo	-3226
ps	-3227
Qui	-3228
▁apli	-3229
▁sasachakuy	-3230
cando	-3231
guái	-3232
▁propó	-3233
▁rapicha	-3234
versidad	-3235
▁tayta	-3236
cali	-3237
▁comi	-3238
▁leer	-3239
ódigo	-3240
▁%1$	-3241
▁extra	-3242
▁provincia	-3243
dra	-3244
▁dinero	-3245
▁5:	-3246
manas	-3247
▁yvágape	-3248
mías	-3249
ual	-3250
▁qhi	-3251
▁ñanemo	-3252
▁Jesusqa	-3253
hare	-3254
▁Lla	-3255
▁ukan	-3256
▁opredika	-3257
u̱	-3258
▁realmente	-3259
▁xo	-3260
ficar	-3261
5:	-3262
▁salud	-3263
70	-3264
rika	-3265
▁cho	-3266
▁jai	-3267
▁joven	-3268
▁ruray	-3269
▁Daniel	-3270
▁Distrito	-3271
ichagua	-3272
▁prá	-3273
▁sacerdo	-3274
▁Francis	-3275
▁noche	-3276
▁sun	-3277
▁número	-3278
póri	-3279
▁Ama	-3280
cados	-3281
▁sumaq	-3282
50	-3283
▁haya	-3284
▁ojehecha	-3285
truc	-3286
▁táva	-3287
▁compar	-3288
▁pórke	-3289
▁vista	-3290
▁perman	-3291
▁saq	-3292
ekua	-3293
kuqa	-3294
kurs	-3295
cciones	-3296
▁sapy	-3297
▁come	-3298
5.	-3299
onia	-3300
▁ofi	-3301
ciar	-3302
▁terri	-3303
▁bondad	-3304
▁lliw	-3305
cidos	-3306
vléma	-3307
▁jawen	-3308
▁oheja	-3309
▁opro	-3310
▁uso	-3311
▁proyec	-3312
▁yach	-3313
ida	-3314
rica	-3315
kunanchik	-3316
dida	-3317
trib	-3318
▁yvypora	-3319
40	-3320
tayna	-3321
▁phax	-3322
fru	-3323
▁entender	-3324
▁jajap	-3325
▁hacen	-3326
▁efecto	-3327
▁ruwan	-3328
▁33	-3329
moneĩ	-3330
▁pron	-3331
Jeh	-3332
▁dado	-3333
▁mayoría	-3334
Ñandejára	-3335
▁munasqan	-3336
▁ocas	-3337
▁Ay	-3338
▁Col	-3339
▁meme	-3340
▁ñanembo	-3341
vés	-3342
pública	-3343
▁aún	-3344
▁mano	-3345
ýra	-3346
▁enemi	-3347
▁Oje	-3348
▁Ex	-3349
▁kas	-3350
ondive	-3351
mimbo	-3352
inten	-3353
▁Lucas	-3354
▁bueno	-3355
▁reino	-3356
▁árbol	-3357
▁amar	-3358
▁hanaq	-3359
anakax	-3360
ie	-3361
▁nay	-3362
▁guerra	-3363
▁cuerpo	-3364
▁riki	-3365
▁qallar	-3366
mbyry	-3367
TU	-3368
▁tee	-3369
Salmo	-3370
▁Or	-3371
ira	-3372
▁niño	-3373
▁ndaja	-3374
▁lado	-3375
▁dejar	-3376
▁uyar	-3377
▁vali	-3378
▁reve	-3379
lustra	-3380
▁murió	-3381
aj	-3382
ribi	-3383
lih	-3384
tarse	-3385
ura	-3386
▁Ley	-3387
▁Pri	-3388
▁través	-3389
dieron	-3390
mbyaty	-3391
▁Rréino	-3392
▁nadie	-3393
▁principios	-3394
tt	-3395
vore	-3396
ikotevẽ	-3397
▁Uma	-3398
▁porãve	-3399
laro	-3400
osos	-3401
▁cierto	-3402
isipy	-3403
menda	-3404
▁shinan	-3405
▁’,	-3406
Ha	-3407
íri	-3408
▁cinco	-3409
▁República	-3410
paite	-3411
tores	-3412
pital	-3413
▁yoia	-3414
▁wali	-3415
visión	-3416
▁Ndai	-3417
▁llev	-3418
▁segui	-3419
̱u	-3420
▁umíva	-3421
▁kuatia	-3422
ste	-3423
til	-3424
▁imba	-3425
▁río	-3426
▁ban	-3427
▁enferme	-3428
VA	-3429
▁matrimonio	-3430
uta	-3431
▁jar	-3432
▁Pre	-3433
pichápe	-3434
dose	-3435
▁haguã	-3436
▁yva	-3437
▁diferentes	-3438
kir	-3439
▁ala	-3440
vu	-3441
tiaro	-3442
▁templo	-3443
irũ	-3444
▁Noé	-3445
▁ipa	-3446
▁manda	-3447
udo	-3448
▁recibir	-3449
▁ikan	-3450
ñataqmi	-3451
vers	-3452
▁Luis	-3453
▁Paraguái	-3454
▁mediante	-3455
▁Hin	-3456
▁dibu	-3457
cun	-3458
▁Mbo	-3459
embre	-3460
yn	-3461
▁arre	-3462
▁somos	-3463
-19	-3464
▁Algun	-3465
▁yachan	-3466
▁fo	-3467
sého	-3468
▁desa	-3469
lado	-3470
chakuna	-3471
▁ojapova	-3472
▁ava	-3473
▁propósito	-3474
▁vuel	-3475
ag̃ui	-3476
▁amb	-3477
uruvicha	-3478
Si	-3479
qmi	-3480
▁punta	-3481
▁partici	-3482
▁mia	-3483
lares	-3484
▁cabeza	-3485
▁ky	-3486
▁tapu	-3487
dena	-3488
▁runakunata	-3489
▁Eva	-3490
fren	-3491
▁hue	-3492
ongatu	-3493
▁investi	-3494
▁Tetã	-3495
▁log	-3496
▁div	-3497
▁idi	-3498
▁toma	-3499
eru	-3500
greso	-3501
▁jerovia	-3502
qkuna	-3503
tara	-3504
▁Anton	-3505
▁jes	-3506
4.	-3507
▁ellas	-3508
▁sali	-3509
▁esfuer	-3510
tay	-3511
▁◄◄	-3512
▁tenían	-3513
▁ñamo	-3514
▁benefi	-3515
▁iñimportante	-3516
▁ocur	-3517
Rom	-3518
eva	-3519
▁kongregasiónpe	-3520
▁cele	-3521
▁janiw	-3522
▁►►	-3523
▁esposo	-3524
▁lá	-3525
▁jach	-3526
anas	-3527
▁clase	-3528
▁ñanderehe	-3529
▁atención	-3530
▁hermana	-3531
▁tribu	-3532
óma	-3533
▁rurasqan	-3534
tada	-3535
▁Constitu	-3536
▁ramo	-3537
ẽñemi	-3538
hapy	-3539
▁héntepe	-3540
▁consejo	-3541
▁qha	-3542
íamos	-3543
▁ñepyrũ	-3544
▁▪	-3545
▁Pas	-3546
▁pene	-3547
mal	-3548
▁Porque	-3549
▁kiti	-3550
▁pró	-3551
bal	-3552
▁confianza	-3553
▁ruran	-3554
▁tipo	-3555
porandu	-3556
vio	-3557
▁tl	-3558
▁proba	-3559
zaron	-3560
▁ningún	-3561
breos	-3562
▁recha	-3563
▁human	-3564
▁países	-3565
▁podía	-3566
▁ojeh	-3567
▁Francisco	-3568
▁1.	-3569
▁opu	-3570
▁kasqanmanta	-3571
hel	-3572
▁oikotevẽ	-3573
bor	-3574
tene	-3575
▁seguro	-3576
▁oración	-3577
▁edad	-3578
nic	-3579
▁oiporu	-3580
▁contras	-3581
▁opavave	-3582
lara	-3583
6:	-3584
▁encontrar	-3585
▁Carlos	-3586
▁muestra	-3587
▁poner	-3588
▁explica	-3589
▁predicación	-3590
gus	-3591
glesia	-3592
▁código	-3593
▁progra	-3594
▁oĩha	-3595
▁yoyo	-3596
▁principal	-3597
kué	-3598
pli	-3599
▁jakon	-3600
▁prueba	-3601
9:	-3602
▁40	-3603
▁serán	-3604
▁oñondive	-3605
minos	-3606
▁oikóta	-3607
▁autoridad	-3608
▁6:1	-3609
▁ermána	-3610
▁Roma	-3611
qha	-3612
▁qawachin	-3613
▁texto	-3614
▁opaite	-3615
vieron	-3616
▁fru	-3617
▁ipan	-3618
▁testígo	-3619
Dios	-3620
▁don	-3621
▁dirección	-3622
óme	-3623
▁ruway	-3624
▁vove	-3625
ose	-3626
▁Salom	-3627
▁ejer	-3628
▁Sil	-3629
3.	-3630
▁vé	-3631
▁konsého	-3632
▁comunidad	-3633
bel	-3634
▁ata	-3635
▁lim	-3636
▁ypy	-3637
amos	-3638
paña	-3639
▁prome	-3640
ñetehápe	-3641
▁grandes	-3642
MI	-3643
yhẽ	-3644
▁religios	-3645
▁jahu	-3646
▁respuesta	-3647
GU	-3648
pañol	-3649
vista	-3650
jus	-3651
▁exis	-3652
ministra	-3653
▁Apo	-3654
usqan	-3655
gor	-3656
Lu	-3657
mbaite	-3658
tix	-3659
ekuaarã	-3660
6.	-3661
▁cur	-3662
potĩ	-3663
tima	-3664
▁judíos	-3665
tari	-3666
DE	-3667
▁final	-3668
kurqaku	-3669
▁papa	-3670
▁cuanto	-3671
▁noa	-3672
tidad	-3673
▁Más	-3674
ukuna	-3675
▁wan	-3676
juhu	-3677
loque	-3678
duría	-3679
▁quin	-3680
▁ixon	-3681
úramo	-3682
▁orden	-3683
ovy	-3684
▁peteî	-3685
▁obli	-3686
▁disfru	-3687
tiri	-3688
▁algún	-3689
érno	-3690
▁sería	-3691
▁escuela	-3692
itépa	-3693
▁5,	-3694
▁pob	-3695
▁salva	-3696
▁hesekuéra	-3697
▁tsa	-3698
▁Salomón	-3699
▁fr	-3700
san	-3701
tario	-3702
▁Mun	-3703
ken	-3704
▁rréi	-3705
tlan	-3706
▁biblia	-3707
▁ndaikatu	-3708
▁law	-3709
am	-3710
árõ	-3711
parta	-3712
▁alcan	-3713
Name	-3714
tell	-3715
▁aru	-3716
logía	-3717
▁aleg	-3718
cina	-3719
rección	-3720
▁sentir	-3721
▁Can	-3722
▁oike	-3723
30	-3724
▁Ara	-3725
ccion	-3726
▁difícil	-3727
Isa	-3728
▁soli	-3729
ph	-3730
▁precurs	-3731
gipto	-3732
▁araka	-3733
vlo	-3734
ẽrend	-3735
▁tiempopi	-3736
▁encontra	-3737
▁oñangareko	-3738
▁Samuel	-3739
▁espirituales	-3740
▁Oim	-3741
cter	-3742
▁War	-3743
▁Marco	-3744
▁mucha	-3745
▁wiñay	-3746
deo	-3747
▁ol	-3748
▁decisión	-3749
▁uan	-3750
kóinte	-3751
▁kil	-3752
▁jain	-3753
▁Yvy	-3754
pyahu	-3755
▁niko	-3756
▁Diablo	-3757
wasun	-3758
▁muni	-3759
▁Brasil	-3760
▁osegi	-3761
▁tiempos	-3762
AP	-3763
gl	-3764
▁Asun	-3765
uestra	-3766
▁ses	-3767
▁embo	-3768
▁superinten	-3769
águi	-3770
▁ade	-3771
7:	-3772
eres	-3773
▁maran	-3774
bora	-3775
énsia	-3776
▁ojerure	-3777
▁sabi	-3778
3:	-3779
▁empres	-3780
▁Jesúspe	-3781
éiva	-3782
▁Tes	-3783
EH	-3784
pax	-3785
▁imapas	-3786
▁reh	-3787
ỹre	-3788
akin	-3789
▁ñemi	-3790
▁jon	-3791
▁Muni	-3792
érare	-3793
7.	-3794
▁ras	-3795
▁tsi	-3796
ávapa	-3797
tudi	-3798
▁desi	-3799
▁PÁ	-3800
▁nai	-3801
ekuére	-3802
▁eterna	-3803
jama	-3804
▁iba	-3805
▁navegador	-3806
▁kikin	-3807
tho	-3808
▁cri	-3809
▁uru	-3810
lihión	-3811
▁amigo	-3812
gí	-3813
▁responsabi	-3814
inakax	-3815
▁ojepy	-3816
▁verdadera	-3817
ínte	-3818
pl	-3819
▁llegó	-3820
▁humanidad	-3821
tará	-3822
gal	-3823
▁entéro	-3824
▁Sara	-3825
▁alma	-3826
ego	-3827
▁atra	-3828
▁iti	-3829
AL	-3830
▁usar	-3831
▁5.	-3832
▁ES	-3833
unto	-3834
▁fil	-3835
▁regu	-3836
vauti	-3837
▁pesar	-3838
cula	-3839
cemos	-3840
kyhy	-3841
▁campo	-3842
Jehová	-3843
▁Migue	-3844
▁profun	-3845
▁Ñandej	-3846
▁presen	-3847
▁problema	-3848
fico	-3849
▁visi	-3850
▁Lib	-3851
▁deja	-3852
alidades	-3853
▁realidad	-3854
joko	-3855
▁prepar	-3856
íso	-3857
hayh	-3858
▁extran	-3859
▁prom	-3860
tés	-3861
▁huñuna	-3862
pýpe	-3863
ýgui	-3864
▁’.	-3865
enói	-3866
▁Jas	-3867
▁mundi	-3868
ápa	-3869
pana	-3870
uicio	-3871
▁(200	-3872
tenonde	-3873
mantaqa	-3874
▁poguýpe	-3875
▁Wakin	-3876
▁cumplir	-3877
▁at	-3878
▁quería	-3879
úl	-3880
▁Vea	-3881
▁cristiana	-3882
▁asegu	-3883
▁fuerte	-3884
▁yachachikuy	-3885
▁há	-3886
▁llaqtanqa	-3887
▁Ge	-3888
▁jaq	-3889
▁señor	-3890
▁II	-3891
CIÓN	-3892
▁sabiduría	-3893
▁elim	-3894
▁viol	-3895
▁profec	-3896
tepe	-3897
gy	-3898
▁tele	-3899
ónde	-3900
rupi	-3901
äw	-3902
▁dicho	-3903
▁gracias	-3904
ques	-3905
iones	-3906
▁conocimiento	-3907
iendo	-3908
▁obras	-3909
vier	-3910
▁Antonio	-3911
▁general	-3912
▁bíblico	-3913
hun	-3914
▁llapa	-3915
60	-3916
▁experien	-3917
▁mismos	-3918
Se	-3919
▁llaki	-3920
lidades	-3921
▁ejemp	-3922
▁presidente	-3923
▁apare	-3924
▁falta	-3925
mondo	-3926
crip	-3927
▁pen	-3928
▁EN	-3929
▁siervo	-3930
tiarogue	-3931
kiw	-3932
▁Egipto	-3933
8.	-3934
▁animales	-3935
▁ītō	-3936
ygua	-3937
▁renda	-3938
iahu	-3939
puni	-3940
muq	-3941
viérno	-3942
▁completo	-3943
talla	-3944
▁varios	-3945
▁was	-3946
eska	-3947
▁ñañeha	-3948
▁Tay	-3949
▁kuna	-3950
cara	-3951
▁hacerlo	-3952
9.	-3953
tava	-3954
vé	-3955
▁archivo	-3956
eporã	-3957
▁jahechauka	-3958
▁cē	-3959
):	-3960
▁indí	-3961
chávo	-3962
kanai	-3963
▁Cen	-3964
myesakã	-3965
1.	-3966
▁pelig	-3967
▁insta	-3968
▁condi	-3969
▁Miguel	-3970
▁llamado	-3971
ctores	-3972
▁kusisqa	-3973
▁situasión	-3974
▁sar	-3975
▁lín	-3976
▁guaraní	-3977
▁Urqu	-3978
aguapy	-3979
▁siete	-3980
cháta	-3981
▁vése	-3982
▁suy	-3983
▁qillq	-3984
quin	-3985
▁volver	-3986
quiera	-3987
▁onan	-3988
▁decisiones	-3989
▁ohóvo	-3990
osas	-3991
▁sean	-3992
▁Pór	-3993
kuptin	-3994
▁imper	-3995
gueraha	-3996
strong	-3997
tribu	-3998
▁rápi	-3999
rusu	-4000
▁cambio	-4001
▁preocupa	-4002
chaq	-4003
▁materi	-4004
▁–	-4005
▁Val	-4006
▁Chaymantapas	-4007
pxi	-4008
8:	-4009
itépe	-4010
▁México	-4011
▁necesario	-4012
cht	-4013
▁mbohapy	-4014
zás	-4015
▁Mayukuna	-4016
kunankupaq	-4017
Génesis	-4018
pun	-4019
grafía	-4020
▁manifes	-4021
úvo	-4022
tanaka	-4023
▁profeta	-4024
inta	-4025
hn	-4026
árare	-4027
▁vio	-4028
eren	-4029
ham	-4030
▁provléma	-4031
kói	-4032
▁Mon	-4033
▁sonqo	-4034
jehe	-4035
▁Bab	-4036
ómi	-4037
GINA	-4038
▁tema	-4039
▁alguna	-4040
Le	-4041
erv	-4042
▁dolor	-4043
▁Ten	-4044
pá	-4045
▁jatian	-4046
90	-4047
cate	-4048
▁kani	-4049
▁190	-4050
gá	-4051
eho	-4052
ñembo	-4053
▁contrase	-4054
isión	-4055
▁oikove	-4056
?”.	-4057
▁anun	-4058
▁reli	-4059
▁sabe	-4060
▁qucha	-4061
80	-4062
eti	-4063
▁karai	-4064
ares	-4065
tivas	-4066
▁ayudará	-4067
▁sé	-4068
▁hora	-4069
▁causa	-4070
▁haciendo	-4071
▁qatiqnin	-4072
Vea	-4073
oka	-4074
▁3.	-4075
▁pregunta	-4076
▁ocu	-4077
vépe	-4078
yanu	-4079
anan	-4080
▁Ata	-4081
▁ifamília	-4082
glés	-4083
▁fuerza	-4084
▁segundo	-4085
▁Ehecha	-4086
▁añ	-4087
▁Ñane	-4088
▁resu	-4089
▁puer	-4090
▁naciones	-4091
uehe	-4092
chikmi	-4093
▁verdadero	-4094
residente	-4095
mir	-4096
▁ello	-4097
▁llaqtayuq	-4098
guata	-4099
koros	-4100
▁nota	-4101
dentes	-4102
book	-4103
▁siendo	-4104
▁glor	-4105
▁celesti	-4106
▁munisipy	-4107
pampa	-4108
▁omoakã	-4109
▁respeto	-4110
pens	-4111
TI	-4112
glo	-4113
rede	-4114
culta	-4115
▁Eze	-4116
▁Tayta	-4117
▁4.	-4118
▁Gobier	-4119
▁pasar	-4120
tellano	-4121
▁Tal	-4122
▁deter	-4123
MA	-4124
▁échi	-4125
▁dispon	-4126
▁Eli	-4127
berna	-4128
▁Constitución	-4129
▁rrelihión	-4130
▁Pacha	-4131
ganis	-4132
▁Diosman	-4133
▁econ	-4134
%1$	-4135
vli	-4136
▁cla	-4137
ondépe	-4138
▁runakunam	-4139
quy	-4140
tsu	-4141
▁estudiar	-4142
▁Mozilla	-4143
▁español	-4144
eichaitépa	-4145
alva	-4146
▁ari	-4147
▁abri	-4148
▁afec	-4149
▁michĩ	-4150
ctamente	-4151
▁encar	-4152
▁ñawpaq	-4153
Luc	-4154
ior	-4155
ecre	-4156
omas	-4157
tiene	-4158
▁probable	-4159
▁mus	-4160
▁espa	-4161
▁mision	-4162
▁SU	-4163
▁llen	-4164
▁HA	-4165
▁largo	-4166
▁público	-4167
hara	-4168
aykipaq	-4169
turas	-4170
unchik	-4171
▁versí	-4172
lindar	-4173
▁imatapas	-4174
▁15/	-4175
rayhu	-4176
▁Edu	-4177
▁ruwasqan	-4178
kiwa	-4179
ref	-4180
▁oipuru	-4181
mígo	-4182
▁yaqa	-4183
▁Ministerio	-4184
kupi	-4185
▁regres	-4186
ísticas	-4187
▁ohechauk	-4188
cómo	-4189
remos	-4190
Ro	-4191
yar	-4192
▁prepara	-4193
▁Ed	-4194
▁muna	-4195
▁todavía	-4196
▁contenido	-4197
▁kalindar	-4198
▁ohupyty	-4199
vil	-4200
tsie	-4201
▁kalindaryu	-4202
dez	-4203
ope	-4204
ariy	-4205
▁ojejap	-4206
▁Según	-4207
▁vino	-4208
▁añoite	-4209
▁enseñar	-4210
▁Ben	-4211
TO	-4212
▁der	-4213
▁Jehú	-4214
ÑB	-4215
ketian	-4216
▁Ana	-4217
tlā	-4218
5-	-4219
liwya	-4220
▁>	-4221
ỹijo	-4222
▁visto	-4223
▁kaspan	-4224
Mar	-4225
▁ynic	-4226
▁dentro	-4227
unka	-4228
ambue	-4229
▁Proverbios	-4230
▁maes	-4231
▁refer	-4232
▁actitud	-4233
▁nación	-4234
▁Cá	-4235
▁mú	-4236
▁bas	-4237
ama	-4238
gentina	-4239
▁aman	-4240
▁ai	-4241
▁Todos	-4242
niyuq	-4243
▁levan	-4244
▁escuchar	-4245
Ko	-4246
▁mañana	-4247
px	-4248
▁sirvi	-4249
kuaáva	-4250
ws	-4251
▁kim	-4252
ãiha	-4253
▁retã	-4254
▁Guar	-4255
▁señal	-4256
▁región	-4257
▁voz	-4258
▁meta	-4259
▁Romanos	-4260
▁fra	-4261
▁ijehe	-4262
▁cher	-4263
▁predica	-4264
▁gobern	-4265
tino	-4266
▁oja	-4267
▁inglés	-4268
rada	-4269
war	-4270
▁Cabeza	-4271
▁síno	-4272
ctica	-4273
▁rangue	-4274
aypaq	-4275
▁docu	-4276
▁aquel	-4277
▁deseo	-4278
chisqa	-4279
▁ojekuaa	-4280
oki	-4281
▁institu	-4282
▁50	-4283
karu	-4284
leey	-4285
laya	-4286
▁100	-4287
respe	-4288
▁pis	-4289
clara	-4290
fectos	-4291
wit	-4292
▁kaynata	-4293
▁luz	-4294
▁difi	-4295
▁carne	-4296
▁junto	-4297
▁akóinte	-4298
Is	-4299
uspan	-4300
▁Añetehápe	-4301
▁we	-4302
▁kanqa	-4303
▁qhichwa	-4304
Lucas	-4305
▁publicaciones	-4306
▁sor	-4307
kupas	-4308
ninta	-4309
▁enseñ	-4310
kto	-4311
▁considera	-4312
▁chaq	-4313
katú	-4314
▁kar	-4315
léase	-4316
▁ró	-4317
▁Eje	-4318
▁refle	-4319
gis	-4320
áiva	-4321
kuã	-4322
▁sas	-4323
▁viven	-4324
▁Marcos	-4325
▁Quchakuna	-4326
▁añetehápe	-4327
▁Ñandejárare	-4328
DI	-4329
maña	-4330
▁Ser	-4331
bamos	-4332
ginas	-4333
▁pape	-4334
chana	-4335
ork	-4336
▁cuar	-4337
▁aymara	-4338
▁cultura	-4339
▁jajerovia	-4340
▁sola	-4341
gni	-4342
▁inde	-4343
kuérare	-4344
▁Res	-4345
▁manos	-4346
rales	-4347
▁markan	-4348
oll	-4349
dus	-4350
ad	-4351
▁Za	-4352
▁Algunos	-4353
gido	-4354
▁trabaja	-4355
▁12:	-4356
pul	-4357
Hech	-4358
▁servichi	-4359
Con	-4360
1:	-4361
▁joni	-4362
▁Asunción	-4363
yaq	-4364
▁Nueva	-4365
Prov	-4366
▁orre	-4367
▁refi	-4368
▁buscar	-4369
▁sutin	-4370
pyréva	-4371
▁ejecu	-4372
haninka	-4373
ctiva	-4374
dri	-4375
▁influ	-4376
▁hapi	-4377
▁Ciudad	-4378
etel	-4379
cebook	-4380
▁domin	-4381
▁admi	-4382
▁ukhamara	-4383
áre	-4384
▁ojes	-4385
Heb	-4386
ekuépe	-4387
ben	-4388
▁camp	-4389
tubre	-4390
▁ohayhu	-4391
▁iporãva	-4392
guen	-4393
▁ÑÑB	-4394
▁Amé	-4395
▁Gra	-4396
Jawe	-4397
▁realizar	-4398
riri	-4399
▁Babil	-4400
▁debido	-4401
▁marca	-4402
▁ñanepytyvõta	-4403
PL	-4404
ayo	-4405
jam	-4406
inki	-4407
▁Urqukuna	-4408
▁kos	-4409
▁Ped	-4410
▁libertad	-4411
deros	-4412
▁línea	-4413
▁descu	-4414
▁imagen	-4415
▁envi	-4416
▁permite	-4417
pí	-4418
▁origin	-4419
▁Hoy	-4420
▁versión	-4421
▁kananpaq	-4422
gri	-4423
ñatende	-4424
▁odesidi	-4425
▁celestial	-4426
▁kawsay	-4427
▁uñt	-4428
▁mir	-4429
▁wañusqa	-4430
▁32	-4431
▁anali	-4432
▁mostrar	-4433
▁ohas	-4434
nacional	-4435
▁ŕ	-4436
xima	-4437
▁aco	-4438
▁kár	-4439
▁nació	-4440
▁carta	-4441
ekuaa	-4442
▁12:1	-4443
▁Jere	-4444
RI	-4445
kópe	-4446
▁enfren	-4447
litar	-4448
cana	-4449
▁feliz	-4450
cultades	-4451
chy	-4452
tarios	-4453
pacha	-4454
▁Rosa	-4455
▁dispositi	-4456
2$	-4457
▁estre	-4458
▁cualidades	-4459
tyvõ	-4460
yk	-4461
EC	-4462
▁privi	-4463
▁0	-4464
▁♪	-4465
cien	-4466
forma	-4467
▁my	-4468
píritu	-4469
▁solici	-4470
ñemo	-4471
enohẽ	-4472
▁mapu	-4473
▁semana	-4474
▁declara	-4475
▁interes	-4476
▁dem	-4477
tha	-4478
táva	-4479
▁goviérno	-4480
▁menudo	-4481
llar	-4482
▁distin	-4483
▁consejos	-4484
rán	-4485
▁ovejas	-4486
▁yanapan	-4487
aiterei	-4488
▁Mesías	-4489
▁blan	-4490
kunanpaq	-4491
▁últimos	-4492
▁javy	-4493
bado	-4494
än	-4495
Imanasqataq	-4496
▁exten	-4497
anak	-4498
dé	-4499
▁desea	-4500
▁libre	-4501
▁ihuan	-4502
▁actividades	-4503
▁derechos	-4504
ct	-4505
wanqa	-4506
▁médi	-4507
damos	-4508
▁inclu	-4509
▁cuesti	-4510
aporã	-4511
▁leyes	-4512
▁quién	-4513
eración	-4514
▁encuentra	-4515
húpe	-4516
▁seis	-4517
▁sue	-4518
▁iden	-4519
▁páginas	-4520
dióma	-4521
guejy	-4522
▁funcion	-4523
asqayki	-4524
ñataki	-4525
▁Testigos	-4526
▁sara	-4527
▁haw	-4528
cob	-4529
▁hicieron	-4530
▁representa	-4531
▁qe	-4532
▁desarrollo	-4533
▁PE	-4534
----	-4535
:3).	-4536
▁recuer	-4537
ati	-4538
▁hayka	-4539
▁ikatúta	-4540
▁aban	-4541
▁ndoje	-4542
▁rejapo	-4543
▁comenzó	-4544
▁proyecto	-4545
▁dejó	-4546
▁ītōcā	-4547
▁Universidad	-4548
▁afir	-4549
▁sien	-4550
▁wisha	-4551
OVÁ	-4552
elos	-4553
yqa	-4554
▁tur	-4555
▁runakunapa	-4556
▁Secre	-4557
▁publi	-4558
▁sabía	-4559
ut	-4560
▁páhina	-4561
▁cambiar	-4562
vísio	-4563
▁contr	-4564
▁kanman	-4565
▁Gen	-4566
▁perse	-4567
veha	-4568
▁href	-4569
▁esfor	-4570
▁constr	-4571
▁chuya	-4572
▁razones	-4573
arái	-4574
▁puru	-4575
oc	-4576
▁olvi	-4577
▁qalla	-4578
tánte	-4579
guapy	-4580
▁evitar	-4581
▁1/	-4582
Hechos	-4583
pyry	-4584
▁total	-4585
▁abier	-4586
▁quechua	-4587
▁centro	-4588
▁Auh	-4589
ata	-4590
▁du	-4591
▁entr	-4592
kai	-4593
▁adoración	-4594
▁jase	-4595
▁correspon	-4596
china	-4597
▁nisqanman	-4598
cni	-4599
▁van	-4600
▁gusta	-4601
.*	-4602
▁run	-4603
▁ohendu	-4604
ito	-4605
wasqanchik	-4606
▁oportunidad	-4607
▁hinaspam	-4608
▁propio	-4609
▁pelí	-4610
▁renondépe	-4611
▁auh	-4612
▁jaweki	-4613
qs	-4614
▁ñamomba	-4615
▁oime	-4616
dea	-4617
migo	-4618
▁tro	-4619
äna	-4620
alee	-4621
inado	-4622
▁juicio	-4623
psis	-4624
arnos	-4625
vel	-4626
▁Upépe	-4627
erto	-4628
▁ángeles	-4629
ob	-4630
cionales	-4631
▁propia	-4632
▁párrafo	-4633
cían	-4634
▁Apó	-4635
▁cabo	-4636
raelíta	-4637
▁qall	-4638
▁wet	-4639
gió	-4640
▁satis	-4641
▁descen	-4642
▁cosa	-4643
▁esco	-4644
zados	-4645
▁puso	-4646
▁Atalaya	-4647
▁certifica	-4648
chí	-4649
▁runakunaqa	-4650
▁urqu	-4651
▁proce	-4652
▁Argentina	-4653
tereí	-4654
▁ndoik	-4655
▁compañeros	-4656
▁limpi	-4657
▁usa	-4658
▁rembipota	-4659
▁Ani	-4660
▁presenta	-4661
▁pronto	-4662
▁Luego	-4663
▁ojapóta	-4664
▁Bibliapa	-4665
▁educación	-4666
▁Fern	-4667
▁apos	-4668
eño	-4669
órõ	-4670
genas	-4671
San	-4672
▁PA	-4673
▁pué	-4674
arandu	-4675
▁hukman	-4676
▁Ac	-4677
émpre	-4678
▁Ella	-4679
▁apóstoles	-4680
tako	-4681
▁meses	-4682
▁destr	-4683
▁conciencia	-4684
sica	-4685
livia	-4686
▁cheqap	-4687
▁lista	-4688
▁...	-4689
ÁN	-4690
▁Durante	-4691
Gén	-4692
▁exi	-4693
▁atin	-4694
lustración	-4695
deral	-4696
▁mato	-4697
▁casi	-4698
▁."	-4699
▁JEH	-4700
▁trabajar	-4701
?,	-4702
hesa	-4703
▁Polí	-4704
▁Wiki	-4705
▁Betel	-4706
entemente	-4707
stol	-4708
▁taha	-4709
▁Buliwya	-4710
DO	-4711
▁octubre	-4712
▁Euro	-4713
▁vamos	-4714
agra	-4715
chiq	-4716
▁parece	-4717
▁mente	-4718
korosã	-4719
charamo	-4720
▁Crea	-4721
▁IN	-4722
guir	-4723
6-	-4724
zá	-4725
▁objetivo	-4726
cito	-4727
▁nato	-4728
▁kilóme	-4729
▁Sus	-4730
▁pal	-4731
▁Len	-4732
tique	-4733
volu	-4734
▁pyhare	-4735
▁mburuvicha	-4736
▁reñói	-4737
▁contrib	-4738
kunataqa	-4739
▁léi	-4740
▁chan	-4741
cada	-4742
▁idióma	-4743
▁ll	-4744
kiti	-4745
iahuv	-4746
▁correo	-4747
▁bá	-4748
fé	-4749
▁físi	-4750
gob	-4751
▁siente	-4752
▁ñapensa	-4753
▁isr	-4754
▁sy	-4755
chir	-4756
▁shi	-4757
▁oñeñandu	-4758
aju	-4759
▁papel	-4760
mombe	-4761
▁protección	-4762
▁6.	-4763
▁pin	-4764
mpu	-4765
illan	-4766
▁enga	-4767
▁tape	-4768
▁apoyo	-4769
▁1:2	-4770
▁dicen	-4771
▁resuci	-4772
▁sabemos	-4773
▁ánhel	-4774
pata	-4775
stan	-4776
▁árape	-4777
▁sangre	-4778
hechakuaa	-4779
’,	-4780
kichik	-4781
▁represen	-4782
wir	-4783
inar	-4784
xata	-4785
chagua	-4786
▁11:	-4787
▁caus	-4788
▁importancia	-4789
yotl	-4790
terove	-4791
gada	-4792
▁pequeña	-4793
KA	-4794
▁reunión	-4795
▁castellano	-4796
mava	-4797
cpa	-4798
cano	-4799
▁“¡	-4800
ẽnguéra	-4801
▁sacrificio	-4802
▁arandu	-4803
▁puedes	-4804
▁pruebas	-4805
▁ogov	-4806
▁Apóstol	-4807
▁entiende	-4808
ógi	-4809
rededor	-4810
▁lugares	-4811
▁enfermedad	-4812
▁%(	-4813
▁contes	-4814
▁za	-4815
jépa	-4816
▁rin	-4817
▁puesto	-4818
▁nd	-4819
ingü	-4820
▁permane	-4821
▁ngu	-4822
qe	-4823
▁2,	-4824
▁gana	-4825
▁ojehe	-4826
▁Ob	-4827
▁joi	-4828
iscal	-4829
7)	-4830
▁Jan	-4831
▁ipya	-4832
ducción	-4833
▁bíblicas	-4834
▁administra	-4835
IB	-4836
▁bloque	-4837
▁willakuy	-4838
▁qon	-4839
chikpi	-4840
ericor	-4841
▁churin	-4842
▁mundial	-4843
▁horas	-4844
tios	-4845
papa	-4846
▁allá	-4847
▁ninguna	-4848
▁importantes	-4849
marõ	-4850
masia	-4851
▁kaspa	-4852
ico	-4853
▁7.	-4854
▁queremos	-4855
▁poli	-4856
legio	-4857
paqmi	-4858
▁casti	-4859
▁Voi	-4860
ovéva	-4861
▁tare	-4862
▁cli	-4863
äwi	-4864
manmi	-4865
▁marzo	-4866
har	-4867
▁demostrar	-4868
▁7:	-4869
▁Hechos	-4870
▁kor	-4871
RO	-4872
▁Desde	-4873
orge	-4874
▁oper	-4875
bun	-4876
gencia	-4877
mpaña	-4878
ãmbaite	-4879
toca	-4880
▁qull	-4881
gia	-4882
▁10).	-4883
ada	-4884
▁ador	-4885
▁EL	-4886
▁mby	-4887
heñói	-4888
cra	-4889
▁programa	-4890
▁religión	-4891
heja	-4892
▁resur	-4893
▁siguientes	-4894
gla	-4895
▁Fili	-4896
▁John	-4897
▁ikon	-4898
kurqani	-4899
▁política	-4900
ẽrõ	-4901
vautisa	-4902
▁oikova	-4903
poca	-4904
▁́mi	-4905
▁pudo	-4906
To	-4907
untos	-4908
▁último	-4909
▁cielos	-4910
▁@	-4911
PI	-4912
ft	-4913
▁ois	-4914
guereko	-4915
vakuéra	-4916
▁respecto	-4917
▁resultado	-4918
cales	-4919
▁congregacion	-4920
▁Cr	-4921
▁siémpre	-4922
pp	-4923
▁all	-4924
▁electr	-4925
▁Ver	-4926
kusun	-4927
tyari	-4928
▁lee	-4929
▁buenos	-4930
túva	-4931
▁payqa	-4932
use	-4933
▁sigue	-4934
fra	-4935
áli	-4936
poriahuv	-4937
unda	-4938
▁diez	-4939
▁JEHOVÁ	-4940
▁recibi	-4941
mend	-4942
short	-4943
▁pampa	-4944
▁sex	-4945
mante	-4946
mbios	-4947
▁Facebook	-4948
Cuál	-4949
▁Veamos	-4950
lora	-4951
ztli	-4952
enyhẽ	-4953
karai	-4954
calipsis	-4955
partamento	-4956
▁amp	-4957
▁demasia	-4958
▁Tom	-4959
▁circun	-4960
UE	-4961
cursos	-4962
▁maravi	-4963
▁varias	-4964
▁anterior	-4965
▁color	-4966
▁Diosmi	-4967
▁medios	-4968
▁Manam	-4969
▁pudi	-4970
fesios	-4971
lle	-4972
erekóva	-4973
▁isrraelíta	-4974
▁impul	-4975
▁ñakari	-4976
erta	-4977
4-	-4978
▁rim	-4979
istas	-4980
vale	-4981
sar	-4982
▁cola	-4983
▁termin	-4984
0.	-4985
inak	-4986
pren	-4987
▁uñnaqa	-4988
▁warma	-4989
▁kaptinpas	-4990
▁misericor	-4991
▁katt	-4992
▁oraciones	-4993
▁Payqa	-4994
▁Sí	-4995
TIC	-4996
▁ana	-4997
▁kuatiarogue	-4998
ónico	-4999
.,	-5000
topa	-5001
▁nch	-5002
anía	-5003
chus	-5004
▁hará	-5005
▁ashaninka	-5006
▁Jus	-5007
▁jaje	-5008
▁garan	-5009
▁social	-5010
taciones	-5011
▁proteger	-5012
▁jaska	-5013
▁mer	-5014
dientes	-5015
▁experiencia	-5016
▁oúva	-5017
mýi	-5018
▁jajepy	-5019
▁personal	-5020
▁primeros	-5021
ili	-5022
▁puku	-5023
ñi	-5024
creto	-5025
▁Jahechamína	-5026
CH	-5027
▁Tri	-5028
▁aquellos	-5029
ehua	-5030
▁culti	-5031
berto	-5032
▁upéicharõ	-5033
bajo	-5034
cular	-5035
▁Jacob	-5036
▁kundahára	-5037
▁wak	-5038
ica	-5039
▁Ho	-5040
▁jesús	-5041
▁ayudó	-5042
▁prekurs	-5043
▁tlahto	-5044
▁5:2	-5045
▁Uka	-5046
gosto	-5047
ables	-5048
▁ocho	-5049
naq	-5050
▁interés	-5051
tai	-5052
ciedad	-5053
cháva	-5054
▁idea	-5055
ichaite	-5056
¡¡	-5057
▁kunan	-5058
▁Piruwpi	-5059
▁perdon	-5060
dían	-5061
▁sub	-5062
dese	-5063
úgui	-5064
▁way	-5065
▁frente	-5066
▁llumpay	-5067
▁error	-5068
KUNA	-5069
▁control	-5070
rahéi	-5071
▁único	-5072
▁dibujo	-5073
▁esos	-5074
tral	-5075
▁hubi	-5076
▁tengo	-5077
▁manten	-5078
▁promesa	-5079
ýre	-5080
ádo	-5081
▁iro	-5082
▁2:2	-5083
diendo	-5084
▁jaqi	-5085
▁sitios	-5086
▁omokyre	-5087
▁predikasión	-5088
mite	-5089
▁pap	-5090
▁idiomas	-5091
▁gan	-5092
▁mila	-5093
▁acceso	-5094
▁Gar	-5095
gía	-5096
trás	-5097
▁qos	-5098
ñapa	-5099
▁hai	-5100
▁Muchos	-5101
▁ikax	-5102
bé	-5103
▁ipu	-5104
pyrã	-5105
teca	-5106
▁188	-5107
▁Uru	-5108
▁resurrección	-5109
tales	-5110
▁kanku	-5111
bilidad	-5112
▁normas	-5113
amongeta	-5114
genes	-5115
▁iká	-5116
ticias	-5117
▁juz	-5118
kyhyje	-5119
5;	-5120
▁cambios	-5121
jó	-5122
▁juntos	-5123
▁interior	-5124
▁Hab	-5125
▁Aka	-5126
▁anima	-5127
▁justo	-5128
apohára	-5129
▁fuego	-5130
Pa	-5131
▁alto	-5132
ficación	-5133
▁interesa	-5134
▁práctica	-5135
▁ñaipytyvõ	-5136
▁morir	-5137
▁sutiyoq	-5138
▁asamblea	-5139
▁partes	-5140
NP	-5141
uación	-5142
▁quedar	-5143
▁alegría	-5144
▁okambia	-5145
▁oficial	-5146
▁organis	-5147
idos	-5148
hendaha	-5149
);	-5150
▁oro	-5151
▁confor	-5152
▁dan	-5153
presenta	-5154
▁pequeño	-5155
▁actuali	-5156
milla	-5157
▁(3	-5158
tépe	-5159
▁manaña	-5160
▁esclavo	-5161
sos	-5162
▁mexi	-5163
▁felices	-5164
ír	-5165
mática	-5166
▁comida	-5167
▁cuidado	-5168
▁cru	-5169
▁60	-5170
▁ijy	-5171
▁munan	-5172
▁4).	-5173
▁pública	-5174
▁ombohovái	-5175
▁jur	-5176
▁Pues	-5177
▁waran	-5178
blos	-5179
▁base	-5180
▁hinaqa	-5181
▁10:1	-5182
ape	-5183
▁japredika	-5184
▁inmedia	-5185
▁Jeremías	-5186
▁Ari	-5187
▁mbarete	-5188
▁xe	-5189
kuni	-5190
pítulo	-5191
▁Perú	-5192
▁opyt	-5193
▁paragu	-5194
▁ija	-5195
milia	-5196
▁vive	-5197
▁origen	-5198
inos	-5199
Proverbios	-5200
▁Presidente	-5201
▁Kat	-5202
▁distrito	-5203
▁juk	-5204
▁betan	-5205
▁ntsu	-5206
ñu	-5207
An	-5208
ys	-5209
▁indica	-5210
▁2013	-5211
▁entra	-5212
▁servísio	-5213
ān	-5214
union	-5215
vange	-5216
onar	-5217
paya	-5218
▁ok	-5219
▁soy	-5220
▁Gran	-5221
▁Mari	-5222
▁lenguas	-5223
osi	-5224
▁Gon	-5225
▁Nuevo	-5226
arahy	-5227
▁ivaíva	-5228
▁habitantes	-5229
▁kanankupaq	-5230
kunchik	-5231
▁nacional	-5232
gura	-5233
▁hermanas	-5234
▁oî	-5235
▁ohai	-5236
▁celeb	-5237
jér	-5238
▁Rec	-5239
▁reac	-5240
chkaptin	-5241
Short	-5242
wayi	-5243
pensa	-5244
▁iñimportánte	-5245
▁Mama	-5246
▁Nde	-5247
▁cuen	-5248
▁autoridades	-5249
▁rete	-5250
▁tenido	-5251
▁phaxsin	-5252
▁Babilonia	-5253
▁cargo	-5254
▁funda	-5255
EI	-5256
Imanasqam	-5257
▁mater	-5258
:3,	-5259
Des	-5260
▁Cal	-5261
▁abril	-5262
▁apar	-5263
arupi	-5264
▁claro	-5265
▁estoy	-5266
asakue	-5267
▁profesor	-5268
▁9.	-5269
haman	-5270
▁cump	-5271
▁fiesta	-5272
▁necesidades	-5273
rera	-5274
▁utaq	-5275
▁compro	-5276
▁chaylla	-5277
▁3,	-5278
▁oñeñe	-5279
▁real	-5280
▁Estos	-5281
durenda	-5282
▁Martín	-5283
▁Congreso	-5284
▁aya	-5285
▁obedecer	-5286
▁qallarisqa	-5287
▁Ali	-5288
▁avan	-5289
▁col	-5290
▁preci	-5291
ciación	-5292
▁injus	-5293
▁puvli	-5294
▁Hinaptin	-5295
▁tratar	-5296
▁mitãrusu	-5297
▁supuesto	-5298
8;	-5299
pulo	-5300
▁Anti	-5301
▁oimera	-5302
̱e	-5303
▁además	-5304
▁manaraq	-5305
▁Ó	-5306
▁Upérõ	-5307
▁bakebo	-5308
qo	-5309
▁6,	-5310
▁antigu	-5311
▁Er	-5312
ram	-5313
jopy	-5314
rama	-5315
▁sonqon	-5316
▁muertos	-5317
▁hogar	-5318
vusu	-5319
▁ajapo	-5320
▁ros	-5321
ýramo	-5322
▁mymba	-5323
▁puévlo	-5324
úre	-5325
▁esté	-5326
▁2).	-5327
▁Hebreos	-5328
▁Mis	-5329
▁gener	-5330
íz	-5331
guy	-5332
▁Bolivia	-5333
háme	-5334
7;	-5335
▁testigo	-5336
osako	-5337
▁PÁGINA	-5338
LIA	-5339
wer	-5340
▁visión	-5341
▁Génesis	-5342
▁privacidad	-5343
▁dificultades	-5344
▁pur	-5345
▁pytyvõ	-5346
▁emple	-5347
ShortName	-5348
▁ñu	-5349
▁hasy	-5350
▁Puede	-5351
▁llamada	-5352
▁Yupay	-5353
▁Yachay	-5354
▁ukhamarak	-5355
▁inspi	-5356
6;	-5357
ix	-5358
kuére	-5359
chawwan	-5360
▁qallay	-5361
▁rreunion	-5362
▁paciencia	-5363
▁tes	-5364
▁via	-5365
▁Guer	-5366
▁oiméne	-5367
____	-5368
id	-5369
▁sentimientos	-5370
▁experi	-5371
tria	-5372
jeron	-5373
▁Manuel	-5374
▁kalindaryukama	-5375
cr	-5376
erovi	-5377
▁común	-5378
▁conte	-5379
▁jehecha	-5380
▁artículos	-5381
▁Mb	-5382
zando	-5383
▁jaská	-5384
▁13:	-5385
▁kantun	-5386
▁«	-5387
▁8.	-5388
▁Tor	-5389
▁tay	-5390
▁fran	-5391
▁sele	-5392
mbyasy	-5393
▁Gri	-5394
ibles	-5395
yó	-5396
hend	-5397
tida	-5398
▁necesidad	-5399
▁Ir	-5400
▁aguan	-5401
▁norte	-5402
▁puedo	-5403
▁agosto	-5404
▁ih	-5405
▁qatipa	-5406
▁Federal	-5407
dín	-5408
ikan	-5409
▁creación	-5410
▁sacerdote	-5411
ense	-5412
▁bienes	-5413
st	-5414
▁nisqapi	-5415
▁precursor	-5416
▁187	-5417
▁participar	-5418
7-	-5419
▁casos	-5420
▁oñekumpli	-5421
11	-5422
▁waw	-5423
randi	-5424
bil	-5425
tax	-5426
▁Todo	-5427
ninchik	-5428
▁sesión	-5429
vita	-5430
isati	-5431
▁guía	-5432
▁jer	-5433
hegui	-5434
▁Sena	-5435
udades	-5436
▁Cer	-5437
▁Bel	-5438
▁gus	-5439
▁iñiynin	-5440
▁jaskara	-5441
inas	-5442
▁regis	-5443
▁mencion	-5444
itsi	-5445
4;	-5446
▁mochi	-5447
▁Creador	-5448
ingove	-5449
▁pipas	-5450
▁económi	-5451
uido	-5452
▁DEL	-5453
▁imitar	-5454
pañu	-5455
brero	-5456
erras	-5457
▁ik	-5458
▁om	-5459
▁necesitan	-5460
▁Salón	-5461
▁unh	-5462
deres	-5463
▁arri	-5464
▁General	-5465
▁tuku	-5466
allan	-5467
físio	-5468
marandu	-5469
▁isi	-5470
>.	-5471
mper	-5472
▁comien	-5473
dul	-5474
▁Entre	-5475
▁jasegi	-5476
▁Ter	-5477
▁okumpli	-5478
▁PU	-5479
▁aso	-5480
▁arro	-5481
▁ÑAN	-5482
▁wataqa	-5483
zi	-5484
▁entien	-5485
virtió	-5486
▁demostra	-5487
urã	-5488
▁ndaipóri	-5489
▁tetãme	-5490
▁pará	-5491
▁añetegua	-5492
▁37	-5493
mena	-5494
▁Nos	-5495
▁SUMO	-5496
▁apre	-5497
▁ejemplos	-5498
cles	-5499
ípe	-5500
▁uma	-5501
▁chuguikuéra	-5502
▁rikuri	-5503
▁contrario	-5504
élpe	-5505
▁mayo	-5506
▁jahayhu	-5507
▁aj	-5508
évape	-5509
▁simple	-5510
kra	-5511
ukaha	-5512
▁esti	-5513
▁conta	-5514
▁clara	-5515
▁kimsa	-5516
▁revista	-5517
▁perio	-5518
▁Puk	-5519
▁bri	-5520
▁cón	-5521
aq	-5522
▁fuerzas	-5523
▁presente	-5524
▁opaichagua	-5525
▁hija	-5526
ikuaái	-5527
agradese	-5528
ão	-5529
tion	-5530
▁recordar	-5531
kuña	-5532
▁Arí	-5533
▁Mos	-5534
▁propor	-5535
▁demasiado	-5536
""""	-5537
▁Cre	-5538
▁pagina	-5539
▁unidad	-5540
úr	-5541
▁ina	-5542
▁Reve	-5543
her	-5544
smo	-5545
▁suya	-5546
ximo	-5547
▁julio	-5548
▁instruc	-5549
▁éxi	-5550
▁opens	-5551
▁Secretaría	-5552
▁Os	-5553
lando	-5554
▁sunqu	-5555
▁watam	-5556
:​2	-5557
gena	-5558
niki	-5559
▁hos	-5560
▁Áño	-5561
▁yachachisqan	-5562
▁(18	-5563
▁tso	-5564
wanpas	-5565
htlā	-5566
▁pecados	-5567
qin	-5568
▁imb	-5569
▁chin	-5570
▁hendivekuéra	-5571
▁hacemos	-5572
▁porandu	-5573
12	-5574
▁8,	-5575
▁perfec	-5576
▁bor	-5577
▁oju	-5578
▁rendápe	-5579
▁desta	-5580
▁Léi	-5581
▁orar	-5582
Co	-5583
▁karqaku	-5584
▁abs	-5585
dór	-5586
▁Aw	-5587
aygua	-5588
▁BNP	-5589
kunanku	-5590
col	-5591
▁benefici	-5592
ware	-5593
▁colo	-5594
▁unhído	-5595
▁espiri	-5596
▁ocasión	-5597
▁segunda	-5598
jua	-5599
▁70	-5600
mani	-5601
ónte	-5602
▁obtener	-5603
émarõ	-5604
▁cari	-5605
▁tienes	-5606
osamente	-5607
▁mayores	-5608
▁jajapova	-5609
▁haga	-5610
▁época	-5611
▁viene	-5612
▁conce	-5613
▁raymi	-5614
▁MBA	-5615
▁yhuan	-5616
▁profesía	-5617
▁7).	-5618
▁medida	-5619
▁mol	-5620
paqqa	-5621
mental	-5622
▁tendayke	-5623
cé	-5624
▁ontende	-5625
▁nisqanta	-5626
▁peẽme	-5627
▁hermos	-5628
gú	-5629
ývo	-5630
apxi	-5631
kádo	-5632
kuchu	-5633
▁utj	-5634
cepción	-5635
mbovy	-5636
▁caracter	-5637
▁fortalecer	-5638
ména	-5639
▁aplicación	-5640
▁paso	-5641
▁imandu	-5642
▁huel	-5643
Los	-5644
▁humano	-5645
▁aravo	-5646
▁pueda	-5647
▁condiciones	-5648
guera	-5649
▁menciona	-5650
▁jahechakuaa	-5651
mati	-5652
▁15:	-5653
mentar	-5654
mbyas	-5655
uerto	-5656
▁qellq	-5657
▁animal	-5658
▁capital	-5659
▁Cámara	-5660
”?	-5661
yeterei	-5662
▁proceso	-5663
▁Wan	-5664
▁miedo	-5665
▁éxito	-5666
▁televisión	-5667
japói	-5668
▁Qull	-5669
aspaqa	-5670
▁rehehápe	-5671
▁llapallan	-5672
ega	-5673
▁Nor	-5674
iru	-5675
▁oku	-5676
▁términos	-5677
eguas	-5678
potáva	-5679
▁qawachi	-5680
8-	-5681
nes	-5682
zque	-5683
▁Aca	-5684
▁Revelación	-5685
mia	-5686
▁hemimbo	-5687
Quién	-5688
mbyai	-5689
▁aw	-5690
▁%2$	-5691
▁dónde	-5692
gados	-5693
▁jefe	-5694
▁responder	-5695
▁llamka	-5696
xih	-5697
erecha	-5698
ervíva	-5699
pach	-5700
▁ases	-5701
herakuã	-5702
▁expresión	-5703
▁Ore	-5704
lobal	-5705
rairõ	-5706
tevéva	-5707
▁pueblos	-5708
▁cantidad	-5709
▁adver	-5710
jeros	-5711
▁esas	-5712
▁Fo	-5713
▁jä	-5714
▁Eso	-5715
tañas	-5716
▁Feli	-5717
▁enemigos	-5718
▁ñaime	-5719
▁usuario	-5720
tieron	-5721
ýte	-5722
grado	-5723
▁Saúl	-5724
▁ogoverna	-5725
bon	-5726
guai	-5727
krifísio	-5728
ispa	-5729
▁Opa	-5730
Job	-5731
chen	-5732
wala	-5733
▁opo	-5734
cipalidad	-5735
▁13.	-5736
ientras	-5737
kusqanta	-5738
▁sasacha	-5739
▁ojejapóva	-5740
htlāc	-5741
▁satisfa	-5742
▁huñunakuy	-5743
▁yanapawanchik	-5744
▁ambi	-5745
▁Edi	-5746
▁jake	-5747
▁ogueraha	-5748
pio	-5749
▁pasó	-5750
▁yachachin	-5751
▁conclu	-5752
▁conducta	-5753
ulyanu	-5754
▁yanqa	-5755
span	-5756
úsque	-5757
ívo	-5758
▁raẽ	-5759
▁costu	-5760
ikove	-5761
▁2010	-5762
gh	-5763
iro	-5764
ndi	-5765
meri	-5766
▁pedir	-5767
▁España	-5768
▁gozo	-5769
urqaku	-5770
▁rapichápe	-5771
cero	-5772
▁cuales	-5773
▁III	-5774
▁data	-5775
jojaha	-5776
tuicha	-5777
▁Wil	-5778
tlahto	-5779
▁sufici	-5780
▁territorio	-5781
quia	-5782
uri	-5783
▁Kua	-5784
▁aspe	-5785
▁reñe	-5786
▁Jaikuaa	-5787
▁Way	-5788
▁perío	-5789
▁ciudades	-5790
▁Be	-5791
▁York	-5792
▁malo	-5793
.</	-5794
▁hudí	-5795
▁jawé	-5796
▁escrito	-5797
drá	-5798
▁lura	-5799
▁opava	-5800
▁10.	-5801
▁permitir	-5802
▁7,	-5803
▁qawan	-5804
▁piensan	-5805
▁Indi	-5806
▁piña	-5807
▁ic	-5808
liza	-5809
mado	-5810
cuencia	-5811
▁Nues	-5812
▁remo	-5813
▁divina	-5814
▁hubiera	-5815
▁profecía	-5816
▁tiempon	-5817
unt	-5818
asqanta	-5819
▁4,	-5820
▁15).	-5821
▁2012	-5822
pañuãi	-5823
▁perder	-5824
19	-5825
▁kastilla	-5826
▁kó	-5827
tope	-5828
▁sos	-5829
ental	-5830
frica	-5831
hej	-5832
quías	-5833
▁qoll	-5834
▁paraíso	-5835
▁adi	-5836
▁busca	-5837
▁Institu	-5838
▁yvyporakuéra	-5839
▁CON	-5840
▁omyesakã	-5841
tika	-5842
▁descub	-5843
▁inti	-5844
▁casas	-5845
tén	-5846
tus	-5847
▁acciones	-5848
SA	-5849
▁imitã	-5850
▁186	-5851
▁fruto	-5852
▁febrero	-5853
▁ton	-5854
▁oréve	-5855
▁ohechaukáva	-5856
▁congregaciones	-5857
hagu	-5858
tech	-5859
▁unan	-5860
leza	-5861
▁Sol	-5862
▁Taytan	-5863
uar	-5864
etéva	-5865
▁9,	-5866
▁goberna	-5867
▁plata	-5868
▁mboaje	-5869
tsiri	-5870
▁bende	-5871
lon	-5872
▁oñemon	-5873
▁6).	-5874
▁cónyu	-5875
▁oñemomba	-5876
2;	-5877
▁Ga	-5878
▁múndope	-5879
▁Bus	-5880
▁anta	-5881
▁consul	-5882
pta	-5883
▁Ndo	-5884
▁qam	-5885
arand	-5886
▁religion	-5887
▁chepytyvõ	-5888
▁podrá	-5889
▁quizás	-5890
▁electrónico	-5891
kuwan	-5892
allo	-5893
siona	-5894
▁alli	-5895
▁Mientras	-5896
▁11.	-5897
▁14).	-5898
▁herra	-5899
▁descri	-5900
▁seguros	-5901
▁nitaq	-5902
▁voy	-5903
▁qellqa	-5904
▁Escuela	-5905
Me	-5906
▁akã	-5907
▁gas	-5908
▁diferencia	-5909
▁(2)	-5910
▁ben	-5911
▁puri	-5912
▁chaynapi	-5913
▁conversa	-5914
▁culpa	-5915
▁jeike	-5916
1;	-5917
ciles	-5918
▁delante	-5919
▁haykapipas	-5920
llaña	-5921
▁Arma	-5922
▁plena	-5923
ctura	-5924
▁Guarani	-5925
▁yuyayman	-5926
▁10:	-5927
bert	-5928
▁Yupaykuna	-5929
jáva	-5930
▁nomb	-5931
▁libros	-5932
▁recursos	-5933
ash	-5934
cencia	-5935
ink	-5936
▁recibió	-5937
▁opromete	-5938
▁Her	-5939
cente	-5940
▁iména	-5941
pykueho	-5942
▁encontr	-5943
▁ñaneñe	-5944
paye	-5945
EP	-5946
▁11:1	-5947
▁compor	-5948
▁ovecha	-5949
▁militar	-5950
vado	-5951
caron	-5952
▁jehe	-5953
ag̃a	-5954
▁Cul	-5955
▁testigon	-5956
cera	-5957
▁devo	-5958
▁enero	-5959
váho	-5960
▁video	-5961
▁debería	-5962
▁herramien	-5963
▁rye	-5964
malla	-5965
▁hó	-5966
▁puk	-5967
▁gloria	-5968
▁gua	-5969
TICOS	-5970
▁even	-5971
▁rura	-5972
▁disci	-5973
▁artíkulope	-5974
▁Kóva	-5975
non	-5976
▁qawachirqa	-5977
arin	-5978
rique	-5979
▁17).	-5980
▁ermanokuérape	-5981
▁firme	-5982
▁mávapa	-5983
poriahuvereko	-5984
▁189	-5985
▁amuy	-5986
▁péva	-5987
▁escritor	-5988
▁bendiciones	-5989
bires	-5990
chun	-5991
▁ukja	-5992
dura	-5993
▁confiar	-5994
quiel	-5995
zamos	-5996
▁Estas	-5997
▁puchu	-5998
ayku	-5999
▁Tur	-6000
▁equipo	-6001
qucha	-6002
▁tembipuru	-6003
nal	-6004
▁The	-6005
▁Elías	-6006
▁confir	-6007
▁paginapi	-6008
▁BIB	-6009
▁cuidar	-6010
▁Son	-6011
ística	-6012
cies	-6013
▁Har	-6014
miso	-6015
olla	-6016
witter	-6017
▁búsque	-6018
▁Municipalidad	-6019
gros	-6020
%(	-6021
dados	-6022
▁leal	-6023
▁kilómetros	-6024
gisla	-6025
▁tñan	-6026
▁aisati	-6027
▁sakrifísio	-6028
▁rreunionhápe	-6029
▁oncan	-6030
aciones	-6031
▁Josué	-6032
▁sipas	-6033
éri	-6034
▁piensa	-6035
▁natural	-6036
▁Chaynaqa	-6037
up	-6038
▁sca	-6039
▁apostol	-6040
guar	-6041
entsi	-6042
▁Mil	-6043
mínte	-6044
▁13).	-6045
osotros	-6046
▁constitu	-6047
▁Cuer	-6048
▁tenga	-6049
▁Wi	-6050
▁(1)	-6051
▁ica	-6052
Apo	-6053
kusqa	-6054
▁mancha	-6055
▁ojepuru	-6056
▁comunicación	-6057
▁recu	-6058
▁rescate	-6059
ulo	-6060
▁Fue	-6061
▁Maria	-6062
▁kundaha	-6063
▁ogua	-6064
▁hawka	-6065
▁anchata	-6066
▁jahecháta	-6067
lida	-6068
lante	-6069
▁Ce	-6070
diencia	-6071
deración	-6072
▁llegado	-6073
▁oipe	-6074
▁ñañembo	-6075
htō	-6076
▁7:1	-6077
krivi	-6078
unchaw	-6079
▁maneras	-6080
fu	-6081
▁Py	-6082
▁and	-6083
▁salir	-6084
▁recibido	-6085
▁VI	-6086
▁POR	-6087
▁participa	-6088
UN	-6089
▁Mor	-6090
Te	-6091
carse	-6092
▁pol	-6093
▁puquy	-6094
▁aha	-6095
hekopyahu	-6096
itéma	-6097
▁ener	-6098
▁nego	-6099
▁político	-6100
lez	-6101
▁aswanqa	-6102
▁ojeporu	-6103
▁haguépe	-6104
▁kyre	-6105
▁mere	-6106
▁habló	-6107
▁ñemigua	-6108
▁Gala	-6109
cimientos	-6110
pendi	-6111
warqa	-6112
▁ijes	-6113
ánsa	-6114
▁Kama	-6115
ptiembre	-6116
▁responsabilidad	-6117
yas	-6118
▁LOS	-6119
▁lejos	-6120
▁escucha	-6121
hus	-6122
▁jawéki	-6123
▁ojuehe	-6124
▁rapichakuérape	-6125
etsi	-6126
fono	-6127
▁enterove	-6128
▁ime	-6129
▁oiporavo	-6130
▁tec	-6131
▁instrucciones	-6132
▁10,	-6133
mista	-6134
▁mācuīlpōhual	-6135
ava	-6136
▁Pla	-6137
▁titu	-6138
▁atipan	-6139
este	-6140
hape	-6141
▁14:	-6142
▁óga	-6143
kuyqa	-6144
▁grave	-6145
▁promo	-6146
▁nepytyvõ	-6147
▁Jap	-6148
▁estudia	-6149
▁hendápe	-6150
▁refiere	-6151
▁”?	-6152
▁9).	-6153
In	-6154
clesias	-6155
▁existe	-6156
fre	-6157
jera	-6158
vecha	-6159
▁junio	-6160
▁vesti	-6161
osición	-6162
▁nt	-6163
enos	-6164
▁Mal	-6165
▁unas	-6166
▁tuichavéva	-6167
▁Uk	-6168
▁munaycha	-6169
ive	-6170
▁guas	-6171
▁presencia	-6172
ñand	-6173
▁relaciona	-6174
▁3:2	-6175
chari	-6176
▁miembro	-6177
▁certificado	-6178
▁Comp	-6179
clar	-6180
daha	-6181
▁Día	-6182
▁jay	-6183
ancia	-6184
érra	-6185
▁túva	-6186
▁kayta	-6187
▁limi	-6188
▁resi	-6189
▁estás	-6190
▁pacto	-6191
▁Qutanaka	-6192
▁familias	-6193
▁12.	-6194
▁dispuesto	-6195
▁testimonio	-6196
uter	-6197
▁funciones	-6198
Rev	-6199
▁yv	-6200
▁segura	-6201
▁capítulo	-6202
▁aplica	-6203
wá	-6204
ejo	-6205
▁Río	-6206
fékto	-6207
▁pláta	-6208
▁única	-6209
▁ndoikói	-6210
Umi	-6211
▁Sapy	-6212
▁ichu	-6213
▁abandon	-6214
porte	-6215
▁Gobierno	-6216
ak	-6217
▁ór	-6218
mando	-6219
▁aceptar	-6220
mora	-6221
▁relato	-6222
▁34	-6223
▁CÁN	-6224
▁8:	-6225
tira	-6226
▁lar	-6227
▁comprender	-6228
apas	-6229
▁ména	-6230
▁opin	-6231
▁vemos	-6232
▁sociales	-6233
▁ké	-6234
olver	-6235
▁traducción	-6236
▁Gua	-6237
kunan	-6238
▁ayll	-6239
▁movi	-6240
▁estuvo	-6241
diente	-6242
▁Churin	-6243
▁Testigo	-6244
▁atis	-6245
▁actuar	-6246
▁diossen	-6247
▁alimento	-6248
▁ermanokuéra	-6249
▁lan	-6250
iso	-6251
monios	-6252
▁oñehundi	-6253
▁Pil	-6254
qanku	-6255
▁BIBLIA	-6256
▁puerta	-6257
▁rastre	-6258
▁14,	-6259
▁Cana	-6260
▁avave	-6261
▁ojerur	-6262
Col	-6263
▁are	-6264
panmi	-6265
tarnos	-6266
asõ	-6267
▁llo	-6268
▁tava	-6269
▁esperar	-6270
▁ermánope	-6271
hague	-6272
canos	-6273
▁humilde	-6274
▁blog	-6275
ervar	-6276
▁nacionpi	-6277
▁17.	-6278
▁12).	-6279
▁Runa	-6280
▁wasin	-6281
▁aproba	-6282
aguapýpe	-6283
▁iglesia	-6284
▁CÁNTICOS	-6285
ÉI	-6286
quel	-6287
▁kiri	-6288
Ehecha	-6289
▁Isaac	-6290
aridad	-6291
▁divers	-6292
▁asuntos	-6293
▁histori	-6294
rue	-6295
▁oqui	-6296
kunalla	-6297
asqanchik	-6298
▁actividad	-6299
meh	-6300
▁eres	-6301
bira	-6302
▁jatí	-6303
▁partir	-6304
▁Pú	-6305
gran	-6306
▁iqui	-6307
▁itu	-6308
▁hend	-6309
mokyre	-6310
▁resis	-6311
anai	-6312
kiri	-6313
ados	-6314
▁Jawir	-6315
▁ehecha	-6316
▁Sãmbyhy	-6317
▁empresa	-6318
▁alrededor	-6319
taro	-6320
▁4:2	-6321
charqa	-6322
minado	-6323
▁16.	-6324
chtli	-6325
▁ojehu	-6326
▁escribir	-6327
ment	-6328
▁Del	-6329
▁actual	-6330
▁marandurenda	-6331
ires	-6332
▁5).	-6333
▁tuichaiterei	-6334
ervo	-6335
▁Jawiranaka	-6336
▁jik	-6337
▁oporandu	-6338
▁9:	-6339
▁13:1	-6340
▁beb	-6341
▁chayta	-6342
▁período	-6343
▁indígenas	-6344
Para	-6345
▁hapicha	-6346
▁Bibliaqa	-6347
▁llevó	-6348
▁tendrá	-6349
▁vaí	-6350
garra	-6351
panku	-6352
▁excel	-6353
▁Jose	-6354
MB	-6355
ópez	-6356
lingü	-6357
mpoco	-6358
▁última	-6359
zaciones	-6360
qen	-6361
▁Antes	-6362
▁organisasión	-6363
▁ndi	-6364
▁cole	-6365
dremos	-6366
▁enseñanza	-6367
▁15.	-6368
kuévo	-6369
Pi	-6370
echa	-6371
aguasu	-6372
▁Gonzá	-6373
ñongatu	-6374
juh	-6375
▁pris	-6376
▁chanin	-6377
aleemína	-6378
▁24:1	-6379
▁proh	-6380
▁abo	-6381
dápe	-6382
▁ris	-6383
▁López	-6384
▁reheve	-6385
▁descar	-6386
grá	-6387
:/	-6388
▁búsqueda	-6389
hán	-6390
ile	-6391
jerovi	-6392
▁munisipyu	-6393
▁especialmente	-6394
guerohory	-6395
▁yapa	-6396
▁explicó	-6397
▁puruhára	-6398
bunal	-6399
guáicha	-6400
unu	-6401
▁metá	-6402
▁septiembre	-6403
kasti	-6404
▁Dipu	-6405
▁12,	-6406
▁grupos	-6407
▁cherehe	-6408
▁usuarios	-6409
ándose	-6410
▁honor	-6411
▁pidió	-6412
▁Estudi	-6413
▁procla	-6414
▁enseñanzas	-6415
yay	-6416
▁Ber	-6417
▁ejér	-6418
▁etique	-6419
▁ohechávo	-6420
▁reaccion	-6421
▁Do	-6422
▁Conse	-6423
▁queda	-6424
▁requ	-6425
▁capacidad	-6426
BC	-6427
apa	-6428
▁Pien	-6429
▁acción	-6430
▁motivo	-6431
ãme	-6432
▁errores	-6433
▁Justicia	-6434
▁resultados	-6435
ería	-6436
▁Voices	-6437
get	-6438
ỹme	-6439
ayhu	-6440
▁yvyporakuérape	-6441
ehára	-6442
▁muerto	-6443
▁ñandutí	-6444
▁verdaderos	-6445
▁í	-6446
▁uta	-6447
▁temp	-6448
▁Ellos	-6449
itereíva	-6450
▁peligro	-6451
▁pisi	-6452
▁compe	-6453
▁miles	-6454
teriores	-6455
tuvo	-6456
▁Colo	-6457
▁técni	-6458
▁flor	-6459
▁mamá	-6460
▁Ndaikatúi	-6461
51	-6462
▁omend	-6463
iháicha	-6464
▁chunka	-6465
sal	-6466
▁vir	-6467
▁envia	-6468
fil	-6469
ypi	-6470
xodo	-6471
▁Mario	-6472
viera	-6473
▁tho	-6474
▁veve	-6475
▁deseos	-6476
▁construcción	-6477
▁investigación	-6478
▁Pá	-6479
▁empezó	-6480
▁adul	-6481
▁ñoqanchik	-6482
fon	-6483
▁Ele	-6484
ovépe	-6485
▁Unión	-6486
axon	-6487
▁jaton	-6488
▁población	-6489
▁iñimportan	-6490
▁sober	-6491
▁Dom	-6492
▁fui	-6493
▁Iglesia	-6494
▁maton	-6495
▁mahtlāc	-6496
▁iskayray	-6497
▁hembireko	-6498
▁llumpayta	-6499
▁11,	-6500
▁wetsa	-6501
▁ñaaprende	-6502
LA	-6503
▁14.	-6504
tarán	-6505
pri	-6506
▁Gre	-6507
▁hier	-6508
▁Hulyanu	-6509
▁wiñaypaq	-6510
▁necesitamos	-6511
stancias	-6512
▁guarani	-6513
▁ropa	-6514
▁mohendaha	-6515
vísta	-6516
▁qarqan	-6517
▁González	-6518
▁servicios	-6519
undy	-6520
▁walt	-6521
▁ohundi	-6522
▁mó	-6523
▁Pukyu	-6524
▁sá	-6525
▁candida	-6526
▁compañía	-6527
▁beneficios	-6528
▁Hatun	-6529
íkena	-6530
▁honra	-6531
▁iñer	-6532
ipa	-6533
▁inic	-6534
▁ruwa	-6535
▁ocupa	-6536
▁oĩramo	-6537
▁pekádo	-6538
▁deso	-6539
▁ndaipor	-6540
▁jare	-6541
Isaías	-6542
▁habría	-6543
▁Abra	-6544
▁Nato	-6545
▁creer	-6546
▁sociedad	-6547
▁prácti	-6548
eichagua	-6549
ruz	-6550
▁UMI	-6551
ciera	-6552
vante	-6553
▁jainxon	-6554
▁Judá	-6555
▁kóva	-6556
▁Tembi	-6557
▁peces	-6558
▁Bibliam	-6559
▁función	-6560
▁llegaron	-6561
tiku	-6562
raka	-6563
▁Servi	-6564
://	-6565
▁JA	-6566
▁8).	-6567
▁ndoi	-6568
▁señala	-6569
▁kuarahy	-6570
▁yanapawasun	-6571
pla	-6572
▁tomó	-6573
▁fuente	-6574
▁recuerda	-6575
temos	-6576
▁tradi	-6577
kuérandi	-6578
vidad	-6579
▁dará	-6580
kopi	-6581
angatu	-6582
▁distritum	-6583
'.	-6584
▁Reyes	-6585
▁kaptinqa	-6586
▁propiedad	-6587
aty	-6588
manchu	-6589
ux	-6590
rande	-6591
▁Rima	-6592
▁chinka	-6593
▁circunstancias	-6594
hio	-6595
énta	-6596
▁13,	-6597
▁compara	-6598
▁promes	-6599
ẽta	-6600
uéva	-6601
▁humana	-6602
▁ndaikatumo	-6603
▁ag	-6604
▁Ejecu	-6605
▁ñañemo	-6606
▁obstante	-6607
▁Nay	-6608
▁10:2	-6609
hasku	-6610
▁Cuerpo	-6611
▁jonibo	-6612
▁18.	-6613
▁Yaqa	-6614
▁demostró	-6615
▁Wikimedia	-6616
sas	-6617
▁vas	-6618
aray	-6619
inge	-6620
tall	-6621
▁kaqkunata	-6622
mera	-6623
▁mala	-6624
▁XI	-6625
▁15,	-6626
▁situaciones	-6627
▁due	-6628
▁uña	-6629
mónio	-6630
tísia	-6631
▁Kunan	-6632
pt	-6633
vero	-6634
▁ministro	-6635
tez	-6636
éndo	-6637
▁clave	-6638
▁influencia	-6639
9;	-6640
nu	-6641
▁RE	-6642
unku	-6643
▁regalo	-6644
▁35	-6645
▁Europa	-6646
mania	-6647
óvare	-6648
▁tama	-6649
▁Mundi	-6650
mbosako	-6651
▁serviqnin	-6652
aw	-6653
ner	-6654
zarse	-6655
▁mozo	-6656
▁okan	-6657
▁contraseña	-6658
▁churi	-6659
respeta	-6660
▁chhasku	-6661
yra	-6662
tiro	-6663
▁dur	-6664
▁sena	-6665
▁chayqa	-6666
onda	-6667
uterono	-6668
▁Cin	-6669
▁llan	-6670
▁Fer	-6671
▁Flor	-6672
▁ofrece	-6673
sola	-6674
▁peẽ	-6675
▁boca	-6676
▁sobrevi	-6677
▁pantalla	-6678
▁proféta	-6679
▁pira	-6680
▁difíciles	-6681
▁felicidad	-6682
capa	-6683
▁asigna	-6684
uteronomio	-6685
▁diferente	-6686
▁hinaspapas	-6687
juka	-6688
3-	-6689
▁isla	-6690
▁aguas	-6691
ñy	-6692
▁inm	-6693
▁Twitter	-6694
▁garanti	-6695
▁rehecha	-6696
▁imanasqa	-6697
▁az	-6698
quen	-6699
▁phu	-6700
▁euro	-6701
miénto	-6702
▁recomp	-6703
▁akai	-6704
▁jehai	-6705
estiora	-6706
▁tarinki	-6707
inter	-6708
▁preguntó	-6709
▁ñantende	-6710
ciente	-6711
chasqan	-6712
éramos	-6713
▁kawsan	-6714
▁ocasiones	-6715
▁novi	-6716
▁Ki	-6717
gueru	-6718
▁revis	-6719
▁descan	-6720
▁nombres	-6721
0:	-6722
kuéla	-6723
tente	-6724
cy	-6725
▁Cua	-6726
hániri	-6727
▁mira	-6728
▁naña	-6729
▁okon	-6730
wata	-6731
pir	-6732
▁oy	-6733
▁reqsi	-6734
▁pype	-6735
▁Gobern	-6736
▁servísiope	-6737
tza	-6738
▁qari	-6739
tór	-6740
óso	-6741
▁Nu	-6742
▁serie	-6743
▁humildad	-6744
ardo	-6745
empo	-6746
▁golpe	-6747
▁Instituto	-6748
▁violencia	-6749
álpe	-6750
▁tre	-6751
keska	-6752
▁porãiterei	-6753
chó	-6754
▁ix	-6755
▁Mer	-6756
kuaái	-6757
▁encuentran	-6758
▁kanan	-6759
▁tiyan	-6760
ñangare	-6761
▁kawsari	-6762
▁kik	-6763
cuito	-6764
▁16).	-6765
▁Francia	-6766
BRE	-6767
gno	-6768
▁bur	-6769
▁Ñaw	-6770
tista	-6771
▁tanta	-6772
eapohára	-6773
▁aquella	-6774
▁contran	-6775
▁UN	-6776
rico	-6777
cuenta	-6778
▁pensamientos	-6779
tlal	-6780
monos	-6781
▁omombarete	-6782
mín	-6783
▁téxto	-6784
▁quieren	-6785
▁yanaparqa	-6786
uspa	-6787
▁tembiguái	-6788
SL	-6789
dora	-6790
▁declar	-6791
▁tō	-6792
▁acu	-6793
araón	-6794
▁ijap	-6795
▁hudío	-6796
▁dispues	-6797
▁lenguaje	-6798
▁oguerekóva	-6799
uq	-6800
ẽre	-6801
▁Primero	-6802
▁estudiantes	-6803
ror	-6804
▁11).	-6805
▁rekove	-6806
clo	-6807
tenond	-6808
▁consider	-6809
tel	-6810
▁ruraq	-6811
▁mejorar	-6812
▁multilingü	-6813
rup	-6814
-201	-6815
itian	-6816
▁convertir	-6817
▁pobre	-6818
qua	-6819
itéva	-6820
:4,	-6821
▁arriba	-6822
▁ñandepy	-6823
▁rrevísta	-6824
▁misericordia	-6825
cesos	-6826
chkas	-6827
▁ukatx	-6828
▁tribulación	-6829
úa	-6830
pxa	-6831
tani	-6832
▁fon	-6833
▁campes	-6834
▁Educación	-6835
▁watamanta	-6836
▁Tetãvore	-6837
ÑS	-6838
abri	-6839
tarlo	-6840
▁enci	-6841
blemente	-6842
9-	-6843
▁Cla	-6844
▁ñaha	-6845
▁Achka	-6846
mozilla	-6847
▁jaikua	-6848
▁tris	-6849
▁nuevos	-6850
mai	-6851
uncia	-6852
▁oservíva	-6853
Lea	-6854
▁bra	-6855
tiles	-6856
▁llena	-6857
▁region	-6858
▁podrían	-6859
▁ryepýpe	-6860
uye	-6861
jimo	-6862
llay	-6863
▁orgu	-6864
▁Global	-6865
▁formas	-6866
▁idepro	-6867
▁visita	-6868
▁80	-6869
kame	-6870
▁Plan	-6871
▁aprendido	-6872
caraz	-6873
▁quedó	-6874
▁pé	-6875
huac	-6876
▁corri	-6877
▁Guerra	-6878
▁ostudia	-6879
tual	-6880
▁carga	-6881
▁teo	-6882
▁Está	-6883
▁munici	-6884
taraq	-6885
▁deli	-6886
▁Mundial	-6887
qalla	-6888
▁taki	-6889
▁relaciones	-6890
arqani	-6891
▁desap	-6892
▁contiene	-6893
▁establecer	-6894
qaqa	-6895
▁Punta	-6896
mágenes	-6897
heka	-6898
▁kanapaq	-6899
▁avi	-6900
▁amena	-6901
▁hacía	-6902
▁noticias	-6903
0;	-6904
▁oa	-6905
▁mode	-6906
▁nivel	-6907
▁Char	-6908
▁prójimo	-6909
RAH	-6910
▁Nehe	-6911
ñemano	-6912
▁líder	-6913
▁pareja	-6914
pita	-6915
ficos	-6916
▁encan	-6917
▁judío	-6918
ang	-6919
▁yc	-6920
inei	-6921
▁noticia	-6922
▁película	-6923
▁cumplimiento	-6924
MBA	-6925
erví	-6926
▁3).	-6927
trata	-6928
▁apañuãi	-6929
▁Jehovágui	-6930
LO	-6931
vidu	-6932
▁haz	-6933
▁tap	-6934
▁basa	-6935
▁omoirũ	-6936
pasi	-6937
▁nes	-6938
▁adop	-6939
▁entrar	-6940
Al	-6941
▁Rom	-6942
▁Ñap	-6943
▁upearã	-6944
?”	-6945
nalla	-6946
▁ñandutípe	-6947
yō	-6948
jto	-6949
yaty	-6950
óra	-6951
▁DI	-6952
kuywan	-6953
▁ayudan	-6954
peración	-6955
ág	-6956
ave	-6957
▁concen	-6958
▁jasypo	-6959
▁espiritualmente	-6960
áme	-6961
▁ojei	-6962
chikpas	-6963
▁iporãvéva	-6964
▁actualidad	-6965
:1,	-6966
moc	-6967
▁Alcaraz	-6968
▁creen	-6969
▁podrán	-6970
anokuéra	-6971
húva	-6972
háva	-6973
▁Esa	-6974
▁explicar	-6975
▁familiar	-6976
apóva	-6977
▁suelo	-6978
Romanos	-6979
▁cientí	-6980
páña	-6981
▁pusi	-6982
▁Ndaipóri	-6983
asqay	-6984
masqa	-6985
▁actos	-6986
▁tai	-6987
▁Andr	-6988
▁ñaikotevẽ	-6989
pari	-6990
▁mari	-6991
▁viaje	-6992
apykuéra	-6993
▁waqay	-6994
▁desempe	-6995
▁animar	-6996
▁ayudarnos	-6997
kusqanmanta	-6998
katúpa	-6999
uma	-7000
1)	-7001
▁2007	-7002
▁akll	-7003
▁llapan	-7004
txa	-7005
ẽvo	-7006
bola	-7007
coles	-7008
▁Sur	-7009
chkanku	-7010
▁griego	-7011
▁tuvieron	-7012
arive	-7013
▁mesko	-7014
guración	-7015
òq	-7016
gil	-7017
▁id	-7018
tavy	-7019
MAN	-7020
▁nan	-7021
guere	-7022
▁China	-7023
▁amígo	-7024
▁veremos	-7025
din	-7026
▁discu	-7027
▁propios	-7028
▁uyarina	-7029
▁20).	-7030
pete	-7031
▁Sab	-7032
kuspay	-7033
▁mborayhu	-7034
asqanmanta	-7035
▁yachar	-7036
Mana	-7037
▁cay	-7038
porãi	-7039
▁kuska	-7040
▁sufrimiento	-7041
Fili	-7042
▁19,	-7043
▁conj	-7044
▁foto	-7045
▁tercer	-7046
▁kapítulo	-7047
▁dä	-7048
illo	-7049
didos	-7050
▁maravill	-7051
▁Ejecutivo	-7052
e̱	-7053
jado	-7054
▁crear	-7055
▁lucha	-7056
▁ukhama	-7057
▁Internacional	-7058
muy	-7059
▁rojo	-7060
▁edifi	-7061
▁opinión	-7062
▁individu	-7063
',	-7064
▁mombyry	-7065
bia	-7066
ývape	-7067
▁Jorge	-7068
▁Mundo	-7069
▁indihina	-7070
pytýta	-7071
▁yatiy	-7072
▁discurso	-7073
▁huchalli	-7074
exión	-7075
▁angel	-7076
▁Joapykuéra	-7077
▁permanecer	-7078
▁ojejuhu	-7079
▁Gobernante	-7080
AY	-7081
:1-	-7082
vera	-7083
▁Fin	-7084
▁hebre	-7085
▁Ste	-7086
▁manq	-7087
▁trabaj	-7088
▁18).	-7089
▁habrá	-7090
okie	-7091
▁abun	-7092
▁omenda	-7093
minación	-7094
mej	-7095
▁chaqf	-7096
4)	-7097
tusi	-7098
MP	-7099
▁lis	-7100
5)	-7101
▁Tup	-7102
▁ira	-7103
▁reta	-7104
▁Warmi	-7105
▁ohend	-7106
▁esfuerzos	-7107
ich	-7108
▁dipu	-7109
▁watu	-7110
▁Segun	-7111
▁conoce	-7112
ológi	-7113
▁manamá	-7114
jaleemína	-7115
▁wasikuna	-7116
▁16,	-7117
▁ypan	-7118
▁tekotevẽha	-7119
3;	-7120
RAHÉI	-7121
▁ikai	-7122
▁malas	-7123
▁kawsaq	-7124
ỹij	-7125
ñä	-7126
amp	-7127
kati	-7128
▁pena	-7129
▁yk	-7130
▁electo	-7131
▁árboles	-7132
▁kamachiq	-7133
VI	-7134
llam	-7135
mea	-7136
▁Han	-7137
árupi	-7138
▁debi	-7139
▁cristianas	-7140
▁materiales	-7141
▁casara	-7142
SI	-7143
▁Pan	-7144
dante	-7145
▁PURAHÉI	-7146
▁185	-7147
▁yuri	-7148
tua	-7149
▁adoles	-7150
▁dieron	-7151
▁traváho	-7152
▁ñanemandu	-7153
▁waki	-7154
▁rikch	-7155
▁piedra	-7156
ses	-7157
▁pukukue	-7158
▁cr	-7159
▁17,	-7160
▁182	-7161
▁Yma	-7162
kichu	-7163
malli	-7164
▁siquiera	-7165
rez	-7166
▁qhu	-7167
gando	-7168
ẽha	-7169
▁capi	-7170
▁jareko	-7171
Po	-7172
▁peca	-7173
▁comunes	-7174
▁informe	-7175
▁oisãmbyhy	-7176
tic	-7177
▁45	-7178
▁estén	-7179
vai	-7180
▁Allin	-7181
▁diciendo	-7182
▁particular	-7183
úma	-7184
▁dor	-7185
▁tex	-7186
▁llor	-7187
tái	-7188
▁rap	-7189
▁hablan	-7190
▁opytáva	-7191
mica	-7192
▁familiares	-7193
VE	-7194
▁casado	-7195
▁imemby	-7196
▁kamachisqan	-7197
tx	-7198
▁11:2	-7199
▁cuál	-7200
Imataq	-7201
▁ken	-7202
kiqa	-7203
epuru	-7204
▁iñakã	-7205
▁protes	-7206
2-	-7207
▁ã	-7208
▁AL	-7209
ýiva	-7210
ordin	-7211
ankuta	-7212
▁Gracias	-7213
▁Pachapi	-7214
Hay	-7215
lace	-7216
▁japu	-7217
ïr	-7218
▁hákatu	-7219
▁ahí	-7220
▁ompa	-7221
kuaáta	-7222
▁Super	-7223
▁exhor	-7224
▁walla	-7225
▁escribe	-7226
▁htt	-7227
▁Santo	-7228
▁recua	-7229
▁sacerdotes	-7230
renda	-7231
▁Monte	-7232
▁síglo	-7233
▁ñahesa	-7234
▁oimeraẽ	-7235
eo	-7236
▁fol	-7237
▁henda	-7238
▁hembipota	-7239
▁kasqankuta	-7240
ngue	-7241
▁wawa	-7242
▁superior	-7243
él	-7244
▁tr	-7245
véma	-7246
▁Chile	-7247
▁demuestra	-7248
▁orrepresenta	-7249
zin	-7250
usuq	-7251
▁kes	-7252
▁patr	-7253
▁ain	-7254
giones	-7255
▁Upémarõ	-7256
▁jahupyty	-7257
▁famíliape	-7258
illar	-7259
▁dijeron	-7260
▁isiervo	-7261
kóta	-7262
▁planta	-7263
▁regular	-7264
8)	-7265
wpi	-7266
ducir	-7267
▁sh	-7268
▁niq	-7269
kwadur	-7270
▁bendición	-7271
tore	-7272
▁omoa	-7273
▁peti	-7274
▁Guasu	-7275
▁israelita	-7276
▁herramientas	-7277
tend	-7278
▁pil	-7279
minis	-7280
isiones	-7281
▁bíblica	-7282
▁pertene	-7283
▁ode	-7284
▁solu	-7285
▁adelante	-7286
▁documento	-7287
▁ojevautisa	-7288
6)	-7289
▁Pin	-7290
▁eipuru	-7291
CU	-7292
▁far	-7293
▁refu	-7294
▁Comisión	-7295
▁contraseñas	-7296
ueva	-7297
▁peka	-7298
▁local	-7299
▁rápido	-7300
▁utiliza	-7301
▁Ezequiel	-7302
▁significado	-7303
tya	-7304
▁tarea	-7305
▁promesas	-7306
▁temas	-7307
▁espiritun	-7308
1-	-7309
ibilidad	-7310
▁recuadro	-7311
erno	-7312
onse	-7313
▁iban	-7314
▁pies	-7315
▁viuda	-7316
III	-7317
sion	-7318
ñataq	-7319
▁munarqa	-7320
▁pyahúpe	-7321
table	-7322
perdona	-7323
Ilustración	-7324
erá	-7325
segi	-7326
paschá	-7327
▁calidad	-7328
▁personalidad	-7329
▁ubi	-7330
porav	-7331
▁pusa	-7332
▁Tesal	-7333
’?	-7334
huani	-7335
laciones	-7336
▁quieres	-7337
▁rreunión	-7338
▁bos	-7339
donos	-7340
▁váli	-7341
▁soberanía	-7342
ércoles	-7343
May	-7344
tasi	-7345
lada	-7346
▁fre	-7347
▁jaik	-7348
ctoria	-7349
etas	-7350
ñane	-7351
▁Bet	-7352
▁contar	-7353
erdó	-7354
yakã	-7355
dru	-7356
ller	-7357
▁música	-7358
▁Políticas	-7359
▁Cada	-7360
▁méto	-7361
▁témplo	-7362
▁asistir	-7363
▁bautiza	-7364
▁oipotáva	-7365
▁precurso	-7366
▁meve	-7367
▁ofrecer	-7368
3)	-7369
kanwe	-7370
▁cariño	-7371
RL	-7372
kuman	-7373
▁rógape	-7374
bus	-7375
dal	-7376
uér	-7377
ós	-7378
mbos	-7379
▁reba	-7380
▁Lin	-7381
▁dif	-7382
▁techa	-7383
chkarqa	-7384
▁iñarand	-7385
tta	-7386
ÉPA	-7387
yeta	-7388
hendu	-7389
▁Judas	-7390
uno	-7391
▁envió	-7392
▁contranpi	-7393
áles	-7394
illka	-7395
▁upérõ	-7396
▁agrada	-7397
▁observa	-7398
▁conocido	-7399
▁×	-7400
▁Tukuy	-7401
▁lograr	-7402
▁alcanzar	-7403
Jes	-7404
▁Testígo	-7405
▁suje	-7406
▁recon	-7407
▁promete	-7408
▁qillqasqa	-7409
masión	-7410
▁capaci	-7411
▁ré	-7412
▁entusi	-7413
▁campaña	-7414
▁kaymantam	-7415
▁nacimiento	-7416
óli	-7417
bird	-7418
vían	-7419
▁fle	-7420
▁Fernando	-7421
▁Asi	-7422
▁qay	-7423
▁chaypi	-7424
▁dispositivos	-7425
▁Jahechaháicha	-7426
▁Allí	-7427
▁allinmi	-7428
▁oguerohory	-7429
▁ova	-7430
apren	-7431
▁telé	-7432
rekópe	-7433
▁ç	-7434
▁Wal	-7435
▁qhapaq	-7436
▁Web	-7437
dénte	-7438
ukáta	-7439
▁17:	-7440
▁Qus	-7441
▁For	-7442
cipales	-7443
tamiento	-7444
AK	-7445
▁kame	-7446
▁áñore	-7447
▁religiosos	-7448
dras	-7449
▁moõ	-7450
▁tranqui	-7451
cro	-7452
ish	-7453
▁Mä	-7454
▁llamar	-7455
▁separa	-7456
▁suyukunata	-7457
▁uyari	-7458
18	-7459
apx	-7460
▁16:	-7461
▁imágenes	-7462
▁Traducción	-7463
▁encontrado	-7464
▁Cus	-7465
korre	-7466
ñande	-7467
▁parábola	-7468
úrso	-7469
▁here	-7470
▁chacha	-7471
ankumanta	-7472
▁Bibliamanta	-7473
aret	-7474
▁cierta	-7475
▁desobe	-7476
▁Hasta	-7477
▁fecha	-7478
▁Martin	-7479
▁yanapay	-7480
▁18,	-7481
▁Wat	-7482
pykue	-7483
verso	-7484
▁yvága	-7485
▁jejavy	-7486
▁disponible	-7487
▁oipy	-7488
▁alimentos	-7489
bin	-7490
desidí	-7491
▁phaxsi	-7492
juru	-7493
▁oimo	-7494
▁gérra	-7495
▁riman	-7496
▁noviembre	-7497
▁amistadnin	-7498
UA	-7499
niy	-7500
êva	-7501
▁rá	-7502
▁Wik	-7503
▁thu	-7504
ksión	-7505
xihco	-7506
▁rique	-7507
▁ichupe	-7508
kapi	-7509
▁tuq	-7510
▁Villa	-7511
▁temor	-7512
▁yvate	-7513
ferencia	-7514
kuyninta	-7515
▁jaservi	-7516
▁aprendemos	-7517
ery	-7518
may	-7519
íos	-7520
dría	-7521
tata	-7522
ákena	-7523
▁heñói	-7524
▁ifamíliape	-7525
kunqa	-7526
harape	-7527
cuencias	-7528
▁director	-7529
▁opensáva	-7530
▁suficiente	-7531
▁AN	-7532
aría	-7533
▁llamó	-7534
▁Moises	-7535
clesiastés	-7536
kambia	-7537
▁metros	-7538
2)	-7539
nan	-7540
▁Ño	-7541
▁Amo	-7542
▁Lor	-7543
kombo	-7544
▁apoyar	-7545
▁enseñó	-7546
penses	-7547
▁inicio	-7548
cripción	-7549
▁Evange	-7550
▁pequeños	-7551
lco	-7552
nia	-7553
▁inicia	-7554
▁podían	-7555
brandShortName	-7556
ñachu	-7557
dicial	-7558
5-1	-7559
ficado	-7560
▁ojuka	-7561
▁“[	-7562
▁19.	-7563
predika	-7564
Lo	-7565
▁144	-7566
▁juez	-7567
▁senci	-7568
▁Centro	-7569
▁yanapt	-7570
▁hamuq	-7571
▁edición	-7572
▁efec	-7573
centes	-7574
waptin	-7575
▁ohesa	-7576
▁mahtlācxihuitl	-7577
engo	-7578
▁semb	-7579
▁plantas	-7580
▁odi	-7581
▁His	-7582
marka	-7583
▁pachaman	-7584
land	-7585
▁19:	-7586
▁Kas	-7587
▁aje	-7588
ptinmi	-7589
▁nokon	-7590
▁dispositivo	-7591
▁sentía	-7592
▁Efesios	-7593
▁públicos	-7594
▁respondió	-7595
▁ejerci	-7596
▁iko	-7597
▁ere	-7598
erãpa	-7599
▁Katuete	-7600
▁carrera	-7601
▁Fu	-7602
kina	-7603
ĩmba	-7604
kunapim	-7605
▁Ñandejáragui	-7606
▁Mag	-7607
▁jeý	-7608
pular	-7609
ftware	-7610
▁allpa	-7611
▁jupax	-7612
▁hechos	-7613
▁rimanku	-7614
▁Ye	-7615
▁Kar	-7616
▁noA	-7617
▁the	-7618
cluso	-7619
▁Indí	-7620
▁kitilli	-7621
▁Ban	-7622
chara	-7623
▁[...].	-7624
abel	-7625
piri	-7626
▁Diospi	-7627
▁Dioswan	-7628
▁ciudadanos	-7629
taban	-7630
▁Medi	-7631
kaynin	-7632
▁Grande	-7633
▁extraordin	-7634
▁184	-7635
inoax	-7636
▁cónyuge	-7637
▁América	-7638
Mi	-7639
jya	-7640
▁elección	-7641
▁encontró	-7642
▁desarrolla	-7643
bó	-7644
áda	-7645
▁cree	-7646
hayhue	-7647
▁Iporã	-7648
áhe	-7649
onas	-7650
▁tales	-7651
▁rapyku	-7652
▁indígena	-7653
mus	-7654
▁Gui	-7655
▁Dere	-7656
▁prove	-7657
▁produce	-7658
▁esperánsa	-7659
▁Win	-7660
talles	-7661
▁Eipuru	-7662
▁García	-7663
▁justos	-7664
▁Paykunaqa	-7665
▁impe	-7666
▁convirtió	-7667
ema	-7668
▁XX	-7669
▁Aya	-7670
▁Bro	-7671
inación	-7672
▁Oiméne	-7673
▁og	-7674
anahua	-7675
▁saben	-7676
▁uksan	-7677
▁ijespíritu	-7678
ANA	-7679
vépa	-7680
▁resolver	-7681
▁-"	-7682
▁wañuy	-7683
▁hukmany	-7684
chiuh	-7685
▁puedan	-7686
▁willakuq	-7687
▁daño	-7688
▁ipro	-7689
▁misión	-7690
▁triste	-7691
▁navegación	-7692
▁educa	-7693
teni	-7694
ñare	-7695
orairõ	-7696
tantsi	-7697
▁omoakãva	-7698
▁disfrutar	-7699
13	-7700
ender	-7701
guépe	-7702
▁yvagape	-7703
▁perfecto	-7704
▁posición	-7705
▁productos	-7706
▁sacrificios	-7707
▁ambos	-7708
anchikchu	-7709
▁runakunaman	-7710
llapi	-7711
▁arma	-7712
▁Paymi	-7713
▁65	-7714
▁lectura	-7715
▁Hui	-7716
▁Infor	-7717
yru	-7718
▁yay	-7719
▁orekó	-7720
▁runam	-7721
--------	-7722
▁conexión	-7723
▁sentimos	-7724
ley	-7725
▁90	-7726
▁asunto	-7727
▁líderes	-7728
▁estudios	-7729
▁36	-7730
arón	-7731
sico	-7732
derbird	-7733
▁puvlikasión	-7734
▁Gi	-7735
▁SSL	-7736
▁Salva	-7737
▁bautismo	-7738
aha	-7739
doras	-7740
▁llamk	-7741
▁activa	-7742
▁oúvape	-7743
tea	-7744
tzi	-7745
BL	-7746
kos	-7747
disla	-7748
uales	-7749
▁oñen	-7750
▁adqui	-7751
ev	-7752
▁lago	-7753
▁ribo	-7754
chikchu	-7755
▁paykunaqa	-7756
▁20:	-7757
Ecl	-7758
▁AR	-7759
▁acce	-7760
▁rimar	-7761
▁informasión	-7762
arlo	-7763
inko	-7764
▁Sun	-7765
▁tempo	-7766
▁oñorairõ	-7767
rido	-7768
éase	-7769
▁Munici	-7770
▁claramente	-7771
▁pais	-7772
▁privilegio	-7773
▁pari	-7774
▁atipana	-7775
gr	-7776
one	-7777
jogua	-7778
▁seño	-7779
bes	-7780
▁nete	-7781
▁pora	-7782
resivi	-7783
ges	-7784
visita	-7785
▁chakra	-7786
▁maestro	-7787
wananchikpaq	-7788
▁ciertamente	-7789
zcan	-7790
▁vecin	-7791
Jer	-7792
▁pone	-7793
▁resto	-7794
alización	-7795
moria	-7796
▁consecuencias	-7797
▁tha	-7798
ninpi	-7799
▁añónte	-7800
hunderbird	-7801
▁cá	-7802
▁crí	-7803
gentes	-7804
▁ohóva	-7805
▁et	-7806
▁kena	-7807
▁respuestas	-7808
="%(	-7809
▁cali	-7810
▁omboyke	-7811
kutu	-7812
omía	-7813
▁Pal	-7814
▁2014	-7815
▁extre	-7816
▁nayriri	-7817
▁plu	-7818
droid	-7819
tienen	-7820
▁kuñakarai	-7821
dito	-7822
▁reun	-7823
purúva	-7824
▁sabio	-7825
▁siguen	-7826
▁Ikwadur	-7827
▁tapukuy	-7828
▁funciona	-7829
▁constante	-7830
irse	-7831
tlac	-7832
▁estú	-7833
▁patri	-7834
▁reyes	-7835
▁retãme	-7836
▁Ladisla	-7837
rei	-7838
apro	-7839
▁hubo	-7840
▁expul	-7841
enses	-7842
▁183	-7843
▁oven	-7844
▁espacio	-7845
emp	-7846
▁poh	-7847
ónica	-7848
▁compa	-7849
▁oipor	-7850
▁Jesusmi	-7851
ARAN	-7852
ytaqa	-7853
▁cunta	-7854
▁hagan	-7855
▁municipales	-7856
áne	-7857
▁Tribunal	-7858
tás	-7859
rero	-7860
▁walja	-7861
▁porãva	-7862
heraguapy	-7863
▁agradece	-7864
fos	-7865
írõ	-7866
guerovi	-7867
▁Armage	-7868
▁profesion	-7869
pales	-7870
▁Lingü	-7871
ñez	-7872
▁Paul	-7873
▁Asamb	-7874
▁superintendente	-7875
ches	-7876
into	-7877
▁14:1	-7878
▁formar	-7879
▁hapipa	-7880
̱t	-7881
▁llega	-7882
ykichik	-7883
▁ypykue	-7884
▁ñongatu	-7885
▁Oiméramo	-7886
Pue	-7887
▁tupa	-7888
▁utilizar	-7889
▁6:3	-7890
pochy	-7891
▁chaskin	-7892
▁profecías	-7893
▁Ros	-7894
▁say	-7895
▁niman	-7896
▁medidas	-7897
▁archivos	-7898
▁38	-7899
▁lája	-7900
▁IV	-7901
arán	-7902
peka	-7903
▁asuy	-7904
aprend	-7905
▁impres	-7906
▁naturaleza	-7907
lde	-7908
pói	-7909
▁42	-7910
enas	-7911
ernes	-7912
▁apaq	-7913
▁Pente	-7914
▁Ñepyrũ	-7915
▁Indihina	-7916
ot	-7917
yana	-7918
▁saserdó	-7919
▁mitãkuña	-7920
▁tekorosã	-7921
▁título	-7922
▁+	-7923
cultad	-7924
▁ñandej	-7925
▁Abraham	-7926
▁entusias	-7927
▁oaprende	-7928
▁OÑ	-7929
Esta	-7930
▁ordena	-7931
▁Consejo	-7932
▁sorpren	-7933
▁katli	-7934
▁tecno	-7935
▁creado	-7936
▁premio	-7937
▁noĩ	-7938
áv	-7939
▁18:	-7940
▁Luc	-7941
jerur	-7942
▁Claro	-7943
▁jahasa	-7944
▁progres	-7945
▁jadesidi	-7946
▁tuvakuéra	-7947
raqmi	-7948
ispe	-7949
▁tyi	-7950
▁infi	-7951
▁tete	-7952
▁guardar	-7953
▁omendáva	-7954
poro	-7955
▁esen	-7956
▁ivai	-7957
▁pagar	-7958
▁korasõ	-7959
▁Hinaptinqa	-7960
irá	-7961
▁/2	-7962
▁ukar	-7963
▁pejapo	-7964
Ani	-7965
▁--	-7966
tawa	-7967
▁Oli	-7968
▁senen	-7969
kuchwan	-7970
▁Aun	-7971
▁Edén	-7972
▁ñang	-7973
▁sopor	-7974
▁blanco	-7975
ekuérape	-7976
inra	-7977
estión	-7978
laridad	-7979
▁/1	-7980
▁venir	-7981
NM	-7982
yaa	-7983
▁5+	-7984
▁abra	-7985
▁komp	-7986
▁conclusión	-7987
▁kayqa	-7988
gadores	-7989
▁elegir	-7990
▁evento	-7991
▁mejores	-7992
▁ijerovia	-7993
▁1914	-7994
▁eliminar	-7995
▁plenamente	-7996
guez	-7997
dista	-7998
huatl	-7999
yre	-8000
▁iz	-8001
▁Bauti	-8002
▁aconse	-8003
▁ojogua	-8004
hen	-8005
▁Supre	-8006
▁calle	-8007
▁imagin	-8008
▁reflexi	-8009
▁salvación	-8010
aspam	-8011
▁ries	-8012
▁Cristi	-8013
▁Rimaqkuna	-8014
nas	-8015
ytaha	-8016
▁clases	-8017
▁perdido	-8018
UÉ	-8019
▁mem	-8020
▁Alberto	-8021
▁ndojapói	-8022
mbyr	-8023
▁cate	-8024
tiendo	-8025
▁rimas	-8026
▁elemento	-8027
▁ō	-8028
▁},	-8029
onder	-8030
▁Mujer	-8031
▁Nunca	-8032
▁bal	-8033
▁Lengua	-8034
▁consuelo	-8035
▁oipotaháicha	-8036
chej	-8037
▁mone	-8038
▁Chaymanta	-8039
▁dó	-8040
iene	-8041
rome	-8042
▁lur	-8043
▁some	-8044
▁Corte	-8045
AC	-8046
tỹ	-8047
pil	-8048
▁Jon	-8049
▁Rei	-8050
▁vivo	-8051
rieron	-8052
▁cuida	-8053
▁ahecha	-8054
▁siglos	-8055
osoq	-8056
▁aprove	-8057
▁ido	-8058
plina	-8059
▁Cons	-8060
▁axea	-8061
▁demues	-8062
▁ojerovi	-8063
▁precursores	-8064
dica	-8065
▁Ary	-8066
▁pei	-8067
▁Puerto	-8068
▁puntos	-8069
paj	-8070
isis	-8071
▁expe	-8072
▁inicu	-8073
▁obliga	-8074
▁contacto	-8075
ánta	-8076
▁Kon	-8077
▁ojoko	-8078
▁Incluso	-8079
doro	-8080
▁Cap	-8081
▁Jue	-8082
▁ijehegui	-8083
▁opavavépe	-8084
▁departamento	-8085
▁pra	-8086
▁Fuer	-8087
▁nderehe	-8088
Cas	-8089
▁cere	-8090
▁modi	-8091
▁chaski	-8092
▁idifer	-8093
▁Alemania	-8094
èq	-8095
his	-8096
▁Mat	-8097
▁bre	-8098
▁aconte	-8099
▁Bibliata	-8100
▁continuación	-8101
ptinqa	-8102
▁imbarete	-8103
▁conseguir	-8104
▁=	-8105
pía	-8106
▁raka	-8107
▁reqs	-8108
▁hojas	-8109
▁moder	-8110
▁vaíva	-8111
▁Buenos	-8112
▁Thunderbird	-8113
hë	-8114
og	-8115
memo	-8116
tadas	-8117
▁Suyu	-8118
▁alta	-8119
▁imata	-8120
▁kaynin	-8121
▁destrucción	-8122
Yo	-8123
▁ie	-8124
kaya	-8125
▁creó	-8126
▁yvyra	-8127
anchikmi	-8128
oma	-8129
ñado	-8130
uicha	-8131
▁pose	-8132
monget	-8133
tekotevẽ	-8134
▁propias	-8135
▁probablemente	-8136
><	-8137
▁oña	-8138
▁Papa	-8139
▁jati	-8140
▁adora	-8141
qam	-8142
carías	-8143
▁positi	-8144
▁material	-8145
▁internacional	-8146
▁}.	-8147
kúrso	-8148
▁17:1	-8149
▁debía	-8150
▁Chijya	-8151
▁sucurs	-8152
▁cub	-8153
begue	-8154
▁redes	-8155
erechaha	-8156
▁tuichakue	-8157
▁Pen	-8158
▁pele	-8159
anakan	-8160
▁aikuaa	-8161
▁Ñapensa	-8162
▁ñañeporandu	-8163
yari	-8164
▁Ladislaa	-8165
▁buscando	-8166
▁ejército	-8167
ins	-8168
kaw	-8169
▁razon	-8170
ff	-8171
its	-8172
▁jil	-8173
mombyry	-8174
éis	-8175
▁médico	-8176
dimiento	-8177
▁Partido	-8178
22	-8179
Ne	-8180
▁2016	-8181
▁much	-8182
▁enemigo	-8183
yen	-8184
qachu	-8185
▁paypa	-8186
▁maldad	-8187
▁Silvero	-8188
▁qawasun	-8189
▁hinaptin	-8190
kax	-8191
cultura	-8192
gueropu	-8193
memoración	-8194
▁ñangareko	-8195
chti	-8196
▁160	-8197
▁deberíamos	-8198
dusi	-8199
▁regionales	-8200
ívare	-8201
▁pastor	-8202
▁6:2	-8203
▁Bala	-8204
▁miray	-8205
▁construir	-8206
▁publicadores	-8207
taw	-8208
pende	-8209
pente	-8210
▁pocos	-8211
katupyry	-8212
▁Podemos	-8213
▁_	-8214
imi	-8215
▁modelo	-8216
▁jeikove	-8217
bur	-8218
▁impi	-8219
▁ótra	-8220
mallaqta	-8221
cidas	-8222
▁Aires	-8223
▁repar	-8224
▁ohasava	-8225
wix	-8226
▁sacar	-8227
iseo	-8228
▁mesa	-8229
▁uraq	-8230
▁detalles	-8231
▁irre	-8232
úda	-8233
▁Tl	-8234
▁Etio	-8235
▁revela	-8236
▁tierras	-8237
▁elementos	-8238
ández	-8239
▁15:1	-8240
▁oscu	-8241
▁dispuestos	-8242
▁seguidores	-8243
cle	-8244
éli	-8245
dando	-8246
▁senta	-8247
▁Guaraní	-8248
▁markana	-8249
▁software	-8250
yos	-8251
▁chaynata	-8252
▁rembireko	-8253
eka	-8254
apyhy	-8255
▁momentos	-8256
▁chaymanta	-8257
hoko	-8258
mitir	-8259
▁sábado	-8260
ñap	-8261
9)	-8262
ysto	-8263
▁bel	-8264
▁nega	-8265
hupyty	-8266
▁jehasa	-8267
▁rérape	-8268
▁nga	-8269
éndose	-8270
▁provo	-8271
▁jatíbi	-8272
▁hablando	-8273
jui	-8274
kunap	-8275
▁cristian	-8276
▁aprobación	-8277
isk	-8278
▁16:1	-8279
▁róga	-8280
▁lawpi	-8281
▁tengan	-8282
▁vale	-8283
▁Cultura	-8284
zco	-8285
nini	-8286
Cuando	-8287
syry	-8288
japóramo	-8289
▁sienten	-8290
▁Nación	-8291
▁Nehemías	-8292
TÍ	-8293
ãha	-8294
manpas	-8295
▁ipahápe	-8296
▁sucedió	-8297
ésar	-8298
ficial	-8299
▁angus	-8300
cientes	-8301
tereiha	-8302
▁salvar	-8303
▁viernes	-8304
bá	-8305
meros	-8306
▁acto	-8307
▁bras	-8308
▁omanóva	-8309
▁prácticas	-8310
Apocalipsis	-8311
▁coo	-8312
▁ves	-8313
enemos	-8314
tribución	-8315
▁Upéicharamo	-8316
▁ykére	-8317
▁pahápe	-8318
▁memoria	-8319
▁hog	-8320
apýva	-8321
▁Japón	-8322
▁Otros	-8323
▁Felipe	-8324
IP	-8325
heta	-8326
▁Castilla	-8327
▁enfermedades	-8328
qsin	-8329
tillo	-8330
midad	-8331
▁axon	-8332
▁eike	-8333
▁labor	-8334
anchikta	-8335
▁aplicar	-8336
▁condena	-8337
▁servidor	-8338
▁kundaharape	-8339
tano	-8340
▁Aty	-8341
▁Poder	-8342
▁oikuaauka	-8343
▁declaración	-8344
mpara	-8345
▁puli	-8346
▁tekove	-8347
simo	-8348
▁ayllu	-8349
cionado	-8350
▁tampoco	-8351
yaw	-8352
▁compasión	-8353
▁principales	-8354
▁SE	-8355
ingũ	-8356
▁prekursór	-8357
ms	-8358
manda	-8359
▁nican	-8360
▁porno	-8361
▁téysto	-8362
▁conforme	-8363
gur	-8364
Reve	-8365
▁caminos	-8366
▁23).	-8367
▁yoiai	-8368
▁impues	-8369
▁mostró	-8370
tructura	-8371
cán	-8372
▁(%	-8373
gente	-8374
orádo	-8375
▁esca	-8376
ẽmondo	-8377
▁párte	-8378
hayhúva	-8379
▁Andrés	-8380
ná	-8381
-20	-8382
reh	-8383
tér	-8384
peteĩ	-8385
ỹinte	-8386
▁salió	-8387
kuspaqa	-8388
chinanpaq	-8389
caciones	-8390
▁tenonde	-8391
▁original	-8392
▁caer	-8393
▁ayudado	-8394
▁interna	-8395
▁muestran	-8396
▁né	-8397
▁porãta	-8398
▁Amérika	-8399
▁Apocalipsis	-8400
guete	-8401
ávare	-8402
misión	-8403
▁ojavy	-8404
kusqanku	-8405
Esto	-8406
hab	-8407
▁menor	-8408
▁mandato	-8409
▁parecer	-8410
▁partido	-8411
▁Palabran	-8412
▁oguenohẽ	-8413
Revelación	-8414
▁Bi	-8415
▁ayvu	-8416
▁chura	-8417
▁Nuestra	-8418
▁profundo	-8419
▁finalmente	-8420
▁siervokuéra	-8421
▁cambiado	-8422
▁kuatiañe	-8423
bio	-8424
▁ñem	-8425
ãvéima	-8426
▁ikaxbi	-8427
imayna	-8428
▁pudiera	-8429
NE	-8430
eiha	-8431
ídos	-8432
▁(199	-8433
▁ótrope	-8434
▁yap	-8435
▁peteĩva	-8436
▁pruwinsyakuna	-8437
16	-8438
punim	-8439
dumbre	-8440
inakan	-8441
▁teléfono	-8442
▁oguerovia	-8443
▁versículo	-8444
▁requisi	-8445
DU	-8446
del	-8447
eto	-8448
boki	-8449
▁jeýta	-8450
apópe	-8451
▁ipué	-8452
▁Yacha	-8453
▁lleno	-8454
▁leales	-8455
▁divi	-8456
▁darle	-8457
▁prefer	-8458
▁okakuaa	-8459
pedia	-8460
▁monte	-8461
▁correcto	-8462
▁predikasiónpe	-8463
mésa	-8464
páva	-8465
▁jich	-8466
▁yehua	-8467
▁Ñandu	-8468
▁presentes	-8469
▁producción	-8470
qhi	-8471
tca	-8472
potá	-8473
ctivo	-8474
▁Asia	-8475
▁ánimo	-8476
▁arrepen	-8477
?"	-8478
▁Rus	-8479
▁acos	-8480
▁pide	-8481
▁dejado	-8482
▁Jesusta	-8483
▁cuentas	-8484
▁implica	-8485
IA	-8486
HINA	-8487
isun	-8488
▁Les	-8489
▁kuéra	-8490
▁oñemoñe	-8491
▁cultivar	-8492
▁aun	-8493
▁divin	-8494
▁perdón	-8495
▁políticos	-8496
jé	-8497
Gál	-8498
▁GU	-8499
qanta	-8500
▁intro	-8501
▁ninku	-8502
▁fueran	-8503
hí	-8504
▁eli	-8505
▁deré	-8506
▁Bení	-8507
▁rir	-8508
▁semanas	-8509
▁Tesaloni	-8510
▁On	-8511
cadas	-8512
▁otor	-8513
▁tlato	-8514
▁Nuestro	-8515
pura	-8516
roso	-8517
▁hes	-8518
álisis	-8519
▁ideas	-8520
▁rebel	-8521
veimaha	-8522
▁herencia	-8523
▁salmista	-8524
▁Ese	-8525
▁lunes	-8526
▁absolu	-8527
▁objeto	-8528
▁empezar	-8529
▁pestañas	-8530
▁distritupi	-8531
lum	-8532
▁término	-8533
▁Zacarías	-8534
▁desapare	-8535
INEI	-8536
tanpi	-8537
▁imam	-8538
▁yaqha	-8539
▁ÑANDE	-8540
▁cosecha	-8541
▁Pl	-8542
▁dirigir	-8543
▁visitar	-8544
xe	-8545
▁venta	-8546
▁árare	-8547
táña	-8548
▁Watch	-8549
▁cuestión	-8550
ker	-8551
▁zan	-8552
▁especi	-8553
▁esfuerzo	-8554
▁vae	-8555
▁Enra	-8556
ĩmbaha	-8557
▁locales	-8558
▁ejercicio	-8559
▁distritukunapas	-8560
▁48	-8561
ándi	-8562
dimos	-8563
llata	-8564
▁yoka	-8565
▁ojepo	-8566
alta	-8567
ovéi	-8568
tena	-8569
uida	-8570
▁energía	-8571
▁ñorairõ	-8572
Ajépa	-8573
inakar	-8574
▁rimasqan	-8575
lib	-8576
▁ace	-8577
érope	-8578
▁Chin	-8579
▁Poli	-8580
▁crea	-8581
musqan	-8582
▁sintió	-8583
▁antiguo	-8584
▁aguantar	-8585
gaa	-8586
xti	-8587
resarái	-8588
▁Muchas	-8589
▁ijojaha	-8590
iwa	-8591
ués	-8592
iséi	-8593
▁conmigo	-8594
28	-8595
▁22:	-8596
▁Bib	-8597
▁ipe	-8598
▁qan	-8599
▁Oiko	-8600
▁Eiporavo	-8601
▁mamallaqta	-8602
▁omotenonde	-8603
tso	-8604
▁inmere	-8605
▁ohaiva	-8606
▁completa	-8607
▁multilingüe	-8608
▁†	-8609
▁impresi	-8610
▁universo	-8611
▁tã	-8612
lish	-8613
asion	-8614
▁temi	-8615
▁sirviente	-8616
],	-8617
ör	-8618
ser	-8619
▁21:	-8620
teros	-8621
▁hayan	-8622
▁marco	-8623
▁servin	-8624
yman	-8625
¡¡¡¡	-8626
▁clic	-8627
▁hayt	-8628
▁minu	-8629
guenohẽ	-8630
▁semilla	-8631
▁duro	-8632
▁repu	-8633
▁Ambue	-8634
▁Armagedón	-8635
▁iketian	-8636
▁xei	-8637
▁Apos	-8638
▁Toda	-8639
▁mens	-8640
▁quiero	-8641
▁treinta	-8642
▁reconocer	-8643
▁Nd	-8644
▁oko	-8645
osenses	-8646
▁Benítez	-8647
oria	-8648
▁pesca	-8649
▁ñakar	-8650
▁materia	-8651
▁niwanchik	-8652
▁īhu	-8653
▁chur	-8654
▁enor	-8655
▁manifi	-8656
▁Siempre	-8657
▁kí	-8658
léhio	-8659
▁incor	-8660
ekuégui	-8661
ME	-8662
cés	-8663
▁rimaq	-8664
▁lugárpe	-8665
▁Az	-8666
▁gi	-8667
▁Aña	-8668
kisqa	-8669
▁malos	-8670
▁henyhẽ	-8671
▁conjunto	-8672
úne	-8673
pytu	-8674
▁jak	-8675
chkaq	-8676
épepa	-8677
▁karun	-8678
▁adecua	-8679
▁Ezequías	-8680
ld	-8681
▁estúdio	-8682
78	-8683
ther	-8684
▁admira	-8685
▁graves	-8686
ler	-8687
gálo	-8688
▁curso	-8689
▁estará	-8690
▁westiora	-8691
▁participación	-8692
44	-8693
kula	-8694
▁rog	-8695
▁óra	-8696
ciado	-8697
juaju	-8698
jj	-8699
▁Amar	-8700
▁Tenda	-8701
▁osẽva	-8702
▁hebreo	-8703
▁opárupi	-8704
ccionario	-8705
drí	-8706
za̱	-8707
ẽasa	-8708
▁omy	-8709
▁vid	-8710
croni	-8711
taria	-8712
▁halla	-8713
▁ambiente	-8714
ihápe	-8715
▁media	-8716
▁oheka	-8717
▁serviq	-8718
▁yacharqa	-8719
Gen	-8720
tidos	-8721
▁Ñembo	-8722
▁]	-8723
dpe	-8724
tinpi	-8725
zadas	-8726
-2014:	-8727
Desper	-8728
▁Julio	-8729
▁divino	-8730
▁muchísi	-8731
▁ā	-8732
▁Poco	-8733
vévape	-8734
▁decía	-8735
▁Cartes	-8736
coh	-8737
úrõ	-8738
illi	-8739
pyso	-8740
▁aver	-8741
▁Balaam	-8742
rer	-8743
twa	-8744
▁iama	-8745
▁Qusqu	-8746
▁dicha	-8747
▁kárta	-8748
▁Departamento	-8749
hes	-8750
tbol	-8751
ética	-8752
▁cria	-8753
▁teki	-8754
▁téra	-8755
DAD	-8756
ópa	-8757
jare	-8758
riva	-8759
▁Cli	-8760
▁celo	-8761
▁paha	-8762
▁arapo	-8763
▁Vir	-8764
▁qil	-8765
▁19).	-8766
▁Sapa	-8767
▁escon	-8768
▁multipli	-8769
Tu	-8770
tee	-8771
▁pä	-8772
▁Ingla	-8773
▁ndore	-8774
▁numer	-8775
tificar	-8776
▁hambre	-8777
▁kasqanku	-8778
▁Qullunaka	-8779
▁inmerecida	-8780
▁rápidamente	-8781
▁Omo	-8782
▁reina	-8783
olusiona	-8784
▁predijo	-8785
▁miércoles	-8786
55	-8787
aba	-8788
▁ukham	-8789
▁haihára	-8790
▁Pentecos	-8791
ehegui	-8792
▁kuery	-8793
.."	-8794
garon	-8795
▁pren	-8796
▁sede	-8797
Despertad	-8798
▁inci	-8799
▁judio	-8800
vẽ	-8801
▁OJ	-8802
▁Ori	-8803
takix	-8804
ykita	-8805
▁hampi	-8806
▁oñehenói	-8807
▁compartir	-8808
▁Ax	-8809
undí	-8810
átava	-8811
▁yura	-8812
▁Públi	-8813
▁meran	-8814
▁rendi	-8815
▁lección	-8816
▁ñanemokyre	-8817
▁Mas	-8818
▁esperaba	-8819
▁eno	-8820
▁hap	-8821
▁Hern	-8822
▁Quer	-8823
▁Upearã	-8824
▁yachayta	-8825
yr	-8826
▁rea	-8827
▁Quizás	-8828
▁ñandehegui	-8829
21	-8830
pé	-8831
▁Lea	-8832
úpa	-8833
▁#1	-8834
▁oĩháme	-8835
▁analizar	-8836
▁verdades	-8837
▁oñekotevẽ	-8838
▁CH	-8839
▁CU	-8840
pira	-8841
siya	-8842
▁Cruz	-8843
▁tendrán	-8844
▁Mel	-8845
▁papapy	-8846
cue	-8847
aguanta	-8848
▁oskrivi	-8849
▁Gobiernon	-8850
tuna	-8851
▁Aso	-8852
▁jaa	-8853
▁instituciones	-8854
▁Bre	-8855
produ	-8856
▁inqui	-8857
▁opera	-8858
qninchik	-8859
▁predican	-8860
Mo	-8861
sado	-8862
tres	-8863
▁órg	-8864
▁hetã	-8865
▁César	-8866
SE	-8867
hágui	-8868
▁porãite	-8869
▁podríamos	-8870
gén	-8871
▁convi	-8872
▁Ñawpaq	-8873
▁simplemente	-8874
▁(@	-8875
heki	-8876
▁oído	-8877
inapaq	-8878
▁lealtad	-8879
égo	-8880
úiva	-8881
▁hnini	-8882
▁qhulla	-8883
tantyari	-8884
▁esclavos	-8885
▁automática	-8886
▁rembiasakue	-8887
año	-8888
▁Era	-8889
▁xobo	-8890
▁quiso	-8891
▁entrada	-8892
▁presión	-8893
▁útil	-8894
▁Umíva	-8895
▁qaway	-8896
▁resolu	-8897
▁rikcha	-8898
▁necesitas	-8899
▁extranjero	-8900
liz	-8901
▁já	-8902
▁roñe	-8903
▁iñarandu	-8904
▁excelente	-8905
káva	-8906
adora	-8907
▁(201	-8908
▁papá	-8909
pasiénsia	-8910
▁120	-8911
gidos	-8912
gusta	-8913
▁Estoy	-8914
▁nayra	-8915
▁eskuéla	-8916
▁llaqtanmi	-8917
íma	-8918
raron	-8919
▁Ichapas	-8920
▁oñemoag̃ui	-8921
take	-8922
▁Ger	-8923
▁Iñe	-8924
▁2009	-8925
▁hera	-8926
mentación	-8927
▁diskúrso	-8928
▁will	-8929
▁ndojo	-8930
▁willakusqan	-8931
vle	-8932
▁kómo	-8933
▁kirika	-8934
▁omondo	-8935
▁watapim	-8936
kí	-8937
opa	-8938
cauh	-8939
unki	-8940
▁Gal	-8941
vécho	-8942
▁nten	-8943
▁directamente	-8944
guerovia	-8945
ispo	-8946
Paita	-8947
▁atrás	-8948
▁indus	-8949
▁PÁHINA	-8950
▁África	-8951
wí	-8952
▁uñj	-8953
▁Debe	-8954
▁apaci	-8955
▁sección	-8956
▁Israelgua	-8957
▁Jerusalénpe	-8958
ks	-8959
cón	-8960
tec	-8961
Link	-8962
andi	-8963
fende	-8964
quich	-8965
▁decidió	-8966
▁persecu	-8967
▁imperfectos	-8968
mie	-8969
̱efi	-8970
▁onq	-8971
▁oír	-8972
▁Clau	-8973
▁volvió	-8974
▁domingo	-8975
▁atiy	-8976
torios	-8977
qun	-8978
háre	-8979
▁Mexi	-8980
▁despi	-8981
▁Chawpi	-8982
▁contrato	-8983
Ar	-8984
tini	-8985
usare	-8986
▁maíz	-8987
samente	-8988
mari	-8989
▁Bri	-8990
▁crey	-8991
▁beber	-8992
▁rebaño	-8993
▁abierto	-8994
▁importar	-8995
AQ	-8996
umí	-8997
moni	-8998
▁física	-8999
▁risqan	-9000
▁ifamilia	-9001
15	-9002
tápe	-9003
tudes	-9004
▁kasukuq	-9005
▁rregálo	-9006
▁kasqanchik	-9007
G̃	-9008
ẽi	-9009
7-1	-9010
ála	-9011
▁LAS	-9012
▁fer	-9013
▁Comi	-9014
▁rama	-9015
▁ijuru	-9016
▁Lon	-9017
Cuándo	-9018
▁Robert	-9019
▁requi	-9020
▁llevan	-9021
▁oñatende	-9022
▁congregacionpi	-9023
▁ÑA	-9024
▁19:1	-9025
▁naiñe	-9026
▁vícti	-9027
▁reikuaa	-9028
▁terminar	-9029
▁mboajepyréva	-9030
puy	-9031
gida	-9032
▁Men	-9033
▁sirve	-9034
▁Quechua	-9035
▁jajerure	-9036
Chay	-9037
quía	-9038
Brand	-9039
▁masa	-9040
▁ñoqa	-9041
▁Ajépa	-9042
▁omoñepyrũ	-9043
▁versículos	-9044
tpe	-9045
tigo	-9046
chando	-9047
espera	-9048
▁divor	-9049
▁itúva	-9050
▁hekove	-9051
▁oñembyaty	-9052
99	-9053
url	-9054
▁ní	-9055
▁Alma	-9056
▁Foto	-9057
▁empleo	-9058
ispecies	-9059
CA	-9060
TR	-9061
3-1	-9062
▁Dos	-9063
▁Non	-9064
▁nchca	-9065
▁rembo	-9066
▁(2007)	-9067
▁decidir	-9068
tle	-9069
leas	-9070
mala	-9071
tsika	-9072
▁onase	-9073
▁pasos	-9074
▁registro	-9075
▁Wikispecies	-9076
▁configuración	-9077
pix	-9078
▁SPL	-9079
▁siuda	-9080
oo	-9081
▁2017	-9082
▁veri	-9083
▁fondo	-9084
▁histó	-9085
▁ministeri	-9086
Com	-9087
rano	-9088
▁Rréi	-9089
rehehápe	-9090
▁ohasáva	-9091
▁recuper	-9092
▁hm	-9093
ela	-9094
▁28:1	-9095
▁codi	-9096
itereí	-9097
japóta	-9098
▁banda	-9099
▁ukampi	-9100
▁Jef	-9101
▁pér	-9102
yamai	-9103
▁12:2	-9104
▁Abdo	-9105
mático	-9106
▁formación	-9107
▁disciplina	-9108
▁advertencia	-9109
8-1	-9110
ída	-9111
▁dí	-9112
▁Nin	-9113
▁Solo	-9114
▁tlal	-9115
prepara	-9116
▁conside	-9117
away	-9118
▁Pon	-9119
▁vari	-9120
piente	-9121
tencias	-9122
▁despre	-9123
▁omanda	-9124
▁hinachu	-9125
▁Yan	-9126
▁finan	-9127
korrehi	-9128
▁markapi	-9129
▁encontramos	-9130
uku	-9131
cian	-9132
érvo	-9133
mismo	-9134
rarse	-9135
▁olee	-9136
▁integ	-9137
▁metas	-9138
▁perten	-9139
udi	-9140
▁pros	-9141
bí	-9142
▁tata	-9143
▁detrás	-9144
25	-9145
goci	-9146
▁Rut	-9147
▁isy	-9148
▁ipuévlo	-9149
▁precursora	-9150
kasa	-9151
▁Ami	-9152
timos	-9153
▁Cris	-9154
▁capaz	-9155
▁confli	-9156
▁oñemos	-9157
▁2)	-9158
güedad	-9159
▁radio	-9160
▁gustaría	-9161
▁perdonar	-9162
▁53	-9163
▁Casa	-9164
▁yoiwe	-9165
▁waranqa	-9166
▁prometido	-9167
pes	-9168
▁Cos	-9169
▁pier	-9170
urqani	-9171
▁tarje	-9172
▁ogueru	-9173
▁descono	-9174
▁privada	-9175
▁comisión	-9176
▁fron	-9177
▁ohenói	-9178
▁existen	-9179
▁meditar	-9180
▁interpre	-9181
daron	-9182
monía	-9183
▁musya	-9184
▁leemos	-9185
kani	-9186
mein	-9187
juehe	-9188
▁21).	-9189
▁Adan	-9190
▁remi	-9191
▁Tuicha	-9192
▁debían	-9193
▁sirven	-9194
▁trabajos	-9195
ãso	-9196
▁ao	-9197
▁15:2	-9198
▁1)	-9199
leto	-9200
▁Segu	-9201
▁cuyo	-9202
popo	-9203
terra	-9204
ikuaáva	-9205
ika	-9206
▁oba	-9207
cante	-9208
▁Uste	-9209
▁jene	-9210
▁Federación	-9211
bro	-9212
tiy	-9213
chez	-9214
▁8:1	-9215
▁munaq	-9216
▁mbegue	-9217
▁esencial	-9218
▁solicitud	-9219
hia	-9220
utu	-9221
mitã	-9222
mplí	-9223
▁dura	-9224
porand	-9225
▁mandó	-9226
▁Imayna	-9227
▁Etiopía	-9228
▁55	-9229
veve	-9230
▁Ken	-9231
▁pré	-9232
▁nueve	-9233
▁vigil	-9234
▁Italia	-9235
▁terren	-9236
▁yachaq	-9237
▁realizó	-9238
lub	-9239
lios	-9240
▁Ñemo	-9241
▁mboray	-9242
▁qullqi	-9243
▁enviado	-9244
▁superar	-9245
▁creencias	-9246
▁completamente	-9247
Jos	-9248
ĝua	-9249
link	-9250
ólogo	-9251
▁karu	-9252
▁idisi	-9253
▁impos	-9254
▁experimen	-9255
▁Lá	-9256
▁Epi	-9257
▁muche	-9258
rupción	-9259
uyu	-9260
miki	-9261
▁180	-9262
▁Conmemoración	-9263
tiko	-9264
▁casar	-9265
▁tantea	-9266
asãi	-9267
▁Lle	-9268
▁eter	-9269
▁India	-9270
▁llegue	-9271
▁Apostol	-9272
▁elecciones	-9273
▁New	-9274
▁ipoguýpe	-9275
▁comunidades	-9276
▁Sen	-9277
▁ach	-9278
▁Cien	-9279
▁jeheka	-9280
▁lluvia	-9281
▁jeroviaha	-9282
48	-9283
▁cuiya	-9284
▁hijas	-9285
▁plazo	-9286
▁hetaite	-9287
9-1	-9288
▁24:	-9289
▁rit	-9290
yatyrõ	-9291
▁doctor	-9292
▁podido	-9293
▁entienden	-9294
anda	-9295
▁nar	-9296
▁Jona	-9297
▁kepa	-9298
▁viva	-9299
▁oporombo	-9300
▁natekotevẽ	-9301
KO	-9302
entos	-9303
ñatak	-9304
▁Camp	-9305
▁fide	-9306
▁iñañ	-9307
▁celebra	-9308
bu̱	-9309
vénte	-9310
▁Diego	-9311
▁obten	-9312
▁siguió	-9313
wana	-9314
kanti	-9315
▁aves	-9316
▁ingres	-9317
▁trabajadores	-9318
▁rami	-9319
▁wiña	-9320
▁pájar	-9321
▁aspectos	-9322
▁idisipulo	-9323
98	-9324
1-1	-9325
maca	-9326
▁luchar	-9327
▁senador	-9328
▁yachachiwanchik	-9329
ág̃	-9330
chapa	-9331
htōlli	-9332
▁maman	-9333
▁távape	-9334
▁instalar	-9335
▁il	-9336
▁tengamos	-9337
▁antigüedad	-9338
▁trai	-9339
▁ndere	-9340
ag̃aite	-9341
▁remimbo	-9342
▁sucursal	-9343
tadora	-9344
▁siento	-9345
estamento	-9346
llachasqa	-9347
14	-9348
esto	-9349
▁Ára	-9350
▁(198	-9351
▁utji	-9352
▁itech	-9353
▁controlar	-9354
▁oposición	-9355
▁nombra	-9356
▁ndorekói	-9357
Que	-9358
▁gal	-9359
▁naturales	-9360
▁personales	-9361
ké	-9362
bla	-9363
▁́lí	-9364
ítulos	-9365
▁mosoq	-9366
▁costumbre	-9367
▁oipytyvõva	-9368
pyme	-9369
▁Heb	-9370
▁Was	-9371
▁hatã	-9372
▁nápi	-9373
▁cuándo	-9374
▁especí	-9375
gnidad	-9376
▁antigua	-9377
▁purahéi	-9378
▁antiguos	-9379
▁43	-9380
▁Tar	-9381
▁secre	-9382
▁estilo	-9383
▁contribuy	-9384
GA	-9385
ninmi	-9386
▁éste	-9387
▁modes	-9388
▁invitación	-9389
▁conversación	-9390
far	-9391
vención	-9392
▁predic	-9393
▁runapa	-9394
▁recompensa	-9395
voi	-9396
▁Ví	-9397
▁sob	-9398
ãmbyh	-9399
umílde	-9400
""""""""	-9401
▁permitió	-9402
▁jup	-9403
▁ambo	-9404
chkani	-9405
▁plante	-9406
▁necesaria	-9407
▁ae	-9408
ácter	-9409
▁dona	-9410
▁oiméramo	-9411
irin	-9412
ysýi	-9413
araki	-9414
▁PARA	-9415
▁abrir	-9416
▁ipype	-9417
▁Pabloqa	-9418
was	-9419
▁Apu	-9420
▁terres	-9421
▁superintendénte	-9422
em	-9423
▁).	-9424
▁doce	-9425
▁yoiya	-9426
▁hógape	-9427
▁diversas	-9428
▁Dicen	-9429
▁regla	-9430
▁circuito	-9431
▁Ñanemandu	-9432
.’	-9433
rios	-9434
inxon	-9435
▁martes	-9436
▁ojagarra	-9437
tían	-9438
ctora	-9439
inacional	-9440
IKU	-9441
yōtl	-9442
▁xea	-9443
uidos	-9444
▁koshi	-9445
Hebreos	-9446
product	-9447
▁ciento	-9448
▁viento	-9449
kuspanku	-9450
▁maestros	-9451
▁jw	-9452
hana	-9453
héra	-9454
▁Sim	-9455
▁incon	-9456
▁mieme	-9457
▁riesgo	-9458
chkaspan	-9459
▁planeta	-9460
▁policía	-9461
▁decidido	-9462
▁gobiernos	-9463
Ya	-9464
kangy	-9465
▁hete	-9466
▁debes	-9467
kundaha	-9468
▁Asamblea	-9469
▁carácter	-9470
tuq	-9471
enzo	-9472
valéi	-9473
▁omos	-9474
▁paraguayo	-9475
TUDI	-9476
▁Sólo	-9477
▁willakun	-9478
fas	-9479
▁300	-9480
▁2015	-9481
▁faraón	-9482
▁Espíritu	-9483
▁Naciones	-9484
▁Domingo	-9485
▁Paraíso	-9486
▁demonios	-9487
▁ál	-9488
▁aká	-9489
chiri	-9490
▁http	-9491
▁Mexico	-9492
▁peg̃uarã	-9493
Eze	-9494
▁41	-9495
mico	-9496
arori	-9497
▁roho	-9498
▁Pascua	-9499
▁incluye	-9500
xat	-9501
▁</	-9502
▁có	-9503
zones	-9504
anakuy	-9505
árrafo	-9506
▁Comuni	-9507
▁hierba	-9508
▁Ñanduti	-9509
qG	-9510
▁Ke	-9511
BLIC	-9512
▁Yana	-9513
▁nacido	-9514
▁Jerusalen	-9515
▁pornografía	-9516
zon	-9517
pall	-9518
▁25).	-9519
▁regoci	-9520
▁semána	-9521
▁desierto	-9522
▁comenzaron	-9523
Nda	-9524
fat	-9525
isti	-9526
▁150	-9527
▁Abel	-9528
▁impo	-9529
hca	-9530
▁atribu	-9531
▁tarikun	-9532
gs	-9533
ami	-9534
▁Ran	-9535
▁Vel	-9536
▁suel	-9537
▁Ñemaña	-9538
▁internet	-9539
▁Án	-9540
mond	-9541
▁Enrique	-9542
▁!	-9543
▁Hue	-9544
▁kopi	-9545
▁rova	-9546
▁pasan	-9547
▁tendápe	-9548
▁oikotevẽva	-9549
▁ainbo	-9550
como	-9551
siva	-9552
▁invita	-9553
▁tareas	-9554
chanapaq	-9555
▁ada	-9556
iséva	-9557
▁grado	-9558
▁rikchana	-9559
▁saserdóte	-9560
▁gobernador	-9561
24	-9562
lec	-9563
▁HT	-9564
▁defin	-9565
▁wawan	-9566
▁encima	-9567
volución	-9568
ág̃arupi	-9569
▁omanova	-9570
▁dör	-9571
▁(196	-9572
▁desper	-9573
ñanguéra	-9574
▁batalla	-9575
pykuehoha	-9576
ENA	-9577
▁(4	-9578
▁mostr	-9579
▁máximo	-9580
▁Xo	-9581
itéta	-9582
censes	-9583
▁convier	-9584
▁Salvador	-9585
▁oñemongeta	-9586
▁ñanderayhu	-9587
▁QUE	-9588
▁oĩta	-9589
▁poses	-9590
▁8:2	-9591
▁Jára	-9592
▁requiere	-9593
keri	-9594
myan	-9595
▁Bal	-9596
▁grú	-9597
▁loo	-9598
▁repro	-9599
▁Lenguas	-9600
▁llaqtap	-9601
▁intereses	-9602
tâ	-9603
ónicas	-9604
▁comun	-9605
dríguez	-9606
▁altura	-9607
▁vivimos	-9608
▁oñemombe	-9609
né	-9610
▁dá	-9611
apan	-9612
llin	-9613
▁Ado	-9614
ctivar	-9615
▁afirma	-9616
▁acceder	-9617
ibe	-9618
enez	-9619
▁JES	-9620
▁guarã	-9621
▁enviar	-9622
▁watakama	-9623
93	-9624
:11).	-9625
▁Autori	-9626
▁institución	-9627
▁Hy	-9628
▁Sha	-9629
véramo	-9630
▁negro	-9631
▁llaqtanpi	-9632
▁jajapóramo	-9633
Efe	-9634
taj	-9635
▁US	-9636
▁quy	-9637
▁Pres	-9638
▁perfil	-9639
▁chaynalla	-9640
▁ndoikuaái	-9641
▁persecución	-9642
ICHA	-9643
chel	-9644
mpas	-9645
potái	-9646
▁utja	-9647
japóva	-9648
jehecha	-9649
▁compon	-9650
▁equivo	-9651
▁yanapasun	-9652
▁extranjeros	-9653
sika	-9654
descen	-9655
listli	-9656
▁larga	-9657
asqanku	-9658
▁Rodríguez	-9659
vó	-9660
guay	-9661
▁nul	-9662
▁trigo	-9663
▁ukana	-9664
ondi	-9665
▁Recor	-9666
▁ungido	-9667
▁oficina	-9668
▁ojetra	-9669
▁ideprovécho	-9670
xia	-9671
▁7:2	-9672
▁Qha	-9673
▁2008	-9674
▁aiko	-9675
▁falle	-9676
▁sufrir	-9677
▁dedicar	-9678
▁kananchik	-9679
▁requisitos	-9680
▁kasqanchikta	-9681
▁características	-9682
▁Í	-9683
▁Shi	-9684
▁trá	-9685
cionar	-9686
▁responde	-9687
▁Ú	-9688
Sant	-9689
tanas	-9690
▁aparece	-9691
éna	-9692
▁digi	-9693
▁Organi	-9694
▁Uno	-9695
▁ano	-9696
kuchkan	-9697
▁olvidar	-9698
aki	-9699
arca	-9700
▁URL	-9701
▁aski	-9702
▁areko	-9703
▁kuánto	-9704
▁demuestran	-9705
jke	-9706
▁ego	-9707
▁unay	-9708
imatam	-9709
▁grúpo	-9710
▁ruwaq	-9711
▁chembo	-9712
▁textos	-9713
mentales	-9714
▁runamasin	-9715
26	-9716
▁nó	-9717
▁qepa	-9718
ehénte	-9719
cientos	-9720
▁Nosotros	-9721
▁condición	-9722
▁KO	-9723
gios	-9724
tóli	-9725
▁TNM	-9726
▁dise	-9727
▁ñamombe	-9728
▁oñemoĩva	-9729
▁Churinkuna	-9730
▁entusiasmo	-9731
wasqanchikta	-9732
▁precio	-9733
▁tuichakuére	-9734
500	-9735
▁Hen	-9736
▁noko	-9737
prende	-9738
payakuq	-9739
▁oĩvape	-9740
kunamantam	-9741
cke	-9742
▁ná	-9743
któr	-9744
memos	-9745
▁Otra	-9746
▁vini	-9747
tólica	-9748
kẽ	-9749
▁Tec	-9750
▁cán	-9751
▁paymi	-9752
▁historias	-9753
TEN	-9754
ãrõ	-9755
▁nz	-9756
▁oex	-9757
1]	-9758
Nde	-9759
túa	-9760
upe	-9761
jina	-9762
imete	-9763
chkaspa	-9764
eháicha	-9765
17	-9766
fael	-9767
quac	-9768
▁Den	-9769
▁análisis	-9770
▁resistir	-9771
▁kachkaptin	-9772
amo	-9773
sapa	-9774
▁Yuy	-9775
tzinco	-9776
▁cartas	-9777
▁jardín	-9778
▁ojeruréva	-9779
▁identifica	-9780
alí	-9781
isia	-9782
pero	-9783
▁iuh	-9784
▁jero	-9785
pachan	-9786
undación	-9787
▁fuertes	-9788
▁predicando	-9789
mirĩ	-9790
▁Eduardo	-9791
▁brasile	-9792
chasi	-9793
ision	-9794
▁Piluta	-9795
▁qollqe	-9796
▁Asociación	-9797
phi	-9798
▁Igna	-9799
▁Willia	-9800
▁Nayriri	-9801
▁preparar	-9802
▁2011-2014:	-9803
usi	-9804
ãmba	-9805
▁dele	-9806
+,	-9807
vilida	-9808
▁kaqta	-9809
▁rimaypi	-9810
▁Superior	-9811
▁examinar	-9812
arre	-9813
tifi	-9814
ueve	-9815
▁ñas	-9816
▁sueño	-9817
▁Corinto	-9818
▁Bibliapi	-9819
wen	-9820
▁39	-9821
deos	-9822
kóma	-9823
tanta	-9824
▁Eike	-9825
▁exclu	-9826
warqaku	-9827
anqayuqmi	-9828
▁fielmente	-9829
▁hekoitépe	-9830
▁jane	-9831
guýgui	-9832
paqpas	-9833
▁Segundo	-9834
▁derecha	-9835
▁Chayraykum	-9836
▁caja	-9837
▁xobon	-9838
▁derécho	-9839
▁moĩmbaha	-9840
▁sector	-9841
▁escritu	-9842
▁jawekibo	-9843
▁matrimónio	-9844
ecen	-9845
▁jua	-9846
▁ganar	-9847
▁qepan	-9848
▁ñamba	-9849
▁valora	-9850
▁káusare	-9851
thi	-9852
▁eha	-9853
▁sie	-9854
▁ocurrió	-9855
Ex	-9856
QA	-9857
▁Kan	-9858
chiyta	-9859
▁apari	-9860
▁acompañ	-9861
ayqa	-9862
▁umí	-9863
chata	-9864
cháre	-9865
▁arsu	-9866
▁pura	-9867
▁Jaska	-9868
vincial	-9869
ed	-9870
:3-	-9871
upa	-9872
▁Nú	-9873
iete	-9874
▁Mir	-9875
▁reje	-9876
tirori	-9877
▁Maman	-9878
▁parla	-9879
▁distri	-9880
▁registra	-9881
▁Amérikagua	-9882
▁ín	-9883
gara	-9884
ogle	-9885
▁Sala	-9886
▁keská	-9887
▁jueves	-9888
▁Aníkena	-9889
▁ventana	-9890
▁disposición	-9891
gip	-9892
▁Techa	-9893
▁fiscal	-9894
▁establecido	-9895
cpatl	-9896
▁Hace	-9897
▁tiémpore	-9898
▁inmediato	-9899
▁inmediatamente	-9900
ard	-9901
ehu	-9902
▁Fil	-9903
▁Isra	-9904
tepetl	-9905
tereíta	-9906
▁ojepor	-9907
▁guasúpe	-9908
▁oñangare	-9909
▁Kim	-9910
okies	-9911
kisqan	-9912
▁ohóta	-9913
▁cuarto	-9914
▁porãha	-9915
▁francés	-9916
▁Diputados	-9917
cah	-9918
kta	-9919
kuru	-9920
tsiki	-9921
▁yaku	-9922
▁Salud	-9923
▁afron	-9924
▁amamos	-9925
▁prisión	-9926
▁similar	-9927
▁respetar	-9928
▁identidad	-9929
▁pensamiento	-9930
katsi	-9931
kuépe	-9932
mites	-9933
▁Alto	-9934
▁Paragua	-9935
▁anchatam	-9936
▁ukjamara	-9937
▁doc	-9938
▁adorar	-9939
▁señaló	-9940
aykichik	-9941
▁licencia	-9942
ykiqa	-9943
▁tetepy	-9944
▁hacerse	-9945
▁pusieron	-9946
▁Paraguáipe	-9947
ÉRA	-9948
iape	-9949
▁Hun	-9950
▁Pis	-9951
torno	-9952
▁Cono	-9953
▁nombo	-9954
▁jajapóva	-9955
▁kikillan	-9956
▁porãramo	-9957
▁soldados	-9958
ãta	-9959
▁mez	-9960
mbyat	-9961
mocrá	-9962
vandi	-9963
▁‘%1$	-9964
▁jeytaha	-9965
▁permiso	-9966
Na	-9967
gní	-9968
▁Mē	-9969
fini	-9970
rire	-9971
irqan	-9972
▁Gabri	-9973
▁Pórke	-9974
▁sincer	-9975
▁Bautista	-9976
▁Ñepyrũrã	-9977
iw	-9978
chio	-9979
▁Oñemo	-9980
▁conec	-9981
▁Pablom	-9982
guerohor	-9983
▁Política	-9984
▁ñambohovái	-9985
áke	-9986
▁Dé	-9987
gues	-9988
pyrû	-9989
pýva	-9990
▁ono	-9991
erador	-9992
éiramo	-9993
▁payta	-9994
▁otrata	-9995
▁Legisla	-9996
▁ukanaka	-9997
▁descendientes	-9998
23	-9999
▁—,	-10000
míso	-10001
▁ajus	-10002
Marcos	-10003
▁pere	-10004
▁abajo	-10005
▁seamos	-10006
▁kawsakuy	-10007
▁políticas	-10008
▁Pentecostés	-10009
4-1	-10010
▁Sch	-10011
enesis	-10012
▁Jonás	-10013
▁vivos	-10014
▁Lorenzo	-10015
entekuéra	-10016
▁ahechakuaa	-10017
0-	-10018
iy	-10019
tä	-10020
▁83	-10021
kyhyj	-10022
kuykuna	-10023
▁enlace	-10024
▁pensando	-10025
ple	-10026
vieran	-10027
▁pantaq	-10028
▁térãpa	-10029
▁designa	-10030
dáva	-10031
▁bib	-10032
▁Bern	-10033
▁omopu	-10034
▁abundan	-10035
▁iñimportánteva	-10036
▁khi	-10037
▁lli	-10038
didas	-10039
▁pobres	-10040
▁Marandu	-10041
▁próximo	-10042
▁hy	-10043
▁jaha	-10044
▁trató	-10045
▁aspecto	-10046
▁oikuave	-10047
▁orekoha	-10048
▁sirviendo	-10049
▁sasachakuypi	-10050
jw	-10051
jä	-10052
ýpa	-10053
▁Nab	-10054
▁2018	-10055
▁cine	-10056
▁jaiporu	-10057
▁quichen	-10058
esi	-10059
távo	-10060
▁pus	-10061
guáre	-10062
▁Mala	-10063
▁nemo	-10064
▁perro	-10065
▁recibe	-10066
▁romano	-10067
▁jakonma	-10068
▁Sãmbyhyha	-10069
▁tecnología	-10070
79	-10071
TEĨ	-10072
▁Lee	-10073
▁Tan	-10074
erepy	-10075
▁rupí	-10076
▁Itúva	-10077
▁crecer	-10078
▁mensajes	-10079
▁VA	-10080
▁Ñu	-10081
dara	-10082
logo	-10083
ágro	-10084
▁bil	-10085
apxa	-10086
▁Ove	-10087
▁pia	-10088
▁aire	-10089
▁resta	-10090
ñeñandu	-10091
▁Puesto	-10092
▁proces	-10093
▁upégui	-10094
▁relatos	-10095
▁nombrado	-10096
TY	-10097
▁waq	-10098
trado	-10099
▁ashi	-10100
▁oĩma	-10101
▁madera	-10102
▁asegura	-10103
▁neu	-10104
▁Aquí	-10105
▁hues	-10106
▁iñiy	-10107
▁traer	-10108
▁Tenemos	-10109
▁cristianokunaqa	-10110
▁Bor	-10111
▁apensa	-10112
▁campos	-10113
▁vencer	-10114
ustralia	-10115
▁Tekotevẽ	-10116
▁comenzar	-10117
▁comentarios	-10118
▁im	-10119
taru	-10120
▁Sant	-10121
▁sach	-10122
▁favore	-10123
▁pachak	-10124
èx	-10125
▁Paz	-10126
▁hui	-10127
▁jal	-10128
liano	-10129
rente	-10130
▁aran	-10131
▁oîva	-10132
▁importa	-10133
▁jastudia	-10134
▁continuar	-10135
▁Mburuvicha	-10136
84	-10137
▁imar	-10138
▁Comité	-10139
▁Ignacio	-10140
▁Mostrar	-10141
▁milágro	-10142
▁TAK	-10143
▁sina	-10144
▁tyaa	-10145
▁yuca	-10146
▁venga	-10147
aspanmi	-10148
ÁRA	-10149
geni	-10150
ficas	-10151
▁akana	-10152
▁paláv	-10153
▁ysyry	-10154
▁Electo	-10155
▁pulitiku	-10156
léto	-10157
▁1933	-10158
▁ARTÍ	-10159
llaraq	-10160
▁vivía	-10161
▁podamos	-10162
71	-10163
bili	-10164
oría	-10165
lados	-10166
▁Sele	-10167
▁Yala	-10168
▁wañun	-10169
aspanku	-10170
▁ndahas	-10171
▁defender	-10172
▁kananmanta	-10173
▁73	-10174
responsa	-10175
63	-10176
maq	-10177
▁Pik	-10178
▁kás	-10179
plica	-10180
vimos	-10181
▁gusto	-10182
▁Galaad	-10183
▁mercado	-10184
▁apytégui	-10185
▁Du	-10186
▁NO	-10187
▁tiy	-10188
ienes	-10189
▁pach	-10190
▁taky	-10191
▁calli	-10192
▁kárse	-10193
▁ñakariy	-10194
▁munasqanman	-10195
So	-10196
atã	-10197
ána	-10198
ýrõ	-10199
▁pul	-10200
Mayna	-10201
okápe	-10202
▁DIOS	-10203
▁Ukat	-10204
▁comprar	-10205
▁rurarqa	-10206
▁suyakuy	-10207
▁independi	-10208
▁demostramos	-10209
▁24).	-10210
arõva	-10211
quina	-10212
▁Tras	-10213
▁cayó	-10214
▁rape	-10215
▁Madre	-10216
▁Prome	-10217
▁parki	-10218
▁vuelta	-10219
▁144.000	-10220
▁palávra	-10221
the	-10222
hova	-10223
▁Hora	-10224
▁Teko	-10225
▁ninan	-10226
▁Unidas	-10227
▁aservi	-10228
▁bosque	-10229
▁armonía	-10230
ehína	-10231
Cuánto	-10232
alizar	-10233
▁apoya	-10234
quetian	-10235
▁alaban	-10236
▁ikatupyr	-10237
▁lectores	-10238
▁taqi	-10239
▁inquie	-10240
▁pescado	-10241
▁hendáicha	-10242
▁yvagapegua	-10243
kórõ	-10244
▁cala	-10245
▁Aarón	-10246
▁Android	-10247
▁qallari	-10248
SS	-10249
feso	-10250
▁ago	-10251
tasqa	-10252
▁nija	-10253
▁Escri	-10254
▁cuánto	-10255
▁continu	-10256
▁Jehovándi	-10257
▁SO	-10258
ford	-10259
vuel	-10260
▁Mit	-10261
▁egip	-10262
▁pesa	-10263
álatas	-10264
Efesios	-10265
▁soldado	-10266
▁usó	-10267
▁22).	-10268
▁efica	-10269
▁compañero	-10270
kes	-10271
aniw	-10272
▁moral	-10273
▁llulla	-10274
▁Nahániri	-10275
▁munaynin	-10276
▁hapichápe	-10277
▁oportunida	-10278
ag̃u	-10279
istli	-10280
úvare	-10281
▁Tiempo	-10282
▁santos	-10283
▁diputado	-10284
drum	-10285
éndi	-10286
▁brin	-10287
▁Derechos	-10288
▁profetas	-10289
▁oguerohor	-10290
udas	-10291
▁qoE	-10292
dendrum	-10293
▁marido	-10294
▁Kamachi	-10295
▁Kamasqa	-10296
▁Primera	-10297
▁reserva	-10298
▁terminó	-10299
▁Ñemañaha	-10300
▁(5	-10301
caso	-10302
umir	-10303
zaro	-10304
▁29).	-10305
▁tima	-10306
▁voto	-10307
▁chaya	-10308
▁chemo	-10309
▁siérvo	-10310
▁asamblé	-10311
▁hinallam	-10312
▁poguýgui	-10313
▁seleccion	-10314
▁ojehechauka	-10315
maron	-10316
▁inon	-10317
▁uñja	-10318
▁Walla	-10319
hechauka	-10320
▁totalmente	-10321
fir	-10322
▁20.	-10323
▁blo	-10324
▁riq	-10325
▁Paulo	-10326
▁ijapy	-10327
▁priviléhio	-10328
TP	-10329
hama	-10330
itla	-10331
ukái	-10332
▁viru	-10333
adores	-10334
juruja	-10335
▁atýpe	-10336
▁tomado	-10337
tigación	-10338
▁cuestiones	-10339
vol	-10340
▁oma	-10341
entre	-10342
▁renun	-10343
▁desani	-10344
▁kuyasqan	-10345
6-1	-10346
kia	-10347
irwa	-10348
▁iri	-10349
▁Chupe	-10350
▁preso	-10351
▁serio	-10352
▁rupípa	-10353
▁vieron	-10354
▁ojejuka	-10355
▁promésa	-10356
▁Chaynata	-10357
▁munisipyupi	-10358
▁ñañemoag̃ui	-10359
▁ñanderehehápe	-10360
eles	-10361
erãmo	-10362
▁Cusco	-10363
▁breve	-10364
▁valle	-10365
ẽrõitéma	-10366
▁presentó	-10367
▁sú	-10368
onda̱	-10369
▁kopí	-10370
karaiñe	-10371
▁discreto	-10372
tē	-10373
teneuh	-10374
▁Epidendrum	-10375
▁iñarandúva	-10376
88	-10377
▁Sán	-10378
yendo	-10379
▁ndohej	-10380
▁sexual	-10381
▁persónape	-10382
▁oñemoingove	-10383
▁awe	-10384
▁Ramón	-10385
▁dueño	-10386
▁quimo	-10387
▁milagro	-10388
▁propues	-10389
▁suceder	-10390
▁allintam	-10391
▁seguimos	-10392
▁Dirección	-10393
▁crecimiento	-10394
▁muchedumbre	-10395
Ver	-10396
mbio	-10397
▁imakuna	-10398
▁rapykuéri	-10399
▁ñemboheko	-10400
▁Tesalonicenses	-10401
gica	-10402
estro	-10403
ékena	-10404
osafat	-10405
▁venido	-10406
aye	-10407
guare	-10408
tequi	-10409
▁dioses	-10410
▁chaskir	-10411
▁legisla	-10412
▁titular	-10413
Las	-10414
lyn	-10415
rey	-10416
ñax	-10417
jada	-10418
▁20,	-10419
piado	-10420
▁chacra	-10421
▁Pablopa	-10422
▁ñañatende	-10423
▁`	-10424
visa	-10425
▁Cho	-10426
▁oga	-10427
▁ocul	-10428
chispa	-10429
pendencia	-10430
▁angustia	-10431
▁idiómape	-10432
▁tembireko	-10433
▁posibilidad	-10434
iji	-10435
vévo	-10436
gusto	-10437
▁semi	-10438
▁ambué	-10439
▁Alejan	-10440
▁Eikuaa	-10441
▁Markus	-10442
▁Rafael	-10443
▁tetãvore	-10444
▁Autoridades	-10445
▁Hukllachasqa	-10446
yun	-10447
▁Tab	-10448
▁yeh	-10449
▁çan	-10450
▁(195	-10451
▁iken	-10452
▁oase	-10453
▁Tiémpo	-10454
▁Central	-10455
wé	-10456
Dan	-10457
wqar	-10458
▁fis	-10459
ganse	-10460
▁llank	-10461
▁sutilla	-10462
▁existencia	-10463
▁generación	-10464
dows	-10465
▁20:2	-10466
▁Actu	-10467
katúpe	-10468
▁jaheja	-10469
▁Suprema	-10470
▁efectos	-10471
▁kaqmanta	-10472
OM	-10473
rapu	-10474
wari	-10475
▁Mara	-10476
▁jako	-10477
▁prede	-10478
▁George	-10479
▁recibieron	-10480
isha	-10481
oséva	-10482
▁rico	-10483
▁inin	-10484
ventud	-10485
▁Hebre	-10486
▁falsa	-10487
▁Javier	-10488
▁ñemano	-10489
▁llamkay	-10490
waya	-10491
ísmo	-10492
▁qin	-10493
aguas	-10494
▁Chan	-10495
▁ataque	-10496
▁nchgaa	-10497
▁yupaycha	-10498
hê	-10499
joaju	-10500
▁raki	-10501
▁placer	-10502
ñapataki	-10503
▁gestión	-10504
▁cuarenta	-10505
ãramo	-10506
▁colum	-10507
▁ESTUDI	-10508
▁tamaño	-10509
▁agradar	-10510
▁empresas	-10511
▁oimehápe	-10512
tenta	-10513
▁débil	-10514
▁ojuhu	-10515
▁demostr	-10516
▁objetivos	-10517
▁gobernante	-10518
▁mborayhúpe	-10519
jei	-10520
▁Leví	-10521
▁señora	-10522
▁quiénes	-10523
▁publicado	-10524
▁imamantapas	-10525
vie	-10526
▁Ol	-10527
kururqa	-10528
▁rapichakuéra	-10529
▁119	-10530
▁leg	-10531
▁tik	-10532
▁}</	-10533
▁León	-10534
▁ámbi	-10535
▁PETEĨ	-10536
▁oveja	-10537
▁Estaba	-10538
▁iñepyrũ	-10539
▁Israélpe	-10540
▁Bra	-10541
▁hábi	-10542
▁imperfec	-10543
▁Fernández	-10544
▁periodista	-10545
fia	-10546
taray	-10547
▁ag̃a	-10548
▁resuel	-10549
▁Charles	-10550
▁dominio	-10551
62	-10552
hech	-10553
▁Kris	-10554
▁japoro	-10555
by	-10556
tzal	-10557
rafos	-10558
▁echi	-10559
▁deten	-10560
▁vivió	-10561
ejerure	-10562
▁desgra	-10563
▁ombyaty	-10564
▁secreto	-10565
apyeterei	-10566
hu̱	-10567
▁isa	-10568
cript	-10569
▁Pare	-10570
▁arst	-10571
▁peri	-10572
▁ovetã	-10573
▁kookie	-10574
▁ilustración	-10575
mul	-10576
íto	-10577
▁Tho	-10578
▁puñ	-10579
▁hici	-10580
▁juego	-10581
▁ojehai	-10582
interesa	-10583
▁pestaña	-10584
▁integridad	-10585
CS	-10586
▁Eara	-10587
▁alum	-10588
▁amba	-10589
▁pací	-10590
▁frecuencia	-10591
RES	-10592
ché	-10593
séva	-10594
▁apu	-10595
útbol	-10596
▁Enoc	-10597
ábamos	-10598
▁exactamente	-10599
G̃UA	-10600
▁pake	-10601
▁Tower	-10602
ãichagua	-10603
▁ombohasa	-10604
▁bol	-10605
▁propa	-10606
▁físico	-10607
▁rojapo	-10608
ẽrendúva	-10609
▁ojesalva	-10610
ny	-10611
▁tá	-10612
usta	-10613
vorã	-10614
▁ino	-10615
▁vidas	-10616
▁central	-10617
▁sincroni	-10618
▁asambleas	-10619
▁profundamente	-10620
ire	-10621
▁plá	-10622
▁impa	-10623
▁viaj	-10624
venida	-10625
▁liter	-10626
64	-10627
hon	-10628
▁Var	-10629
▁enteron	-10630
▁omoheñói	-10631
▁referencia	-10632
▁ue	-10633
mayu	-10634
viaha	-10635
▁cabal	-10636
aykupaq	-10637
▁Senado	-10638
▁consol	-10639
▁libera	-10640
▁neporã	-10641
▁programas	-10642
▁mate	-10643
▁dando	-10644
ficiales	-10645
▁chaypim	-10646
▁nichwan	-10647
▁hawkalla	-10648
▁rechazar	-10649
▁extensión	-10650
77	-10651
!”.	-10652
miqui	-10653
ípulo	-10654
▁Jawe	-10655
▁Quin	-10656
▁aswanta	-10657
▁kamachirqa	-10658
ula	-10659
▁bana	-10660
▁kametsa	-10661
▁querido	-10662
chikmanta	-10663
chiwanchik	-10664
▁bendicion	-10665
▁Hinaptinmi	-10666
!,	-10667
dádo	-10668
▁sukurs	-10669
▁suyuxa	-10670
▁caballo	-10671
▁sapakama	-10672
▁Provincial	-10673
ço	-10674
▁44	-10675
▁PRE	-10676
decer	-10677
▁Qati	-10678
▁PAGINA	-10679
▁sucede	-10680
▁amorosa	-10681
▁determin	-10682
▁Deuteronomio	-10683
uas	-10684
▁Trin	-10685
▁Liber	-10686
arentsi	-10687
▁jahuen	-10688
▁jainoax	-10689
▁64	-10690
ctri	-10691
poch	-10692
▁alcoh	-10693
run	-10694
▁153	-10695
▁kin	-10696
tería	-10697
▁uywa	-10698
▁lingü	-10699
▁suger	-10700
▁Algunas	-10701
▁valores	-10702
▁tapichápe	-10703
▁oñondivepa	-10704
ashi	-10705
livi	-10706
▁Llu	-10707
▁Díaz	-10708
▁abor	-10709
inakaw	-10710
yetiri	-10711
▁alerta	-10712
▁ciertas	-10713
▁elegido	-10714
▁poderoso	-10715
▁oportunidades	-10716
:​3	-10717
jere	-10718
▁UNA	-10719
▁ndä	-10720
▁trí	-10721
▁14:2	-10722
▁digo	-10723
▁echar	-10724
▁dejaron	-10725
▁contexto	-10726
tiz	-10727
▁avy	-10728
▁rasa	-10729
▁redu	-10730
huacan	-10731
▁Eliseo	-10732
▁ofrenda	-10733
▁qellqarqa	-10734
2-1	-10735
▁Anq	-10736
▁palo	-10737
▁emplea	-10738
▁tekotevẽva	-10739
tat	-10740
uski	-10741
▁mane	-10742
▁vaya	-10743
▁ranti	-10744
moĩporã	-10745
▁pronun	-10746
▁ruvicha	-10747
▁petición	-10748
▁realizado	-10749
▁Filipenses	-10750
▁Información	-10751
ML	-10752
TRA	-10753
▁3)	-10754
▁rebe	-10755
▁hardín	-10756
▁mental	-10757
▁idiferénte	-10758
▁publicación	-10759
pawa	-10760
Qaway	-10761
▁Vida	-10762
versal	-10763
▁irnaq	-10764
▁ninka	-10765
▁tukuq	-10766
▁vestir	-10767
lización	-10768
▁estrecha	-10769
▁administración	-10770
▁hen	-10771
estas	-10772
ikana	-10773
▁deba	-10774
▁yuyaq	-10775
timiento	-10776
▁llevaba	-10777
▁piedras	-10778
kha	-10779
chuy	-10780
gípto	-10781
▁24:4	-10782
▁Cali	-10783
▁emba	-10784
aprendéva	-10785
▁área	-10786
▁Oñembo	-10787
▁omotenond	-10788
67	-10789
asaq	-10790
chante	-10791
cuador	-10792
▁impulsa	-10793
▁tratado	-10794
ágã	-10795
ýma	-10796
ello	-10797
▁Bur	-10798
▁peso	-10799
▁acusa	-10800
▁matar	-10801
▁Chayta	-10802
▁aceptó	-10803
▁indicó	-10804
▁mismas	-10805
▁perdió	-10806
▁pobreza	-10807
▁rresponsa	-10808
Oĩ	-10809
port	-10810
▁ABC	-10811
onado	-10812
▁Tupã	-10813
▁firma	-10814
▁kasqa	-10815
▁esposas	-10816
▁tendría	-10817
valuación	-10818
▁mantenerse	-10819
huat	-10820
▁Rio	-10821
▁jajo	-10822
invita	-10823
lioteca	-10824
▁producto	-10825
▁anteriores	-10826
grada	-10827
chisun	-10828
kuénta	-10829
▁saqer	-10830
▁trono	-10831
▁Amirika	-10832
▁Ejemplo	-10833
▁humildes	-10834
▁estudiante	-10835
▁yachachikuynin	-10836
▁110	-10837
▁Abi	-10838
rando	-10839
▁lees	-10840
▁tera	-10841
zarnos	-10842
▁Ñañeha	-10843
▁Lingüísticas	-10844
▁ame	-10845
▁tse	-10846
culas	-10847
▁niña	-10848
▁Iskay	-10849
▁asign	-10850
▁coord	-10851
▁montaña	-10852
▁hospital	-10853
▁fundamental	-10854
DOS	-10855
pus	-10856
thu	-10857
▁ñä	-10858
dios	-10859
▁carre	-10860
▁reínte	-10861
▁servis	-10862
▁William	-10863
▁límites	-10864
▁entidades	-10865
▁descendencia	-10866
▁organizaciones	-10867
ãiva	-10868
▁Pol	-10869
▁arte	-10870
▁tapi	-10871
▁tlan	-10872
▁gratu	-10873
ensemos	-10874
▁suyuwa	-10875
▁Electoral	-10876
▁chaskisqan	-10877
▁HE	-10878
rito	-10879
qallan	-10880
▁alemán	-10881
▁casarse	-10882
▁huchapa	-10883
▁realiza	-10884
▁chehegui	-10885
▁universi	-10886
▁fidelidad	-10887
▁recomenda	-10888
▁responsable	-10889
▁Té	-10890
gará	-10891
wasi	-10892
guápa	-10893
kovépe	-10894
ãngamýi	-10895
▁método	-10896
▁abogado	-10897
▁avavépe	-10898
▁hablaba	-10899
▁controla	-10900
▁promover	-10901
▁demostrado	-10902
▁hinaptinmi	-10903
▁participan	-10904
tsipe	-10905
viles	-10906
ỹvape	-10907
takeri	-10908
▁Descar	-10909
▁servirle	-10910
▁cualquiera	-10911
▁comportamiento	-10912
tachu	-10913
▁Rebe	-10914
▁barrio	-10915
▁descanso	-10916
▁públicas	-10917
éa	-10918
guno	-10919
▁Alex	-10920
▁nacer	-10921
▁westí	-10922
▁wakllan	-10923
▁enterovéva	-10924
▁especiales	-10925
95	-10926
erre	-10927
ário	-10928
tztli	-10929
▁enca	-10930
▁pregún	-10931
▁usando	-10932
▁materna	-10933
▁liberación	-10934
pam	-10935
uva	-10936
▁gar	-10937
▁tawa	-10938
▁Ángel	-10939
kunayki	-10940
▁ayllun	-10941
▁mensáhe	-10942
tivamente	-10943
▁imposible	-10944
▁muchísimo	-10945
▁obediencia	-10946
▁kamachikuynin	-10947
xy	-10948
jati	-10949
vara	-10950
▁2:4	-10951
▁miti	-10952
▁Clima	-10953
▁musuq	-10954
▁Egípto	-10955
▁enfermo	-10956
▁misioneros	-10957
ald	-10958
bano	-10959
tlali	-10960
ántos	-10961
▁acci	-10962
▁inmo	-10963
▁HAG̃UA	-10964
▁evange	-10965
▁ndaija	-10966
▁Pensemos	-10967
10:	-10968
queo	-10969
▁jep	-10970
▁nina	-10971
▁iñirũ	-10972
▁jajes	-10973
Ca	-10974
aska	-10975
endy	-10976
pios	-10977
▁mik	-10978
cepto	-10979
minio	-10980
▁deje	-10981
▁salida	-10982
▁reciben	-10983
▁soldádo	-10984
▁párrafos	-10985
uhã	-10986
tiuh	-10987
teras	-10988
▁kanchik	-10989
▁riremínte	-10990
▁Concepción	-10991
▁graba	-10992
▁kasun	-10993
▁riquezas	-10994
▁económica	-10995
▁piensasqan	-10996
indy	-10997
ãsia	-10998
▁Hon	-10999
▁bio	-11000
aretéva	-11001
tyarori	-11002
▁informa	-11003
▁pasando	-11004
▁escritura	-11005
▁fácilmente	-11006
hä	-11007
ñeh	-11008
▁peñe	-11009
▁Rusia	-11010
▁Usted	-11011
▁milagros	-11012
▁paykunata	-11013
▁constantemente	-11014
éo	-11015
uiz	-11016
▁CA	-11017
quez	-11018
▁Efra	-11019
▁téma	-11020
▁asýva	-11021
▁expresó	-11022
▁colabora	-11023
▁hekopete	-11024
▁yachachiq	-11025
▁religiones	-11026
érã	-11027
tugu	-11028
▁Sánchez	-11029
arqanchik	-11030
▁sexuales	-11031
waqninchik	-11032
▁asistencia	-11033
▁iporãitereíva	-11034
omo	-11035
anaua	-11036
▁Tito	-11037
▁aula	-11038
▁jila	-11039
▁iñamígo	-11040
▁solución	-11041
▁mboajepyre	-11042
reas	-11043
▁dro	-11044
queas	-11045
▁anda	-11046
ctivos	-11047
grantes	-11048
valeiha	-11049
▁Víctor	-11050
▁debajo	-11051
kuaáramo	-11052
▁vecinos	-11053
▁oikotaha	-11054
quín	-11055
▁vie	-11056
mbyre	-11057
▁ñame	-11058
▁haĝua	-11059
▁juris	-11060
▁oguahë	-11061
▁prometió	-11062
▁tuicháva	-11063
sis	-11064
yapu	-11065
▁max	-11066
xonra	-11067
▁chiq	-11068
▁pópe	-11069
▁encuentro	-11070
▁movimiento	-11071
hiku	-11072
▁Peru	-11073
Santiago	-11074
▁ruwarqa	-11075
kusqankuta	-11076
▁beneficia	-11077
▁corresponde	-11078
APO	-11079
▁Dil	-11080
▁qun	-11081
▁TAKI	-11082
▁jeman	-11083
▁Piruwna	-11084
▁ciencia	-11085
▁pérdida	-11086
▁sagrado	-11087
▁funcionarios	-11088
!!	-11089
pica	-11090
▁wino	-11091
▁motiva	-11092
▁normal	-11093
▁pedido	-11094
▁Jaskara	-11095
▁evidente	-11096
▁westíora	-11097
▁ypykuéra	-11098
▁enterovépe	-11099
▁kananchikpaq	-11100
CO	-11101
="{	-11102
íni	-11103
mperfékto	-11104
▁palabran	-11105
▁IS	-11106
▁XV	-11107
guida	-11108
▁17:2	-11109
▁Patri	-11110
▁damos	-11111
▁lágri	-11112
▁jasypa	-11113
▁pastores	-11114
avy	-11115
eiro	-11116
rará	-11117
▁Mokõi	-11118
▁kuyan	-11119
▁enorme	-11120
▁Público	-11121
▁misionero	-11122
▁tentación	-11123
▁ñuqanchik	-11124
etsa	-11125
pytýva	-11126
▁Oñeha	-11127
▁convo	-11128
▁manus	-11129
▁diseño	-11130
▁guerras	-11131
▁prohibi	-11132
▁ndovaléi	-11133
▁españoles	-11134
61	-11135
inec	-11136
▁hóga	-11137
▁cerra	-11138
▁silen	-11139
haguére	-11140
▁uñacht	-11141
0-1	-11142
gín	-11143
unak	-11144
ógui	-11145
▁Don	-11146
▁Agus	-11147
▁Wawa	-11148
kuypaq	-11149
▁impar	-11150
▁diario	-11151
▁omoĩva	-11152
▁onanti	-11153
▁Diostam	-11154
▁bastante	-11155
▁sentencia	-11156
▁automáticamente	-11157
73	-11158
ÍA	-11159
joj	-11160
plo	-11161
ctli	-11162
▁(15	-11163
Jesús	-11164
▁Gali	-11165
▁Hugo	-11166
▁campa	-11167
kuychik	-11168
pysokue	-11169
▁enkuénta	-11170
▁llaqtaqa	-11171
▁misericordi	-11172
▁Qhi	-11173
endas	-11174
baonra	-11175
▁Aquel	-11176
▁estra	-11177
▁sapaq	-11178
▁falsos	-11179
▁sum	-11180
uelas	-11181
▁uksa	-11182
▁Estamos	-11183
▁amoroso	-11184
▁protege	-11185
▁querían	-11186
▁Colorado	-11187
74	-11188
xei	-11189
tain	-11190
tare	-11191
▁aní	-11192
▁lyi	-11193
Dónde	-11194
▁Chaco	-11195
▁harka	-11196
▁omoneĩ	-11197
200	-11198
Efes	-11199
unga	-11200
▁ilu	-11201
▁tup	-11202
▁cauti	-11203
▁Grigur	-11204
▁Person	-11205
▁cultural	-11206
▁teniendo	-11207
▁convertido	-11208
úm	-11209
▁32:	-11210
▁ataq	-11211
▁Ñañe	-11212
▁veinte	-11213
▁motivos	-11214
▁okyhyje	-11215
▁ñanendive	-11216
▁uel	-11217
▁raíz	-11218
liztli	-11219
▁4:8).	-11220
▁memby	-11221
▁Tembiapo	-11222
▁dignidad	-11223
▁hembirekópe	-11224
▁Ini	-11225
▁ike	-11226
▁nic	-11227
▁niya	-11228
▁joaju	-11229
▁lanza	-11230
▁señas	-11231
▁ordenó	-11232
▁izquier	-11233
▁utanaka	-11234
drid	-11235
mach	-11236
vete	-11237
donado	-11238
génito	-11239
onderã	-11240
▁joibo	-11241
▁Opavave	-11242
▁Martínez	-11243
▁acontecimientos	-11244
vate	-11245
▁emi	-11246
panqa	-11247
yamake	-11248
▁yuyar	-11249
▁flores	-11250
▁aguante	-11251
▁llamkaq	-11252
▁cualidad	-11253
▁Cincuenta	-11254
▁Indígenas	-11255
▁maravilloso	-11256
manqa	-11257
yakan	-11258
▁cuya	-11259
▁cerro	-11260
▁desas	-11261
áy	-11262
EMB	-11263
▁altar	-11264
▁yuyari	-11265
▁kuyakuq	-11266
▁gobernar	-11267
▁estrellas	-11268
Peteĩ	-11269
chime	-11270
▁acus	-11271
▁chhi	-11272
▁lógi	-11273
ankena	-11274
▁compu	-11275
▁prefi	-11276
▁vivían	-11277
▁dirigió	-11278
▁ohayhue	-11279
▁queridos	-11280
▁solamente	-11281
▁Xi	-11282
▁Vol	-11283
cardo	-11284
▁mera	-11285
▁yoin	-11286
kusqay	-11287
▁hecha	-11288
▁celebrar	-11289
▁iñermano	-11290
▁terrestre	-11291
max	-11292
ayuq	-11293
▁rue	-11294
▁acercar	-11295
▁privado	-11296
▁Trinidad	-11297
▁intención	-11298
Un	-11299
sti	-11300
̱ni	-11301
▁Gil	-11302
▁Cara	-11303
▁cheq	-11304
▁tó	-11305
dill	-11306
▁Dar	-11307
▁guei	-11308
llanpi	-11309
pyenda	-11310
ankuchu	-11311
▁Australia	-11312
leo	-11313
▁178	-11314
▁nza̱	-11315
▁andar	-11316
▁conqu	-11317
aporãva	-11318
▁puklla	-11319
esãmbyhy	-11320
guerekói	-11321
▁ñamboyke	-11322
▁cristianokuna	-11323
kunay	-11324
▁2005	-11325
▁oĩrõ	-11326
▁wall	-11327
rédito	-11328
▁Desarro	-11329
▁repensa	-11330
▁ñemoneĩ	-11331
▁Qatiqnin	-11332
▁TAKIKUNA	-11333
▁primérope	-11334
▁tratamiento	-11335
SPL	-11336
mbu	-11337
ñoiha	-11338
▁luna	-11339
ositor	-11340
▁Bible	-11341
▁espada	-11342
▁cookies	-11343
▁omoteneuh	-11344
PÑS	-11345
wiq	-11346
rese	-11347
ánda	-11348
▁peda	-11349
▁corte	-11350
▁sucesos	-11351
▁reacción	-11352
▁necesitaba	-11353
egas	-11354
▁agri	-11355
▁conmo	-11356
▁cambió	-11357
▁kamachiy	-11358
▁montañas	-11359
▁qallaykurqa	-11360
iba	-11361
cena	-11362
guer	-11363
▁9:1	-11364
▁Jim	-11365
▁Pap	-11366
▁Dijo	-11367
▁Ancha	-11368
▁atipa	-11369
▁piluta	-11370
▁religioso	-11371
ht	-11372
uha	-11373
tataq	-11374
uerte	-11375
▁Jean	-11376
▁barro	-11377
▁separ	-11378
siénsia	-11379
ueterei	-11380
▁Recuer	-11381
▁vaieterei	-11382
IO	-11383
▁Oi	-11384
cuac	-11385
hini	-11386
▁pago	-11387
▁consu	-11388
rahéiva	-11389
▁proyectos	-11390
▁tö	-11391
evéi	-11392
▁jára	-11393
▁libra	-11394
▁alguno	-11395
▁perfecta	-11396
uj	-11397
tár	-11398
ñiq	-11399
Deut	-11400
tape	-11401
▁PÑS	-11402
alacio	-11403
amonget	-11404
▁guarda	-11405
▁marcha	-11406
▁Provincia	-11407
▁preguntar	-11408
▁ñandereko	-11409
abe	-11410
▁500	-11411
▁9:2	-11412
▁Agu	-11413
apoha	-11414
presen	-11415
vautis	-11416
érsito	-11417
▁zonas	-11418
▁Fiscal	-11419
▁Horacio	-11420
▁pertenece	-11421
▁principalmente	-11422
65	-11423
▁̱u	-11424
mpiw	-11425
signi	-11426
▁10:3	-11427
▁urqum	-11428
▁unidos	-11429
▁casados	-11430
▁ichapas	-11431
▁rresponsavilida	-11432
1-2	-11433
▁mur	-11434
▁Ñan	-11435
▁arca	-11436
▁costa	-11437
▁acompaña	-11438
Di	-11439
fal	-11440
gué	-11441
sell	-11442
viar	-11443
aynin	-11444
▁Micha	-11445
epytyvõ	-11446
▁distrib	-11447
▁cometido	-11448
▁devoción	-11449
cá	-11450
vre	-11451
▁Lan	-11452
muray	-11453
▁Huch	-11454
▁Unos	-11455
▁peteĩteĩ	-11456
▁Hetaiterei	-11457
▁kasqanrayku	-11458
▁mandamientos	-11459
75	-11460
▁Bake	-11461
shaman	-11462
▁oguer	-11463
▁huklla	-11464
▁kunjam	-11465
▁vakapi	-11466
▁reconoce	-11467
US	-11468
cac	-11469
río	-11470
▁pota	-11471
▁segú	-11472
▁alcal	-11473
▁osheki	-11474
▁útiles	-11475
>{	-11476
Su	-11477
▁dia	-11478
ãhára	-11479
deroso	-11480
ỹijóta	-11481
▁jopói	-11482
▁allinkunata	-11483
9-2	-11484
▁hoki	-11485
▁peor	-11486
▁Benja	-11487
▁qollq	-11488
▁ojapóma	-11489
▁ojeporavo	-11490
tibo	-11491
▁Bio	-11492
rasqa	-11493
tória	-11494
▁Otro	-11495
▁maya	-11496
▁“%1$	-11497
▁thoki	-11498
▁serían	-11499
▁ñaporo	-11500
▁dólares	-11501
▁hermoso	-11502
▁yachachirqa	-11503
▁63	-11504
▁Pos	-11505
michĩ	-11506
▁bebi	-11507
▁empi	-11508
▁kyhy	-11509
▁moro	-11510
▁reemp	-11511
▁ricos	-11512
▁kuyana	-11513
▁poravo	-11514
▁resulta	-11515
▁agradable	-11516
▁plataforma	-11517
72	-11518
▁18:2	-11519
▁itla	-11520
jantes	-11521
▁mitad	-11522
▁saluda	-11523
cus	-11524
www	-11525
pano	-11526
▁Marta	-11527
▁casta	-11528
▁omoañete	-11529
▁sencilla	-11530
Ama	-11531
nor	-11532
▁jaki	-11533
papapy	-11534
▁Epáña	-11535
▁perspe	-11536
▁corazones	-11537
▁resolución	-11538
Per	-11539
teki	-11540
▁130	-11541
▁Are	-11542
itsie	-11543
▁Awya	-11544
▁lloqsi	-11545
▁compues	-11546
▁decimos	-11547
▁bro	-11548
▁Daví	-11549
▁Tres	-11550
▁apan	-11551
▁nana	-11552
Diospa	-11553
▁listo	-11554
▁makin	-11555
▁casarasqa	-11556
▁injusticia	-11557
▁yuyayniyoq	-11558
▁(?	-11559
KENA	-11560
hasáva	-11561
kumplí	-11562
▁riremi	-11563
▁jagueropu	-11564
ximadamente	-11565
▁agradecidos	-11566
rak	-11567
▁Tru	-11568
▁XIV	-11569
▁Ense	-11570
uestro	-11571
▁Nobel	-11572
▁Norte	-11573
▁ponen	-11574
▁quisi	-11575
▁amplia	-11576
▁cumple	-11577
Min	-11578
▁hoja	-11579
▁itra	-11580
▁iamax	-11581
▁moõpa	-11582
▁regresar	-11583
▁omoingove	-11584
Deuteronomio	-11585
▁willawanchik	-11586
▁Lí	-11587
lihi	-11588
▁velo	-11589
▁mayma	-11590
▁imboria	-11591
▁ñanderay	-11592
▁Ayu	-11593
ctivas	-11594
erekua	-11595
ístope	-11596
▁regal	-11597
▁Debido	-11598
▁bendeci	-11599
▁contigo	-11600
▁llevado	-11601
▁Plantilla	-11602
tti	-11603
orld	-11604
érez	-11605
▁Ombo	-11606
▁cris	-11607
ximaya	-11608
▁Ojapo	-11609
▁doctr	-11610
▁magní	-11611
Commons	-11612
▁yehuatl	-11613
▁kristianokuéra	-11614
▁nja	-11615
▁Rojo	-11616
kuatia	-11617
▁ayude	-11618
hechávo	-11619
▁recibimos	-11620
▁representantes	-11621
76	-11622
tei	-11623
▁rode	-11624
▁ñawin	-11625
▁karuncha	-11626
94	-11627
kal	-11628
ári	-11629
ezas	-11630
▁yuh	-11631
murqa	-11632
▁ampli	-11633
▁opave	-11634
ñandúva	-11635
▁ganado	-11636
▁qawachiwanchik	-11637
omon	-11638
piar	-11639
▁37:	-11640
▁kie	-11641
▁nge	-11642
ẽramo	-11643
▁oñes	-11644
tísimo	-11645
▁Espáña	-11646
▁millas	-11647
▁alcance	-11648
▁escritos	-11649
▁expresar	-11650
▁ñañeñandu	-11651
▁desarrollar	-11652
▁2000	-11653
▁toca	-11654
▁Paran	-11655
▁ñapens	-11656
kuspanmi	-11657
▁rimayta	-11658
▁ejecución	-11659
▁qi	-11660
▁var	-11661
▁negó	-11662
▁comba	-11663
▁practi	-11664
▁kaqkuna	-11665
▁ofreció	-11666
▁miraynin	-11667
▁progreso	-11668
▁conocimientos	-11669
▁mío	-11670
trape	-11671
▁13:2	-11672
▁fines	-11673
traliza	-11674
▁aceite	-11675
▁buscan	-11676
▁hacían	-11677
▁antepas	-11678
▁simitam	-11679
▁consigui	-11680
▁estuviera	-11681
▁23:	-11682
▁wat	-11683
▁Confi	-11684
▁amaba	-11685
▁nochi	-11686
▁hawkay	-11687
▁planes	-11688
▁situwa	-11689
kunapaqmi	-11690
▁pachapaq	-11691
▁25:	-11692
▁JMP	-11693
▁São	-11694
ukáva	-11695
▁Yati	-11696
▁Absal	-11697
▁animó	-11698
▁liver	-11699
▁logró	-11700
myenyhẽ	-11701
▁jepuru	-11702
▁orgullo	-11703
▁Griguryanu	-11704
Jue	-11705
lita	-11706
▁tlaca	-11707
▁Éxodo	-11708
▁porãvéta	-11709
▁trabajando	-11710
▁reheguaCommons	-11711
▁54	-11712
▁MI	-11713
doma	-11714
▁yat	-11715
duras	-11716
▁adap	-11717
▁kora	-11718
kurqan	-11719
▁jamás	-11720
chwanchu	-11721
▁chendive	-11722
▁opurahéiva	-11723
▁mantenernos	-11724
chqa	-11725
▁SEM	-11726
▁Ricardo	-11727
▁impoiji	-11728
remo	-11729
▁post	-11730
▁camin	-11731
▁yapuy	-11732
▁puévlope	-11733
▁convertirse	-11734
▁consecuencia	-11735
tehe	-11736
▁zapa	-11737
▁waray	-11738
konsola	-11739
▁hubier	-11740
▁equilib	-11741
▁jurisdi	-11742
▁popular	-11743
▁kamachikuy	-11744
▁Sãmbyhyhára	-11745
ney	-11746
taĩ	-11747
▁"¿	-11748
▁}-	-11749
deras	-11750
juhúi	-11751
▁Mira	-11752
▁ríos	-11753
▁entró	-11754
▁willar	-11755
▁divinas	-11756
▁llapall	-11757
▁reempla	-11758
▁pequeñas	-11759
īn	-11760
▁Oc	-11761
telo	-11762
▁baja	-11763
▁Siria	-11764
▁votos	-11765
▁Rebeca	-11766
▁minutos	-11767
▁isrraelítape	-11768
az	-11769
ián	-11770
und	-11771
yry	-11772
▁omi	-11773
epyre	-11774
rante	-11775
▁amta	-11776
▁madu	-11777
▁Umalli	-11778
▁jajapóta	-11779
▁Kuatiarogue	-11780
▁satisfacción	-11781
▁84	-11782
▁vin	-11783
riway	-11784
▁Todas	-11785
▁apopy	-11786
haguéicha	-11787
92	-11788
line	-11789
chwanmi	-11790
▁Europe	-11791
▁rréino	-11792
▁esclavi	-11793
▁estudian	-11794
▁oipytyvõta	-11795
kunanchikpaq	-11796
▁disponibles	-11797
Elee	-11798
queh	-11799
▁}">	-11800
▁derro	-11801
hováita	-11802
▁pantay	-11803
▁tarpuy	-11804
▁apareció	-11805
▁pecadores	-11806
▁nepytyvõta	-11807
qaq	-11808
▁170	-11809
▁Ven	-11810
▁tle	-11811
▁Nabo	-11812
yguápe	-11813
▁barra	-11814
▁oñeño	-11815
▁Madrid	-11816
▁especie	-11817
▁oikovéva	-11818
ae	-11819
gico	-11820
juha	-11821
▁Ava	-11822
▁qar	-11823
▁tax	-11824
ístico	-11825
▁Ndoje	-11826
▁Aymara	-11827
▁ombyai	-11828
________	-11829
▁diversos	-11830
▁ovendesi	-11831
▁empezaron	-11832
rú	-11833
ted	-11834
érro	-11835
▁Imp	-11836
▁cár	-11837
▁fotos	-11838
▁Suntur	-11839
▁calles	-11840
▁jaikove	-11841
▁kasqayki	-11842
▁versíkulo	-11843
▁Bas	-11844
▁James	-11845
▁Valle	-11846
▁artes	-11847
▁tienda	-11848
▁lecciones	-11849
▁Paraguaýpe	-11850
▁kasqankumanta	-11851
▁ms	-11852
énez	-11853
▁inse	-11854
▁norm	-11855
▁ipochy	-11856
▁declaró	-11857
▁ayudarán	-11858
▁describe	-11859
nica	-11860
▁merece	-11861
clopedia	-11862
▁ataques	-11863
▁nañande	-11864
▁parecía	-11865
▁determinar	-11866
▁yachanchik	-11867
▁sap	-11868
▁chon	-11869
▁káso	-11870
▁repe	-11871
inlish	-11872
▁añepyrũ	-11873
▁iniciativa	-11874
▁Ron	-11875
▁pod	-11876
▁pehẽ	-11877
▁potĩ	-11878
kunapipas	-11879
▁correcta	-11880
kunanmanta	-11881
▁candidato	-11882
▁kallpanchan	-11883
▁AP	-11884
▁26:	-11885
▁Vyre	-11886
▁Pérez	-11887
▁bande	-11888
▁despe	-11889
▁perju	-11890
▁viúda	-11891
▁impuls	-11892
▁Debemos	-11893
▁parientes	-11894
▁asignación	-11895
▁convencido	-11896
▁preferencias	-11897
CE	-11898
VO	-11899
ẽn	-11900
▁iyo	-11901
ankum	-11902
▁Jach	-11903
▁contó	-11904
▁descon	-11905
▁defensa	-11906
▁iporãve	-11907
▁Crónicas	-11908
tove	-11909
▁Rev	-11910
memor	-11911
moneĩri	-11912
▁Qhapaq	-11913
▁informó	-11914
▁documentos	-11915
▁entiendena	-11916
:​1-	-11917
▁ave	-11918
▁18:1	-11919
▁comb	-11920
▁piel	-11921
▁Sober	-11922
▁tipos	-11923
▁arigua	-11924
▁genera	-11925
eguasúva	-11926
▁emocion	-11927
▁impedir	-11928
▁sentirse	-11929
▁generales	-11930
▁Eclesiastés	-11931
.\	-11932
Ore	-11933
vaju	-11934
▁pelo	-11935
▁alimen	-11936
▁taytan	-11937
▁escribi	-11938
▁ñañemoĩ	-11939
▁Munisipy	-11940
▁vakapipopo	-11941
UI	-11942
▁SI	-11943
TADA	-11944
copa	-11945
▁Cir	-11946
ameri	-11947
casca	-11948
misnin	-11949
▁Isabel	-11950
▁inmora	-11951
▁pawqar	-11952
▁multitud	-11953
mit	-11954
ũme	-11955
vich	-11956
▁Iro	-11957
cháma	-11958
ciano	-11959
illas	-11960
▁Tran	-11961
qaniku	-11962
▁Wiñay	-11963
▁añade	-11964
▁sépti	-11965
▁kutipim	-11966
▁kantaray	-11967
ly	-11968
▁már	-11969
▁Belén	-11970
▁onana	-11971
▁opoko	-11972
▁ytoca	-11973
▁istória	-11974
▁ñemoñare	-11975
▁paraguaya	-11976
▁yupaychan	-11977
▁Sé	-11978
etépe	-11979
▁Efraín	-11980
▁opción	-11981
▁etiqueta	-11982
▁hacernos	-11983
▁yos	-11984
tible	-11985
▁Anta	-11986
▁yama	-11987
bierto	-11988
▁acaba	-11989
▁ukaxa	-11990
▁Canadá	-11991
capítulo	-11992
▁departa	-11993
▁advirtió	-11994
▁encontrará	-11995
Up	-11996
hir	-11997
hos	-11998
ãvo	-11999
▁ayo	-12000
▁sano	-12001
▁Qawasun	-12002
▁Evangelio	-12003
tralizacion	-12004
▁Colosenses	-12005
▁rastreadores	-12006
▁ais	-12007
MANTA	-12008
▁Inka	-12009
▁cana	-12010
▁Berna	-12011
míntena	-12012
▁oinxon	-12013
▁asesina	-12014
▁transfor	-12015
▁Munisipyu	-12016
▁ojegueraha	-12017
añ	-12018
cío	-12019
pone	-12020
▁Teo	-12021
▁vea	-12022
▁ninmi	-12023
▁Cantón	-12024
▁cuidad	-12025
▁termina	-12026
▁peligros	-12027
▁Antikunapi	-12028
▁satisfacer	-12029
▁pik	-12030
▁3:1-	-12031
▁daba	-12032
▁mirar	-12033
▁alegra	-12034
▁griégo	-12035
▁Apohare	-12036
▁Betélpe	-12037
▁Gabriel	-12038
▁Jonatán	-12039
▁oisãmbyh	-12040
hýi	-12041
rape	-12042
▁hual	-12043
terios	-12044
▁cruel	-12045
▁presu	-12046
▁dibujos	-12047
▁michĩmi	-12048
▁yachayniyoq	-12049
▁isiervokuérape	-12050
̱n	-12051
enden	-12052
undir	-12053
▁hice	-12054
▁míni	-12055
▁ohej	-12056
biribi	-12057
▁armas	-12058
▁axcan	-12059
tración	-12060
▁risirwa	-12061
▁asambléa	-12062
▁hukmanyasqa	-12063
▁verdaderamente	-12064
▁tí	-12065
comp	-12066
lión	-12067
dense	-12068
▁Nirqa	-12069
▁aumen	-12070
▁vuelve	-12071
▁médicos	-12072
▁oparupi	-12073
▁kasqanraykum	-12074
Lev	-12075
▁obd	-12076
▁riqs	-12077
▁omohu	-12078
▁conocía	-12079
▁cumplió	-12080
▁periódi	-12081
▁tratando	-12082
▁reflexionar	-12083
qipa	-12084
zaba	-12085
nidad	-12086
▁suntur	-12087
▁sincera	-12088
▁estructura	-12089
▁munayninta	-12090
itó	-12091
drán	-12092
▁34:	-12093
quito	-12094
▁renq	-12095
▁tren	-12096
▁Buscar	-12097
▁Magistra	-12098
▁avanzada	-12099
▁edificio	-12100
▁enfermos	-12101
▁permitido	-12102
▁comparación	-12103
▁ojapoháicha	-12104
OL	-12105
GUA	-12106
gnos	-12107
quite	-12108
▁máva	-12109
tentes	-12110
▁Willa	-12111
▁diver	-12112
▁omaña	-12113
▁alumnos	-12114
▁tantear	-12115
▁comienzo	-12116
▁kristiano	-12117
ory	-12118
vré	-12119
▁Pé	-12120
▁2001	-12121
▁jalee	-12122
▁Region	-12123
▁distra	-12124
▁oguata	-12125
▁gotyove	-12126
cura	-12127
▁ibo	-12128
demia	-12129
gínese	-12130
inchik	-12131
▁limpia	-12132
▁ojokua	-12133
▁ninkata	-12134
tũ	-12135
ínci	-12136
▁Hua	-12137
kamam	-12138
▁jark	-12139
▁mapo	-12140
▁reme	-12141
▁París	-12142
▁scasca	-12143
▁hagamos	-12144
▁juventud	-12145
FA	-12146
▁ñeh	-12147
araka	-12148
fican	-12149
overn	-12150
▁mejo	-12151
▁Ndaha	-12152
▁mandu	-12153
▁saran	-12154
▁unión	-12155
▁Davídpe	-12156
▁Diputado	-12157
▁judicial	-12158
▁Vo	-12159
▁103	-12160
▁aus	-12161
▁kuñ	-12162
tinin	-12163
▁déci	-12164
▁meni	-12165
▁yawar	-12166
▁segúro	-12167
▁hablado	-12168
▁tarjeta	-12169
▁Eliminar	-12170
erte	-12171
▁Sir	-12172
ficie	-12173
▁wets	-12174
▁metro	-12175
▁salvo	-12176
▁prensa	-12177
▁sonido	-12178
▁hiciera	-12179
▁Vyretáña	-12180
▁costumbres	-12181
wn	-12182
̱di	-12183
ella	-12184
inan	-12185
mita	-12186
▁BBC	-12187
▁fan	-12188
erato	-12189
▁kapuq	-12190
▁perci	-12191
iciones	-12192
▁vuelto	-12193
▁conserva	-12194
▁disípulo	-12195
kuá	-12196
yol	-12197
ẽrã	-12198
ilar	-12199
▁Moa	-12200
▁1990	-12201
▁tesor	-12202
▁osalva	-12203
▁Satanas	-12204
▁sembrar	-12205
▁respetan	-12206
▁willakurqa	-12207
».	-12208
axa	-12209
mber	-12210
▁Jar	-12211
▁Aque	-12212
▁Jara	-12213
antial	-12214
▁devol	-12215
▁qullq	-12216
taremos	-12217
▁atender	-12218
▁pedirle	-12219
▁reinado	-12220
▁warmiqa	-12221
▁akllasqa	-12222
▁indefini	-12223
eichaguápa	-12224
▁Recordemos	-12225
páta	-12226
garse	-12227
▁arreg	-12228
▁examin	-12229
▁instru	-12230
▁PORTADA	-12231
▁aymuray	-12232
▁liverta	-12233
▁apropiado	-12234
▁ojapóvare	-12235
▁jú	-12236
evei	-12237
kupa	-12238
▁Asa	-12239
▁tic	-12240
zaremos	-12241
▁qallta	-12242
▁supues	-12243
▁válido	-12244
code	-12245
huas	-12246
▁ipl	-12247
tlaca	-12248
▁13:3	-12249
▁Venez	-12250
▁arýpe	-12251
▁organ	-12252
ÚS	-12253
més	-12254
pki	-12255
▁SA	-12256
:​1,	-12257
▁mai	-12258
▁yom	-12259
▁Pana	-12260
▁Cuauh	-12261
▁otopa	-12262
hintina	-12263
kastiga	-12264
▁observar	-12265
▁profundi	-12266
▁rebelión	-12267
▁Seleccion	-12268
yvy	-12269
▁cé	-12270
aguy	-12271
quer	-12272
▁Puru	-12273
▁hich	-12274
▁veía	-12275
anpaqmi	-12276
uspanmi	-12277
ávapepa	-12278
▁generos	-12279
▁tercera	-12280
teriormente	-12281
▁aprovechar	-12282
Peẽ	-12283
móva	-12284
▁azo	-12285
▁taq	-12286
▁īhuān	-12287
irinaka	-12288
▁rostro	-12289
▁ipyahúva	-12290
▁industria	-12291
▁ipuévlope	-12292
▁rembiapokue	-12293
▁multiplicado	-12294
▁nove	-12295
Ikatúpa	-12296
▁introdu	-12297
▁kanqaku	-12298
imaynatam	-12299
▁desarroll	-12300
▁oñemohenda	-12301
hái	-12302
▁Il	-12303
deso	-12304
▁Plur	-12305
kóramo	-12306
winaka	-12307
▁instr	-12308
▁allinpaq	-12309
▁ministra	-12310
▁trabajan	-12311
▁victoria	-12312
▁Buliwyapi	-12313
▁Satanaspa	-12314
míli	-12315
▁JNE	-12316
ñaína	-12317
▁faci	-12318
ovéima	-12319
▁Nabot	-12320
▁argen	-12321
▁famos	-12322
▁aruski	-12323
▁maroni	-12324
▁apopyre	-12325
kunatawan	-12326
▁kusisqam	-12327
▁llevaron	-12328
’̱	-12329
wal	-12330
allpan	-12331
▁inver	-12332
▁Hyãsia	-12333
▁dedica	-12334
chinapaq	-12335
▁comenta	-12336
▁risqanman	-12337
▁techaukaha	-12338
▁relacionados	-12339
52	-12340
lear	-12341
▁PRO	-12342
▁ápe	-12343
liana	-12344
▁afli	-12345
▁Nadie	-12346
▁Voice	-12347
▁chall	-12348
aprovecha	-12349
yguakuéra	-12350
▁cuentata	-12351
▁Ejemplopaq	-12352
▁TI	-12353
Estás	-12354
uspay	-12355
▁Jasy	-12356
▁eiro	-12357
guinte	-12358
torial	-12359
▁Mendo	-12360
▁Sebas	-12361
▁letra	-12362
▁sasaw	-12363
▁puesta	-12364
▁itiémpo	-12365
▁recurso	-12366
▁saywitu	-12367
▁reqsisqa	-12368
▁fortalece	-12369
▁oimeraẽva	-12370
ayan	-12371
cino	-12372
ulli	-12373
▁riku	-12374
▁toro	-12375
▁civil	-12376
▁valen	-12377
▁doktór	-12378
▁millon	-12379
▁ndoiko	-12380
▁crédito	-12381
▁llakisqa	-12382
▁diferénte	-12383
▁yanapachi	-12384
▁wañukusqan	-12385
▁romo	-12386
ientos	-12387
▁guyra	-12388
▁paisano	-12389
▁hablamos	-12390
lustraciones	-12391
▁hapichakuérape	-12392
ōn	-12393
Man	-12394
ote	-12395
▁Dan	-12396
▁alu	-12397
▁hñä	-12398
▁oti	-12399
abora	-12400
▁vidan	-12401
▁paykuna	-12402
gt	-12403
▁),	-12404
egos	-12405
▁incha	-12406
asiónpe	-12407
▁acabar	-12408
▁nirqam	-12409
▁jahayhuha	-12410
▁prekursorádo	-12411
▁reconocimiento	-12412
▁oto	-12413
pilla	-12414
▁Reci	-12415
pallan	-12416
▁Apren	-12417
▁Judea	-12418
Quiénes	-12419
▁Soberano	-12420
▁podremos	-12421
▁vosotros	-12422
▁instalación	-12423
kim	-12424
hcui	-12425
mawe	-12426
riendo	-12427
▁borra	-12428
▁Jesucr	-12429
▁dirige	-12430
▁Michael	-12431
▁deberían	-12432
▁marangatu	-12433
▁garantizar	-12434
66	-12435
hudi	-12436
▁veamos	-12437
▁Emboguejy	-12438
▁superficie	-12439
dú	-12440
pē	-12441
▁Exa	-12442
▁Movi	-12443
taramo	-12444
▁Comun	-12445
▁Epensa	-12446
▁atipanke	-12447
▁jepysokue	-12448
▁yuritayna	-12449
pópe	-12450
ãjey	-12451
▁Iñi	-12452
aséva	-12453
ónimo	-12454
▁jaka	-12455
ptinku	-12456
chikwan	-12457
▁Pregun	-12458
▁oporomo	-12459
▁markachir	-12460
▁runakunawan	-12461
betan	-12462
▁estr	-12463
▁Common	-12464
▁Agustín	-12465
▁Ruvicha	-12466
▁discípulo	-12467
▁razonable	-12468
hap	-12469
tría	-12470
▁apy	-12471
▁dul	-12472
▁nere	-12473
▁honrar	-12474
▁Roberto	-12475
Éx	-12476
ñón	-12477
rupa	-12478
landa	-12479
vecho	-12480
▁Blan	-12481
▁frag	-12482
▁oina	-12483
▁obstá	-12484
▁GUARAN	-12485
▁vaígui	-12486
▁kananku	-12487
̱i	-12488
4-2	-12489
yet	-12490
ocrá	-12491
▁flo	-12492
▁jurí	-12493
▁Sichu	-12494
▁apnaq	-12495
▁coman	-12496
▁contam	-12497
▁ikangy	-12498
▁millón	-12499
▁warmin	-12500
▁actualización	-12501
▁(8	-12502
Está	-12503
ispan	-12504
▁Kupa	-12505
▁simb	-12506
▁amado	-12507
▁jejopy	-12508
▁tribus	-12509
▁Miqueas	-12510
kunawanmi	-12511
▁pudieran	-12512
▁ñanderesarái	-12513
!"	-12514
TAN	-12515
orra	-12516
▁Cur	-12517
Estoy	-12518
▁sexo	-12519
▁apenas	-12520
▁desean	-12521
▁oikoha	-12522
▁pasaje	-12523
▁Londres	-12524
▁impuestos	-12525
▁jehaipyre	-12526
▁computadora	-12527
.-	-12528
PY	-12529
vué	-12530
lera	-12531
▁abe	-12532
gakuaa	-12533
▁Brook	-12534
▁incre	-12535
Imaynam	-12536
▁willan	-12537
▁cientos	-12538
▁kuñataĩ	-12539
▁sentado	-12540
▁oficiales	-12541
▁corrupción	-12542
pire	-12543
suyu	-12544
▁Káda	-12545
Cuáles	-12546
edades	-12547
▁ipyahu	-12548
▁Og̃uahẽ	-12549
▁ojeguero	-12550
▁profesional	-12551
̱ut	-12552
pare	-12553
▁ijo	-12554
▁12:3	-12555
▁27).	-12556
▁Inde	-12557
▁oipo	-12558
▁salu	-12559
▁santu	-12560
▁abuelo	-12561
▁Libertad	-12562
▁corregir	-12563
▁Chaynapim	-12564
▁impresion	-12565
▁necesarios	-12566
wsa	-12567
▁Allpa	-12568
▁Joseph	-12569
▁destino	-12570
▁oñemopu	-12571
JE	-12572
ãs	-12573
eas	-12574
leta	-12575
marq	-12576
ander	-12577
▁Prof	-12578
▁saya	-12579
▁glori	-12580
▁jesus	-12581
▁Carmen	-12582
▁soportar	-12583
▁Mexicanos	-12584
▁beneficio	-12585
▁izquierda	-12586
qt	-12587
▁Emi	-12588
▁Eri	-12589
ókuri	-12590
ýrape	-12591
▁mboy	-12592
▁ág̃a	-12593
lumbya	-12594
trales	-12595
▁ambuéva	-12596
▁interesante	-12597
mós	-12598
mpix	-12599
▁acá	-12600
▁Térã	-12601
▁enco	-12602
istema	-12603
▁Chuya	-12604
qanchikta	-12605
▁Desarrollo	-12606
▁Joel	-12607
▁infl	-12608
▁Jefté	-12609
uximaya	-12610
▁cantar	-12611
▁serpiente	-12612
▁considerar	-12613
bén	-12614
héi	-12615
uis	-12616
cilia	-12617
▁2019	-12618
romíso	-12619
▁pusaq	-12620
▁acostu	-12621
▁defini	-12622
teratura	-12623
▁ayriway	-12624
▁semillas	-12625
▁jaagradese	-12626
law	-12627
▁Fre	-12628
▁Hos	-12629
▁apoy	-12630
▁legal	-12631
▁vaikue	-12632
ligencia	-12633
▁décadas	-12634
▁tukupay	-12635
▁permiten	-12636
▁experiencias	-12637
27	-12638
tum	-12639
▁Ak	-12640
▁nir	-12641
ívape	-12642
▁fras	-12643
-2010:	-12644
▁Tiene	-12645
▁catca	-12646
▁griega	-12647
▁japyhy	-12648
▁recién	-12649
▁Ikatúpa	-12650
▁alcohol	-12651
▁murieron	-12652
▁ndoipotái	-12653
▁permitirá	-12654
▁tendremos	-12655
▁sugerencias	-12656
nm	-12657
GUN	-12658
uitl	-12659
citos	-12660
óicha	-12661
▁Sina	-12662
▁Angel	-12663
▁sepul	-12664
▁federa	-12665
▁Colegio	-12666
▁presiden	-12667
▁Wakinpiqa	-12668
▁ndovaleiha	-12669
ctas	-12670
leno	-12671
▁DIS	-12672
▁niyta	-12673
▁Congre	-12674
▁Omombe	-12675
▁dormir	-12676
▁héravape	-12677
▁presentación	-12678
68	-12679
▁rup	-12680
▁keyo	-12681
▁opre	-12682
▁sata	-12683
▁blanca	-12684
▁markam	-12685
▁ciertos	-12686
▁colabor	-12687
▁comerci	-12688
▁distancia	-12689
▁espiritualidad	-12690
uki	-12691
ull	-12692
mare	-12693
äwix	-12694
▁Dec	-12695
▁Jai	-12696
uelos	-12697
íramo	-12698
▁hall	-12699
erodes	-12700
Quieres	-12701
▁Kuatia	-12702
▁Familia	-12703
▁anunció	-12704
▁entidad	-12705
▁manañam	-12706
▁valioso	-12707
▁etiquetas	-12708
▁historial	-12709
▁correctamente	-12710
▁Alfre	-12711
▁Eheka	-12712
▁jacha	-12713
▁cadena	-12714
▁kuaapy	-12715
▁Russell	-12716
▁castigo	-12717
▁refugio	-12718
▁sufrido	-12719
wananchik	-12720
▁jesussen	-12721
▁sonqolla	-12722
tificación	-12723
ZA	-12724
anmi	-12725
mpar	-12726
▁mése	-12727
▁Josey	-12728
▁ojoaj	-12729
▁jikxata	-12730
▁ikatupyry	-12731
▁ukjamaraki	-12732
54	-12733
▁Pr	-12734
cpac	-12735
▁21,	-12736
▁Def	-12737
jarse	-12738
▁figu	-12739
▁ngaJ	-12740
▁3:16).	-12741
▁rimana	-12742
▁Rréinore	-12743
▁oñemboja	-12744
kunamantaqa	-12745
pra	-12746
taka	-12747
▁opy	-12748
cteri	-12749
▁Vera	-12750
▁león	-12751
▁víno	-12752
▁Lingũ	-12753
estival	-12754
▁Piense	-12755
▁kunatix	-12756
▁llegada	-12757
▁romanos	-12758
29	-12759
▁etc	-12760
▁sumo	-12761
▁JESÚS	-12762
▁ejapo	-12763
▁cuesta	-12764
▁umalli	-12765
▁imagina	-12766
▁wakinpiqa	-12767
▁Estudiantes	-12768
▁ndaikatuiha	-12769
69	-12770
pavẽ	-12771
wara	-12772
▁mic	-12773
▁crees	-12774
▁ikana	-12775
▁kampa	-12776
▁opaga	-12777
▁tequi	-12778
▁inicuo	-12779
▁ojeiko	-12780
▁entrena	-12781
EKU	-12782
Hab	-12783
▁ty	-12784
-198	-12785
JÁRA	-12786
tiki	-12787
▁pag	-12788
jeita	-12789
▁22:1	-12790
▁ayer	-12791
▁siga	-12792
allero	-12793
▁Comen	-12794
▁hatari	-12795
▁concien	-12796
▁haimete	-12797
▁rurasqa	-12798
▁aplicaciones	-12799
▁preocupación	-12800
▁Jaikuaaháicha	-12801
▁Am	-12802
▁it	-12803
fika	-12804
▁Aus	-12805
▁dije	-12806
▁Santos	-12807
▁década	-12808
▁ninguno	-12809
▁conocida	-12810
▁vinieron	-12811
▁ojejapova	-12812
▁compositor	-12813
lvan	-12814
uali	-12815
▁133	-12816
▁pha	-12817
▁Oime	-12818
▁Simón	-12819
▁atina	-12820
▁Ispaña	-12821
▁añadió	-12822
▁kusiri	-12823
▁ogusta	-12824
▁payman	-12825
▁Absalón	-12826
▁capaces	-12827
▁contestó	-12828
▁destruir	-12829
▁temporal	-12830
▁bautizado	-12831
ctá	-12832
jen	-12833
▁aki	-12834
▁fri	-12835
desid	-12836
cienda	-12837
▁Chuqi	-12838
▁Libro	-12839
▁cárcel	-12840
▁jatopa	-12841
ministrar	-12842
▁permanente	-12843
▁situasiónpe	-12844
▁ñembohekopyahu	-12845
ony	-12846
▁atir	-12847
▁mura	-12848
▁audio	-12849
▁díape	-12850
imanasqa	-12851
▁Maestro	-12852
▁portugu	-12853
▁Fundación	-12854
▁religiosa	-12855
▁munasqanta	-12856
='	-12857
Ch	-12858
%2$	-12859
▁tea	-12860
místa	-12861
llachu	-12862
▁ogana	-12863
▁kaqnin	-12864
▁kuñanguéra	-12865
▁tapykuehoha	-12866
Opa	-12867
uya	-12868
chado	-12869
croso	-12870
▁oren	-12871
▁suele	-12872
▁jaipuru	-12873
▁estudiaq	-12874
▁impresión	-12875
▁contribuir	-12876
▁munaychakusqan	-12877
ers	-12878
▁(5.	-12879
▁kene	-12880
▁tuve	-12881
tarori	-12882
▁depor	-12883
▁sigan	-12884
qanmanta	-12885
▁Mendoza	-12886
▁ayamarq	-12887
▁aprendió	-12888
▁ogueropu	-12889
▁necesarias	-12890
▁mohendahavusu	-12891
HU	-12892
mic	-12893
bara	-12894
pina	-12895
rían	-12896
élix	-12897
▁Gas	-12898
semos	-12899
▁sirku	-12900
▁Augusto	-12901
▁ñahendu	-12902
▁oguerovi	-12903
▁ojehupyty	-12904
▁organismo	-12905
gíta	-12906
▁chun	-12907
chinqa	-12908
▁tunka	-12909
▁previs	-12910
▁runata	-12911
▁conocen	-12912
▁PAGINAPI	-12913
qh	-12914
plin	-12915
únka	-12916
▁400	-12917
▁hur	-12918
monte	-12919
▁28).	-12920
Mávapa	-12921
▁Hebreas	-12922
▁incorre	-12923
▁recorda	-12924
kusqankumanta	-12925
ÉN	-12926
xan	-12927
̱eni	-12928
▁nov	-12929
mongu	-12930
▁2006	-12931
▁Caín	-12932
▁msnm	-12933
▁Ester	-12934
▁sensa	-12935
▁ingles	-12936
!”	-12937
emo	-12938
▁Ah	-12939
osofía	-12940
▁Cerro	-12941
crosoft	-12942
▁corona	-12943
▁ESTUDIO	-12944
▁Mēxihco	-12945
▁Párrafo	-12946
▁integra	-12947
▁malvado	-12948
▁tantean	-12949
▁tecpatl	-12950
▁xobonko	-12951
▁kompromíso	-12952
▁21.	-12953
▁Joa	-12954
▁boda	-12955
▁Peter	-12956
▁jerére	-12957
▁juzgar	-12958
▁definiti	-12959
▁campesino	-12960
▁2007-2010:	-12961
colo	-12962
hiri	-12963
▁aba	-12964
▁muyu	-12965
▁sale	-12966
kuádro	-12967
▁oikéva	-12968
▁traducir	-12969
▁llaqtanta	-12970
▁instrucción	-12971
Sa	-12972
ìx	-12973
pái	-12974
▁baj	-12975
darse	-12976
érupi	-12977
▁Krus	-12978
▁Raúl	-12979
▁moti	-12980
mienda	-12981
▁prior	-12982
▁Ariqipa	-12983
▁Claudio	-12984
▁Mexihco	-12985
▁salmísta	-12986
▁Testamento	-12987
----------------	-12988
epu	-12989
iku	-12990
▁MA	-12991
TROS	-12992
vora	-12993
▁Lot	-12994
▁Noe	-12995
▁bebé	-12996
▁cama	-12997
▁keska	-12998
▁watap	-12999
▁apósta	-13000
▁wishawe	-13001
▁construy	-13002
▁jawékibo	-13003
▁oiporúva	-13004
▁ojesareko	-13005
▁kuyakuywan	-13006
97	-13007
lfo	-13008
mía	-13009
pat	-13010
aséi	-13011
▁Hes	-13012
pitaq	-13013
▁35).	-13014
▁Qill	-13015
▁cance	-13016
talidad	-13017
kuéragui	-13018
▁pudieron	-13019
▁víctimas	-13020
▁Administra	-13021
▁Inglaterra	-13022
▁tetãnguéra	-13023
▁75	-13024
aqmi	-13025
asco	-13026
pppp	-13027
chiyō	-13028
iores	-13029
▁Ojehe	-13030
▁ejati	-13031
▁polvo	-13032
▁verde	-13033
▁depende	-13034
tenimiento	-13035
▁Ehechauka	-13036
▁descubrir	-13037
TOS	-13038
cerá	-13039
mbýpe	-13040
tugal	-13041
▁musi	-13042
mérica	-13043
▁dejan	-13044
▁secun	-13045
▁adultos	-13046
▁presentar	-13047
lqa	-13048
uco	-13049
voty	-13050
▁rao	-13051
rueba	-13052
▁20:1	-13053
dental	-13054
▁ojupi	-13055
▁pesos	-13056
▁porta	-13057
▁[...],	-13058
▁reinos	-13059
▁sosten	-13060
▁Griegas	-13061
kusqanchik	-13062
▁Plurinacional	-13063
IÓN	-13064
kate	-13065
▁Teno	-13066
▁illa	-13067
▁kuyu	-13068
kãrapu	-13069
tistas	-13070
▁forman	-13071
▁ostudi	-13072
▁ruwayta	-13073
▁producir	-13074
Eclesiastés	-13075
▁consideran	-13076
upy	-13077
ayax	-13078
▁11:3	-13079
▁Aran	-13080
▁Kuna	-13081
harépe	-13082
▁provi	-13083
▁símbo	-13084
ankupaqmi	-13085
▁Alejandro	-13086
▁tarikurqa	-13087
▁competencia	-13088
▁universidad	-13089
></	-13090
Uste	-13091
hávo	-13092
chard	-13093
qaypi	-13094
▁Nocon	-13095
▁capitu	-13096
▁entera	-13097
▁hallar	-13098
▁oikóvo	-13099
▁asegurar	-13100
83	-13101
tilo	-13102
▁Ray	-13103
▁fav	-13104
marus	-13105
fornia	-13106
▁opres	-13107
▁riqsi	-13108
▁elimin	-13109
▁oĩtaha	-13110
▁ribojo	-13111
▁pensaba	-13112
▁tiyanku	-13113
▁aranduka	-13114
▁bienestar	-13115
▁transporte	-13116
▁mbeguekatúpe	-13117
kero	-13118
mias	-13119
ẽtaha	-13120
▁primo	-13121
▁patrón	-13122
▁porãpa	-13123
▁reglas	-13124
▁punchawmi	-13125
marca	-13126
▁avis	-13127
▁báque	-13128
▁cenca	-13129
▁Mávapa	-13130
▁captura	-13131
▁Finalmente	-13132
▁ŕe	-13133
kávo	-13134
qhip	-13135
qiri	-13136
syap	-13137
▁Kasha	-13138
▁recur	-13139
▁Anqash	-13140
▁morotĩ	-13141
▁munaspaqa	-13142
,"	-13143
Heta	-13144
bran	-13145
▁darles	-13146
▁sufrió	-13147
▁mencionó	-13148
▁ojeroviáva	-13149
rai	-13150
▁Isla	-13151
▁pata	-13152
▁invis	-13153
▁ógape	-13154
▁kallpa	-13155
▁sobres	-13156
▁aseguró	-13157
▁ojevale	-13158
▁muchacho	-13159
▁capítulos	-13160
▁hembiguai	-13161
▁preparado	-13162
▁yaqapaschá	-13163
▁preocupaciones	-13164
gón	-13165
kaki	-13166
▁quí	-13167
kaspa	-13168
▁Desa	-13169
▁okara	-13170
chtitlan	-13171
guerujey	-13172
▁profeti	-13173
▁siembra	-13174
▁Colombia	-13175
▁comienza	-13176
▁kárselpe	-13177
▁abandonar	-13178
▁cincuenta	-13179
ota	-13180
gnor	-13181
liar	-13182
piro	-13183
tter	-13184
apyha	-13185
calli	-13186
vehápe	-13187
▁haría	-13188
▁nzaya	-13189
▁rembe	-13190
▁Llaqta	-13191
▁apnaqa	-13192
▁hesakã	-13193
▁ukanakax	-13194
▁jupanakax	-13195
▁yvypórape	-13196
▁representante	-13197
irã	-13198
▁Ve	-13199
▁Hal	-13200
▁jara	-13201
▁jura	-13202
▁pensó	-13203
▁ñawpa	-13204
▁tantas	-13205
▁vienen	-13206
▁Policía	-13207
▁aranway	-13208
▁mantuvo	-13209
tlahtōlli	-13210
▁pruwinsyap	-13211
õi	-13212
Nóta	-13213
cala	-13214
jevy	-13215
▁8:3	-13216
▁Urq	-13217
▁qus	-13218
▁cura	-13219
▁sabios	-13220
▁Aswanqa	-13221
▁Oñepyrũ	-13222
▁deberán	-13223
▁pitapas	-13224
▁oikótava	-13225
ehao	-13226
▁Obs	-13227
▁Sea	-13228
▁iku	-13229
▁jor	-13230
▁oye	-13231
▁rumi	-13232
▁oñemba	-13233
▁parecen	-13234
ertamente	-13235
kuyninchik	-13236
▁traducciones	-13237
lte	-13238
wis	-13239
ẽry	-13240
mann	-13241
▁qor	-13242
▁Félix	-13243
▁transmi	-13244
▁ñanemba	-13245
▁paciente	-13246
▁desgracia	-13247
kusqanchikta	-13248
▁diferencias	-13249
▁voluntarios	-13250
jal	-13251
ore	-13252
ACHA	-13253
▁1).	-13254
▁Pya	-13255
quien	-13256
▁tita	-13257
gieron	-13258
tánico	-13259
▁Manamá	-13260
▁brazos	-13261
▁quinientos	-13262
▁ojokuaikuaáva	-13263
:“	-13264
aa	-13265
."-	-13266
muni	-13267
ñuna	-13268
▁eva	-13269
▁puro	-13270
▁qhan	-13271
▁debió	-13272
qankuta	-13273
▁sufren	-13274
▁teoría	-13275
▁ukjama	-13276
▁comprome	-13277
▁inespera	-13278
▁kristiánope	-13279
lato	-13280
quiz	-13281
uili	-13282
ísta	-13283
īlli	-13284
▁Asá	-13285
▁odia	-13286
▁Abrir	-13287
▁masnin	-13288
▁ñemurã	-13289
▁originario	-13290
▁proporciona	-13291
▁tembiapoite	-13292
fari	-13293
idas	-13294
ético	-13295
▁argu	-13296
▁audi	-13297
▁impu	-13298
anakaw	-13299
lvania	-13300
▁Archi	-13301
▁ojeha	-13302
▁rodea	-13303
▁fuimos	-13304
▁huerta	-13305
▁suelen	-13306
tlanahua	-13307
▁Democrá	-13308
▁rurayta	-13309
▁aipytyvõ	-13310
▁proclama	-13311
▁ayudarlos	-13312
▁kilómetro	-13313
▁yanapakuy	-13314
▁rurananchik	-13315
bri	-13316
xta	-13317
yap	-13318
▁anhe	-13319
▁escen	-13320
ándonos	-13321
▁irundy	-13322
▁negocio	-13323
▁ijehénte	-13324
▁preguntan	-13325
▁compromiso	-13326
▁jahupytýta	-13327
huit	-13328
▁Ala	-13329
▁Geo	-13330
▁VII	-13331
▁oke	-13332
vados	-13333
▁frío	-13334
▁ladr	-13335
▁Lázaro	-13336
▁abuela	-13337
▁paywan	-13338
kunapiqa	-13339
▁Salomon	-13340
▁moambue	-13341
▁ovisita	-13342
▁órganos	-13343
▁opciones	-13344
▁funcionario	-13345
▁personalmente	-13346
JO	-13347
au	-13348
▁Mc	-13349
▁Cui	-13350
▁Urin	-13351
▁nace	-13352
▁shima	-13353
glesias	-13354
▁ARTÍCU	-13355
▁consulte	-13356
▁nacionales	-13357
▁BÍ	-13358
cola	-13359
▁vín	-13360
plika	-13361
▁jisa	-13362
▁kara	-13363
▁tuta	-13364
hárupi	-13365
yninta	-13366
▁wayra	-13367
▁añembo	-13368
▁objetos	-13369
▁Regional	-13370
▁ukampirus	-13371
▁ñangarekoha	-13372
iran	-13373
meran	-13374
▁Itai	-13375
▁auxi	-13376
▁qonq	-13377
▁arras	-13378
▁ipotĩ	-13379
▁sentí	-13380
poderoso	-13381
▁Jainxon	-13382
▁folleto	-13383
▁jaqinaka	-13384
▁actualmente	-13385
PAQ	-13386
hil	-13387
ung	-13388
▁Kristu	-13389
▁colores	-13390
▁oikuaase	-13391
▁orresivi	-13392
▁religiosas	-13393
ÉRE	-13394
bicho	-13395
▁acor	-13396
▁dicta	-13397
▁pekao	-13398
▁rombo	-13399
▁tupan	-13400
▁vende	-13401
▁alabar	-13402
itereiha	-13403
▁Richard	-13404
▁caminar	-13405
▁bibliapa	-13406
HE	-13407
▁occe	-13408
▁orer	-13409
oriahu	-13410
▁abrió	-13411
▁ipoch	-13412
ísticos	-13413
▁fútbol	-13414
▁hermosa	-13415
▁iñañáva	-13416
▁lágrimas	-13417
▁RU	-13418
▁Sy	-13419
:2).	-13420
ända	-13421
kirir	-13422
▁ámbito	-13423
▁terremo	-13424
▁kantunmi	-13425
▁predeter	-13426
▁ojetradusi	-13427
▁yá	-13428
abet	-13429
joapy	-13430
éctri	-13431
▁Acab	-13432
▁Rahab	-13433
▁calor	-13434
▁prohib	-13435
▁yomera	-13436
▁Municipal	-13437
▁esforzarnos	-13438
eso	-13439
lie	-13440
▁NA	-13441
rimi	-13442
▁(194	-13443
▁Asta	-13444
▁bási	-13445
▁Socie	-13446
▁ohayh	-13447
▁plaza	-13448
▁yvytu	-13449
▁convir	-13450
▁factores	-13451
▁rembipuru	-13452
▁oli	-13453
kitsa	-13454
▁seme	-13455
▁tenta	-13456
▁involu	-13457
kuymanta	-13458
▁Ministro	-13459
▁esperando	-13460
kunamantapas	-13461
▁científicos	-13462
▁jahechaukáta	-13463
lias	-13464
▁tua	-13465
kuqmi	-13466
▁salv	-13467
▁Encon	-13468
▁omoñe	-13469
▁Fuerza	-13470
▁vendrá	-13471
▁Distritu	-13472
▁mantiene	-13473
▁cristianismo	-13474
▁iñimportanteha	-13475
CIA	-13476
ántas	-13477
▁Mary	-13478
undíta	-13479
▁Ernes	-13480
▁acces	-13481
▁incen	-13482
▁mitãme	-13483
▁Kunanqa	-13484
overnánte	-13485
▁oipurúva	-13486
▁dedicación	-13487
chil	-13488
▁Aqu	-13489
▁tsu	-13490
maras	-13491
▁bautizó	-13492
▁llamaba	-13493
▁viviendo	-13494
▁emperador	-13495
▁kasqantam	-13496
▁pacientes	-13497
▁yupaykuna	-13498
ñó	-13499
lará	-13500
▁Run	-13501
▁[1]	-13502
paqchu	-13503
▁ojepe	-13504
▁okañy	-13505
▁iniciar	-13506
▁jatianra	-13507
▁ojuehegui	-13508
▁tarikunku	-13509
▁terminado	-13510
onki	-13511
▁Péva	-13512
taynawa	-13513
▁asocia	-13514
▁irpiri	-13515
▁sabían	-13516
▁tratan	-13517
▁estarán	-13518
▁dedicado	-13519
▁ventanas	-13520
▁comprensión	-13521
Ta	-13522
paqa	-13523
▁hemi	-13524
▁núnka	-13525
▁talen	-13526
▁contemp	-13527
▁Urqunaka	-13528
▁adquirir	-13529
▁informes	-13530
irû	-13531
Éxodo	-13532
kunataq	-13533
kunqaku	-13534
▁jichha	-13535
▁abierta	-13536
▁expresa	-13537
▁técnica	-13538
▁cumplido	-13539
▁infierno	-13540
▁paymanta	-13541
ril	-13542
▁FI	-13543
güen	-13544
sima	-13545
tora	-13546
▁aju	-13547
▁dra	-13548
▁Hayt	-13549
▁agre	-13550
metros	-13551
▁chopa	-13552
▁jamuq	-13553
▁hmända	-13554
▁respeta	-13555
▁autorida	-13556
▁sukursál	-13557
▁iñepyrũme	-13558
91	-13559
bos	-13560
rana	-13561
▁Jich	-13562
▁opeka	-13563
▁deberá	-13564
▁entorno	-13565
▁misionéro	-13566
▁kuyakuynin	-13567
wk	-13568
ets	-13569
paw	-13570
▁Sar	-13571
ditos	-13572
jtoli	-13573
▁1941	-13574
▁jema	-13575
▁trae	-13576
▁Ferre	-13577
▁Google	-13578
▁diaria	-13579
▁figura	-13580
▁oiméva	-13581
▁nirqaku	-13582
▁parrafo	-13583
▁rrelihi	-13584
▁kawsayta	-13585
▁nahániri	-13586
▁Paraguaya	-13587
▁peichagua	-13588
over	-13589
zaban	-13590
▁hmun	-13591
▁imay	-13592
▁juru	-13593
▁toman	-13594
óntrape	-13595
▁Imagen	-13596
▁advier	-13597
llamanta	-13598
▁quedaron	-13599
Bu	-13600
DF	-13601
▁mp	-13602
puku	-13603
umen	-13604
▁Lim	-13605
kuaápa	-13606
▁Chris	-13607
▁Enter	-13608
▁Qucha	-13609
▁yvýpe	-13610
▁Profec	-13611
▁ingeni	-13612
▁ndohecha	-13613
▁Jajapóramo	-13614
▁marcadores	-13615
▁huē	-13616
▁(197	-13617
▁Escu	-13618
▁pese	-13619
▁rres	-13620
▁ruta	-13621
▁Índi	-13622
▁arres	-13623
▁pembo	-13624
▁Sermón	-13625
▁hetápe	-13626
▁tantos	-13627
▁Goberna	-13628
▁finales	-13629
▁inspira	-13630
▁Mariscal	-13631
▁jarekóva	-13632
▁emocional	-13633
▁orepytyvõ	-13634
anoa	-13635
onso	-13636
tidas	-13637
▁Cuen	-13638
▁wana	-13639
▁Rubén	-13640
▁infer	-13641
Genesis	-13642
▁ndojapo	-13643
▁jehechauka	-13644
▁responsables	-13645
ẽma	-13646
cayo	-13647
▁Cue	-13648
diera	-13649
olina	-13650
▁Traba	-13651
▁insis	-13652
▁dichos	-13653
▁Pública	-13654
▁conservar	-13655
▁llaqtaman	-13656
wasqanchikman	-13657
say	-13658
▁ua	-13659
▁Kur	-13660
▁pase	-13661
▁besti	-13662
▁ndoro	-13663
▁ombou	-13664
▁roiko	-13665
▁compra	-13666
▁yatiqa	-13667
▁aumento	-13668
▁sigamos	-13669
Castigación	-13670
▁mandamiento	-13671
UC	-13672
xko	-13673
▁vár	-13674
asura	-13675
▁rapi	-13676
▁axeti	-13677
▁yoiti	-13678
ptikiqa	-13679
▁coinci	-13680
▁Chaypim	-13681
▁perspectiva	-13682
▁kongregasion	-13683
ght	-13684
abor	-13685
huiz	-13686
poli	-13687
▁ine	-13688
áramos	-13689
▁kichi	-13690
▁acepta	-13691
resiones	-13692
▁Bretaña	-13693
▁puertas	-13694
▁apredika	-13695
▁jaskáakin	-13696
▁abundancia	-13697
▁extraordinaria	-13698
▁pí	-13699
erro	-13700
▁5:3	-13701
▁kósa	-13702
unakax	-13703
▁rikuy	-13704
kurqachu	-13705
▁Caballero	-13706
▁entiendes	-13707
▁utilizado	-13708
▁sobrevivir	-13709
KATU	-13710
dice	-13711
kota	-13712
saka	-13713
▁Hág	-13714
▁Itá	-13715
▁Juda	-13716
ciéndo	-13717
▁Había	-13718
▁hable	-13719
▁tocar	-13720
machiyō	-13721
ándoles	-13722
▁Isaias	-13723
▁akanai	-13724
▁canción	-13725
▁markanx	-13726
▁ndehegui	-13727
Ni	-13728
LOS	-13729
dico	-13730
vano	-13731
▁181	-13732
▁4:3	-13733
▁Bea	-13734
kunman	-13735
▁amayá	-13736
▁jonin	-13737
engovia	-13738
▁Premio	-13739
▁ejerce	-13740
int	-13741
▁IP	-13742
▁140	-13743
▁Bon	-13744
▁iwe	-13745
▁jos	-13746
▁peo	-13747
▁Jero	-13748
allina	-13749
▁Georg	-13750
dillera	-13751
▁ocurre	-13752
▁Society	-13753
▁juajuha	-13754
▁ofrecen	-13755
ñepyrũjey	-13756
▁temprano	-13757
▁Venezuela	-13758
hh	-13759
bpe	-13760
inku	-13761
ispi	-13762
kase	-13763
▁Fri	-13764
▁kap	-13765
count	-13766
japos	-13767
▁vyro	-13768
▁Parro	-13769
▁Prote	-13770
▁bolivi	-13771
▁probar	-13772
▁Windows	-13773
kurqaniku	-13774
▁silencio	-13775
▁Tembipuru	-13776
▁excepción	-13777
▁nacionmanta	-13778
▁tembiasakue	-13779
TER	-13780
▁145	-13781
lisya	-13782
▁VIII	-13783
▁arru	-13784
▁latín	-13785
▁ombovy	-13786
▁engañar	-13787
▁recuperar	-13788
EPY	-13789
mbar	-13790
ikita	-13791
▁HTTP	-13792
▁usan	-13793
Cristo	-13794
codeso	-13795
llawan	-13796
▁Costa	-13797
▁Mayor	-13798
▁myakã	-13799
▁mitãku	-13800
▁Cordero	-13801
▁pumbyry	-13802
▁recordó	-13803
▁protesta	-13804
▁estadouni	-13805
▁espirituál	-13806
bl	-13807
tama	-13808
̱tho	-13809
▁Hor	-13810
▁rro	-13811
aroni	-13812
bores	-13813
tismo	-13814
▁aime	-13815
▁añeha	-13816
▁persi	-13817
▁categor	-13818
▁enrique	-13819
▁jaskata	-13820
▁ñakambia	-13821
▁caracteres	-13822
▁perfección	-13823
▁conversaciones	-13824
96	-13825
Pero	-13826
wiya	-13827
▁lin	-13828
▁ona	-13829
▁22:2	-13830
áiramo	-13831
▁afirmó	-13832
▁opredi	-13833
▁pájaro	-13834
▁decirse	-13835
▁fuentes	-13836
▁precios	-13837
▁electoral	-13838
▁bautizarse	-13839
▁esclavitud	-13840
▁inmoralidad	-13841
IK	-13842
yal	-13843
japy	-13844
piya	-13845
ting	-13846
▁bari	-13847
▁xiuh	-13848
▁motor	-13849
▁viejo	-13850
alizado	-13851
▁Bloque	-13852
▁Social	-13853
▁ukanak	-13854
▁Embogue	-13855
▁Católica	-13856
ORA	-13857
cual	-13858
▁hus	-13859
▁pór	-13860
KUÉRA	-13861
ménto	-13862
ptiki	-13863
̱utbi	-13864
▁pure	-13865
▁Añete	-13866
▁paita	-13867
culares	-13868
iniones	-13869
▁oñandu	-13870
▁temimbo	-13871
▁preparación	-13872
Sab	-13873
ẽte	-13874
▁Sub	-13875
nequi	-13876
pinas	-13877
▁Mace	-13878
▁iran	-13879
inakat	-13880
▁sensi	-13881
▁Humanos	-13882
▁Chuqiyapu	-13883
▁Paraguayo	-13884
▁tuichaite	-13885
▁pytyvõhára	-13886
:4-	-13887
▁és	-13888
antsi	-13889
ction	-13890
▁apas	-13891
▁dudas	-13892
▁uelis	-13893
▁llorar	-13894
▁logrado	-13895
▁munaspan	-13896
▁canciones	-13897
▁hukkunata	-13898
▁Ñoqanchik	-13899
▁Movimiento	-13900
▁obedientes	-13901
▁convencidos	-13902
vez	-13903
▁JU	-13904
huia	-13905
llur	-13906
▁Punu	-13907
guasúi	-13908
▁28:19,	-13909
▁Opaite	-13910
▁imaynata	-13911
].	-13912
GAN	-13913
hni	-13914
▁Dr	-13915
▁maq	-13916
▁22:3	-13917
▁joko	-13918
▁mark	-13919
▁mayni	-13920
▁ñanei	-13921
vincias	-13922
▁renuncia	-13923
▁Organización	-13924
Ef	-13925
LE	-13926
▁We	-13927
mbro	-13928
mpan	-13929
arlos	-13930
gadas	-13931
manya	-13932
▁Dire	-13933
▁nuya	-13934
ikanai	-13935
▁ācatl	-13936
bunales	-13937
▁Tlahto	-13938
▁embara	-13939
▁arapokõ	-13940
▁revisión	-13941
▁salieron	-13942
▁ÑANDEJÁRA	-13943
▁kol	-13944
quién	-13945
▁jiwa	-13946
▁Warma	-13947
▁denom	-13948
▁leche	-13949
▁pocas	-13950
▁Galilea	-13951
▁prestar	-13952
▁pasasqan	-13953
▁universal	-13954
wasqanchikmanta	-13955
TAS	-13956
ypa	-13957
▁CSS	-13958
añete	-13959
▁Tava	-13960
▁atsa	-13961
nintin	-13962
▁Páblo	-13963
▁copia	-13964
▁limpio	-13965
▁pachan	-13966
▁creyentes	-13967
▁Embojuruja	-13968
▁predicamos	-13969
▁habilidades	-13970
Can	-13971
Ven	-13972
Ndai	-13973
▁Oro	-13974
▁ehe	-13975
gante	-13976
írculo	-13977
▁neska	-13978
▁Consul	-13979
▁regiones	-13980
▁preocupar	-13981
▁ñemohenda	-13982
▁firmemente	-13983
▁mencionado	-13984
▁□	-13985
orã	-13986
wra	-13987
cket	-13988
peta	-13989
▁23,	-13990
▁COR	-13991
▁ake	-13992
▁bru	-13993
aneki	-13994
moĩmby	-13995
trarse	-13996
▁reunir	-13997
▁demonio	-13998
▁ohupytýta	-13999
▁penderehe	-14000
▁historiador	-14001
AM	-14002
▁hye	-14003
▁Lago	-14004
▁cuan	-14005
▁defi	-14006
▁jóni	-14007
▁ínte	-14008
▁Cambi	-14009
▁espal	-14010
▁oñeko	-14011
▁waway	-14012
bertura	-14013
▁Alonso	-14014
▁escrita	-14015
▁perdona	-14016
▁upeicha	-14017
▁opiniones	-14018
▁extranjera	-14019
ek	-14020
jana	-14021
mada	-14022
▁Beni	-14023
▁leva	-14024
ytapas	-14025
▁mbyte	-14026
▁topon	-14027
▁trampa	-14028
kov	-14029
tema	-14030
▁Rik	-14031
value	-14032
vemos	-14033
▁biti	-14034
CIONAL	-14035
▁Mardo	-14036
▁YACHA	-14037
▁inmen	-14038
▁oipur	-14039
▁ymave	-14040
▁lluqsi	-14041
▁partidos	-14042
▁Evangelios	-14043
ẽpa	-14044
▁hũ	-14045
dépa	-14046
hari	-14047
nova	-14048
ómez	-14049
▁enf	-14050
▁gén	-14051
chitl	-14052
▁opon	-14053
▁Neces	-14054
▁sinchi	-14055
▁columna	-14056
▁yuyarin	-14057
▁ehérsito	-14058
▁yachasun	-14059
▁determina	-14060
gaba	-14061
kiku	-14062
uvio	-14063
ánpe	-14064
▁Lar	-14065
▁map	-14066
donia	-14067
▁Túva	-14068
▁arran	-14069
▁cocin	-14070
▁desen	-14071
▁amombe	-14072
▁vengan	-14073
dimientos	-14074
▁qawasqan	-14075
▁criaturas	-14076
▁adoradores	-14077
▁bä	-14078
derá	-14079
venir	-14080
▁char	-14081
táramo	-14082
▁energ	-14083
▁uñsta	-14084
▁Paraná	-14085
▁límite	-14086
▁compasi	-14087
▁gratitud	-14088
aykichikpaq	-14089
▁sonqomanta	-14090
▁representan	-14091
ola	-14092
qku	-14093
qon	-14094
▁97	-14095
scar	-14096
▁(*)	-14097
▁Esco	-14098
itaria	-14099
▁Chili	-14100
▁Kimsa	-14101
▁haces	-14102
▁Villar	-14103
▁escapar	-14104
▁terreno	-14105
▁sistemas	-14106
▁paykunapa	-14107
df	-14108
éx	-14109
▁MB	-14110
kira	-14111
▁Pul	-14112
▁cabe	-14113
▁Consi	-14114
▁Hanaq	-14115
▁Kaymi	-14116
▁kuali	-14117
▁maravillos	-14118
BrandShortName	-14119
45	-14120
▁72	-14121
ioso	-14122
▁Tro	-14123
▁jei	-14124
▁páh	-14125
▁Mill	-14126
▁2011.	-14127
▁Ndaja	-14128
▁avión	-14129
▁insul	-14130
▁chikan	-14131
▁cubrir	-14132
▁discer	-14133
▁oadora	-14134
▁wasipi	-14135
▁watapa	-14136
epytyvõrã	-14137
▁economía	-14138
▁primeras	-14139
▁candidatos	-14140
▁ipasiénsia	-14141
7-2	-14142
▁val	-14143
dador	-14144
dilla	-14145
▁1950	-14146
▁chhij	-14147
▁mbyky	-14148
chispan	-14149
inakaru	-14150
porãiva	-14151
▁acercarse	-14152
▁Jesucristopa	-14153
▁internacionales	-14154
85	-14155
▁més	-14156
cicle	-14157
ÉICHA	-14158
▁Awki	-14159
▁Tama	-14160
ykuéra	-14161
▁ascen	-14162
▁domés	-14163
▁Emoneĩ	-14164
▁Vargas	-14165
▁destina	-14166
▁ijehegu	-14167
▁munaspa	-14168
▁piensay	-14169
▁rikurir	-14170
▁claridad	-14171
▁esfuerzan	-14172
▁maravillosa	-14173
▁ñanesãmbyhy	-14174
")	-14175
old	-14176
▁(6	-14177
norr	-14178
trón	-14179
ẽgui	-14180
▁afi	-14181
▁ile	-14182
▁sín	-14183
▁upé	-14184
tiera	-14185
▁Inti	-14186
▁conci	-14187
katupyr	-14188
▁entero	-14189
▁firmes	-14190
▁ikanai	-14191
▁cambian	-14192
▁Enterove	-14193
▁Victoria	-14194
▁prioridad	-14195
▁estudiánte	-14196
ça	-14197
TES	-14198
pha	-14199
▁tōn	-14200
bamba	-14201
cismo	-14202
▁hago	-14203
▁jina	-14204
▁ndos	-14205
▁raza	-14206
kirirĩ	-14207
▁itoca	-14208
▁omyakã	-14209
▁números	-14210
▁allinchu	-14211
▁ayudaron	-14212
▁atiyniyoq	-14213
▁kaqkunaqa	-14214
▁achkallaña	-14215
▁provincias	-14216
▁runakunapas	-14217
▁Ñapensamína	-14218
▁determinación	-14219
82	-14220
JA	-14221
▁©	-14222
▁alo	-14223
▁jiw	-14224
kuave	-14225
misos	-14226
▁16:2	-14227
▁main	-14228
▁norma	-14229
cháramo	-14230
▁exacto	-14231
▁falsas	-14232
▁reikua	-14233
desidíva	-14234
▁Diluvio	-14235
▁nendive	-14236
▁repente	-14237
▁tetãygua	-14238
Cre	-14239
eya	-14240
oñe	-14241
acha	-14242
kane	-14243
gimen	-14244
▁Vamos	-14245
▁reiko	-14246
qallaña	-14247
▁Herodes	-14248
▁Janeiro	-14249
▁imitãva	-14250
▁tōnalli	-14251
kunapaqqa	-14252
▁poderosa	-14253
▁profundas	-14254
tw	-14255
▁ip	-14256
kóvo	-14257
▁Chá	-14258
▁cif	-14259
kipan	-14260
▁chil	-14261
▁iñeh	-14262
▁mapa	-14263
▁tsin	-14264
▁Knorr	-14265
▁subir	-14266
mantawan	-14267
▁Vicente	-14268
▁traduce	-14269
▁ndohejái	-14270
▁Satanasqa	-14271
▁ikatupyrýva	-14272
33	-14273
’”	-14274
▁Mur	-14275
jados	-14276
urqan	-14277
mombyr	-14278
▁jaoka	-14279
▁humilla	-14280
chkanchik	-14281
▁cónyuges	-14282
▁estación	-14283
▁oscuridad	-14284
▁conformidad	-14285
toc	-14286
rión	-14287
vada	-14288
▁Asu	-14289
▁Mac	-14290
▁bin	-14291
vliko	-14292
▁15:3	-14293
▁asus	-14294
▁moñe	-14295
▁suwa	-14296
▁irnaqa	-14297
▁Navidad	-14298
▁esposos	-14299
▁mexicas	-14300
▁métodos	-14301
▁satisfe	-14302
▁upémarõ	-14303
▁últimas	-14304
▁manuscri	-14305
▁exhortación	-14306
:1).	-14307
pibo	-14308
▁fla	-14309
teles	-14310
▁boni	-14311
pohual	-14312
zcamos	-14313
▁cambia	-14314
▁ikanwe	-14315
▁supera	-14316
▁puntata	-14317
bón	-14318
▁riká	-14319
▁sala	-14320
▁Radio	-14321
▁Torre	-14322
▁carro	-14323
entales	-14324
▁Ecuador	-14325
▁aprecio	-14326
▁insigni	-14327
▁nomomba	-14328
▁ñembyai	-14329
▁parecido	-14330
▁teníamos	-14331
▁económico	-14332
Ño	-14333
misa	-14334
enten	-14335
▁Crón	-14336
▁ahor	-14337
▁arco	-14338
▁Romero	-14339
▁secund	-14340
▁Quienes	-14341
▁iñehémplo	-14342
▁mokõivéva	-14343
sel	-14344
tui	-14345
▁—.	-14346
celo	-14347
EMBRE	-14348
▁Pampa	-14349
▁derra	-14350
▁recla	-14351
▁ocupar	-14352
¡¡¡¡¡¡¡¡	-14353
▁ejercer	-14354
▁yatiyaw	-14355
▁Historia	-14356
▁katupyry	-14357
▁bea	-14358
▁mag	-14359
▁mosa	-14360
▁sana	-14361
▁bebon	-14362
▁kusis	-14363
▁riqueza	-14364
▁ojapótava	-14365
▁portugués	-14366
▁chayllaraq	-14367
3$	-14368
lt	-14369
tiai	-14370
▁KAQ	-14371
▁Pere	-14372
boribi	-14373
▁qhaway	-14374
▁Qhichwa	-14375
▁peteĩha	-14376
▁ojepredika	-14377
gorit	-14378
ñaaka	-14379
▁Puka	-14380
tramos	-14381
▁milla	-14382
▁thogi	-14383
▁ñamano	-14384
hustísia	-14385
▁continua	-14386
▁escuelas	-14387
▁guaraníme	-14388
▁yachachwan	-14389
▁yanapakuynin	-14390
▁qatiqninkunata	-14391
ICA	-14392
▁Va	-14393
▁oï	-14394
▁́e	-14395
▁’?	-14396
inoa	-14397
more	-14398
▁moda	-14399
disión	-14400
▁Caleb	-14401
▁SOBRE	-14402
▁saqes	-14403
▁unquy	-14404
▁Faraón	-14405
▁verano	-14406
▁ohayhuha	-14407
▁asociación	-14408
▁Israelguápe	-14409
87	-14410
YA	-14411
ivi	-14412
días	-14413
gase	-14414
▁Ofi	-14415
▁utt	-14416
Léase	-14417
jketl	-14418
kadór	-14419
quete	-14420
▁Estu	-14421
▁vehí	-14422
▁áñor	-14423
marino	-14424
▁saqen	-14425
▁basura	-14426
▁piense	-14427
▁tōchtli	-14428
▁nisqanpi	-14429
▁siguiendo	-14430
▁kallpancharqa	-14431
sh	-14432
ERO	-14433
yon	-14434
Éxo	-14435
páma	-14436
xiki	-14437
▁Eñe	-14438
▁Naz	-14439
▁cue	-14440
▁mue	-14441
▁wiñ	-14442
kuspam	-14443
tiémpo	-14444
▁Gómez	-14445
▁repor	-14446
▁sabes	-14447
▁Raquel	-14448
▁trasla	-14449
▁Mishiku	-14450
▁enseguida	-14451
▁reconoció	-14452
▁ruwananchik	-14453
▁ñongatupyre	-14454
▁representación	-14455
The	-14456
iai	-14457
tidi	-14458
▁esk	-14459
▁kèq	-14460
▁Bras	-14461
▁Chun	-14462
▁evré	-14463
▁barco	-14464
▁chiri	-14465
▁Flores	-14466
▁Pueblo	-14467
▁kavaju	-14468
tiliztli	-14469
▁metztli	-14470
▁ojejoko	-14471
▁aproximadamente	-14472
ASA	-14473
▁xá	-14474
▁600	-14475
▁amon	-14476
▁oapo	-14477
teramo	-14478
▁cuáles	-14479
▁recopi	-14480
▁salario	-14481
▁accidente	-14482
▁adulterio	-14483
ÑAN	-14484
▁cuel	-14485
▁somb	-14486
▁acadé	-14487
▁iñemo	-14488
▁tendá	-14489
hekombo	-14490
▁BÍBLIC	-14491
▁huknin	-14492
▁astudia	-14493
▁expecta	-14494
▁ruranapaq	-14495
▁yupaychaq	-14496
▁unanchasqan	-14497
▁..	-14498
pehẽ	-14499
than	-14500
▁(20	-14501
▁155	-14502
▁Van	-14503
▁asa	-14504
▁hun	-14505
▁cami	-14506
▁kapi	-14507
▁tron	-14508
apukái	-14509
▁Predi	-14510
▁versi	-14511
▁wawqe	-14512
▁Chayqa	-14513
▁felici	-14514
▁oguera	-14515
▁morales	-14516
capacidad	-14517
▁distintas	-14518
▁explicación	-14519
▁Distritupiqa	-14520
▁adolescentes	-14521
Ña	-14522
qas	-14523
▁inc	-14524
▁túa	-14525
jtoua	-14526
▁Évape	-14527
▁cuerpos	-14528
▁iménape	-14529
▁mbytépe	-14530
▁trataba	-14531
▁siguieron	-14532
▁esforzamos	-14533
▁regularmente	-14534
▁Yn	-14535
apar	-14536
▁Lei	-14537
poner	-14538
publi	-14539
▁Saulo	-14540
▁sérro	-14541
▁omomýi	-14542
evéicharõ	-14543
▁cantante	-14544
▁jonibaon	-14545
▁rekovépe	-14546
▁tiemponpi	-14547
▁tlahtohuani	-14548
▁certificados	-14549
▁yachasqanchik	-14550
̱ʼ	-14551
árez	-14552
Araka	-14553
▁Gale	-14554
mbuéva	-14555
arqachu	-14556
▁cargar	-14557
▁Mariano	-14558
▁Servicio	-14559
▁Satanáspe	-14560
▁jaskaaxon	-14561
86	-14562
fen	-14563
ipy	-14564
berg	-14565
mpay	-14566
▁Yaw	-14567
▁och	-14568
talle	-14569
watam	-14570
▁Jati	-14571
▁Ukha	-14572
▁algú	-14573
uksión	-14574
▁aklla	-14575
▁ikyre	-14576
▁ypýpe	-14577
ológico	-14578
▁cometer	-14579
▁seguido	-14580
▁garantía	-14581
warqanchik	-14582
▁Ciertamente	-14583
Mis	-14584
UES	-14585
maa	-14586
óne	-14587
Embo	-14588
hili	-14589
hing	-14590
▁Has	-14591
▁axe	-14592
arita	-14593
ficada	-14594
kuaávo	-14595
▁benxo	-14596
▁hingi	-14597
▁indis	-14598
▁Imagínese	-14599
▁manantial	-14600
▁propuesta	-14601
▁antepasados	-14602
▁Tenochtitlan	-14603
▁yachasunchik	-14604
6-2	-14605
ñani	-14606
tyaro	-14607
chanku	-14608
gíramo	-14609
mentario	-14610
▁séptimo	-14611
▁apariencia	-14612
▁ndoguerekói	-14613
bul	-14614
kam	-14615
▁Jó	-14616
▁ON	-14617
kaha	-14618
▁Tsa	-14619
▁leña	-14620
▁Hágsa	-14621
▁Nicol	-14622
▁conden	-14623
▁reveló	-14624
▁ndoikua	-14625
▁nemandu	-14626
▁Brooklyn	-14627
▁nisqanqa	-14628
▁recompens	-14629
▁ideprovecho	-14630
▁iñiyninkupi	-14631
▁omotenondéva	-14632
REN	-14633
▁OĨ	-14634
▁27:	-14635
▁odio	-14636
▁creía	-14637
▁Pachan	-14638
▁quedan	-14639
▁tekome	-14640
▁digital	-14641
▁indican	-14642
▁mochiuh	-14643
▁hustísia	-14644
▁iñumílde	-14645
▁odefende	-14646
▁ombosako	-14647
ÍS	-14648
2-2	-14649
fera	-14650
▁Marg	-14651
▁miki	-14652
▁oity	-14653
catzin	-14654
▁lawman	-14655
▁okambi	-14656
▁tlacatl	-14657
▁valiosa	-14658
▁Suyukuna	-14659
▁operdona	-14660
▁bloqueado	-14661
▁estuvieron	-14662
▁adolescente	-14663
▁recientemente	-14664
dam	-14665
sip	-14666
vér	-14667
▁atip	-14668
▁Hemos	-14669
▁sienta	-14670
▁yatiya	-14671
▁tapichakuéra	-14672
▁iñimportanteve	-14673
▁51	-14674
ECHA	-14675
▁(10	-14676
▁gor	-14677
▁nel	-14678
▁uyw	-14679
mular	-14680
▁Algo	-14681
▁aper	-14682
▁ikor	-14683
jojáva	-14684
titlan	-14685
▁alaba	-14686
▁infra	-14687
▁munas	-14688
▁patio	-14689
▁vídeo	-14690
▁causar	-14691
▁ñandes	-14692
▁Uficial	-14693
▁áñorupi	-14694
▁suyukuna	-14695
▁facultades	-14696
arí	-14697
inu	-14698
tamá	-14699
▁Dor	-14700
▁hamu	-14701
▁Encar	-14702
chákuri	-14703
▁Emombe	-14704
▁escritores	-14705
▁direcciones	-14706
▁expresiones	-14707
3-2	-14708
▁QUÉ	-14709
▁tlā	-14710
talya	-14711
▁'%1$	-14712
▁reto	-14713
arambi	-14714
▁ramas	-14715
▁librar	-14716
▁pevépa	-14717
▁ymaite	-14718
▁qawarqa	-14719
▁sincero	-14720
Jawekeska	-14721
▁eskuélape	-14722
▁reipytyvõ	-14723
▁konsiénsia	-14724
▁adicionales	-14725
▁ifamiliakuéra	-14726
Fi	-14727
av	-14728
Kay	-14729
Mal	-14730
▁Tú	-14731
rosa	-14732
▁Pie	-14733
▁geo	-14734
▁nie	-14735
▁nts	-14736
▁aguã	-14737
▁asta	-14738
▁memi	-14739
▁nomo	-14740
vantes	-14741
▁Corne	-14742
▁Parti	-14743
▁Silva	-14744
▁llampu	-14745
▁uyarin	-14746
tepekuéra	-14747
▁oipotaha	-14748
▁Prometida	-14749
▁argentino	-14750
▁numerosos	-14751
▁resucitado	-14752
▁tak	-14753
▁toq	-14754
kambi	-14755
▁jale	-14756
▁leen	-14757
▁árka	-14758
háramo	-14759
▁Juana	-14760
▁Tract	-14761
▁trato	-14762
▁quiera	-14763
▁qillqaq	-14764
óto	-14765
jetu	-14766
taso	-14767
▁000	-14768
▁Gusta	-14769
▁corto	-14770
▁ukanx	-14771
myatyrõ	-14772
▁YACHACH	-14773
▁sustitu	-14774
▁estrella	-14775
▁iñermáno	-14776
▁pyhareve	-14777
▁suyunaka	-14778
▁municipal	-14779
chinankupaq	-14780
▁oñeporandu	-14781
▁kamachisqanta	-14782
▁procedimiento	-14783
hta	-14784
▁Iz	-14785
?...	-14786
▁abre	-14787
▁japy	-14788
▁sóli	-14789
pensái	-14790
▁desha	-14791
▁ganas	-14792
▁guýpe	-14793
▁jugar	-14794
▁okaru	-14795
▁ñamoĩ	-14796
máticas	-14797
▁Página	-14798
▁locali	-14799
▁postura	-14800
▁Indígena	-14801
▁Profecía	-14802
▁hubieran	-14803
▁iskaynin	-14804
▁ohechaukáta	-14805
▁complementos	-14806
▁llakipayakuq	-14807
▁administrador	-14808
ele	-14809
▁PL	-14810
▁Ts	-14811
Este	-14812
xtla	-14813
▁104	-14814
▁uku	-14815
inada	-14816
tembi	-14817
uérpo	-14818
gíkena	-14819
▁Plaza	-14820
arakiwa	-14821
▁espesi	-14822
▁kaniku	-14823
▁Alianza	-14824
▁publicó	-14825
▁almacena	-14826
▁California	-14827
▁nisqakunaqa	-14828
FOR	-14829
ndo	-14830
Feli	-14831
máva	-14832
selo	-14833
▁irũ	-14834
Imata	-14835
▁24:3	-14836
▁Ante	-14837
▁imbo	-14838
▁ndor	-14839
▁apres	-14840
▁jakas	-14841
▁lénto	-14842
▁móvil	-14843
▁áreas	-14844
▁Pallan	-14845
▁onanke	-14846
▁veinti	-14847
harakuéra	-14848
▁llamados	-14849
▁wakllanwatam	-14850
▁entendimiento	-14851
ERÃ	-14852
pak	-14853
cesa	-14854
date	-14855
wiri	-14856
tsipa	-14857
▁Rama	-14858
▁uvei	-14859
dición	-14860
▁darse	-14861
▁deuda	-14862
▁exige	-14863
▁ojejo	-14864
ptinpas	-14865
▁ikonha	-14866
▁Circuito	-14867
▁Sociedad	-14868
▁posesión	-14869
▁kawsasqan	-14870
▁ojapotaha	-14871
▁funcionamiento	-14872
▁oiporiahuvereko	-14873
?.	-14874
▁\	-14875
▁"¡	-14876
lito	-14877
týpe	-14878
▁40:	-14879
▁9:3	-14880
▁Pur	-14881
▁iñor	-14882
▁jist	-14883
▁rele	-14884
▁resa	-14885
▁tome	-14886
quemos	-14887
ãmbait	-14888
▁Autor	-14889
▁Maran	-14890
▁doble	-14891
▁kanki	-14892
▁motla	-14893
▁Torres	-14894
▁empren	-14895
▁sallqa	-14896
▁Tendayke	-14897
▁tlatohuani	-14898
▁relacionadas	-14899
enó	-14900
trá	-14901
▁46	-14902
onel	-14903
ganda	-14904
primi	-14905
▁guer	-14906
▁kema	-14907
▁préso	-14908
▁Éfeso	-14909
wachwan	-14910
▁Thomas	-14911
▁PÁGINAS	-14912
▁Segunda	-14913
▁ponerse	-14914
▁privile	-14915
▁chaytaqa	-14916
▁Chaymantam	-14917
▁tentaciones	-14918
▁yanapasunki	-14919
gã	-14920
muqa	-14921
míme	-14922
timo	-14923
▁Copa	-14924
▁Hech	-14925
▁INEI	-14926
▁Iñiq	-14927
yninpi	-14928
▁aikua	-14929
▁canto	-14930
▁Grecia	-14931
▁yokabo	-14932
▁aquellas	-14933
▁Yaqapaschá	-14934
▁navegadores	-14935
▁ovechakuéra	-14936
▁rikchanachiy	-14937
xt	-14938
:4;	-14939
▁ig	-14940
▁jui	-14941
átapa	-14942
▁Tele	-14943
▁Presi	-14944
▁arapy	-14945
▁suyos	-14946
▁tapia	-14947
pekuéra	-14948
▁oserví	-14949
▁suspen	-14950
▁mirando	-14951
▁pukllay	-14952
Añetehápe	-14953
▁hogaygua	-14954
ceh	-14955
ette	-14956
pado	-14957
táma	-14958
▁osu	-14959
▁sut	-14960
gular	-14961
▁Noey	-14962
▁jiwi	-14963
▁sole	-14964
piritu	-14965
yeteri	-14966
▁Tanto	-14967
▁ypyku	-14968
▁llaman	-14969
▁operde	-14970
▁rikchan	-14971
▁atributo	-14972
▁enemigon	-14973
▁ñepyrũrã	-14974
▁reñeñandu	-14975
▁qillqasqan	-14976
kö	-14977
▁só	-14978
▁Dur	-14979
▁anga	-14980
▁decep	-14981
▁hagua	-14982
▁poten	-14983
▁trajo	-14984
taraqmi	-14985
ñatakix	-14986
▁decían	-14987
▁médica	-14988
▁suerte	-14989
▁unhídope	-14990
▁tiempopiqa	-14991
Da	-14992
Leey	-14993
▁oni	-14994
tecas	-14995
▁akan	-14996
▁ignor	-14997
▁vimos	-14998
▁hekópe	-14999
irinakax	-15000
▁yanapaq	-15001
▁añeñandu	-15002
▁ohayhúva	-15003
▁ñakumpli	-15004
▁analizaremos	-15005
▁ä	-15006
▁zo	-15007
tarõ	-15008
▁Hel	-15009
▁1970	-15010
▁Corea	-15011
▁escal	-15012
▁ojedi	-15013
promete	-15014
qakuchu	-15015
▁phuqha	-15016
▁sutinta	-15017
▁afrontar	-15018
▁revistas	-15019
▁Bíbliagui	-15020
▁Mardoqueo	-15021
nẽ	-15022
únte	-15023
tones	-15024
▁20:3	-15025
▁rato	-15026
▁utan	-15027
▁ñaño	-15028
cāyōtl	-15029
▁nemba	-15030
▁farise	-15031
▁nañane	-15032
▁Gálatas	-15033
▁artista	-15034
▁Ciencias	-15035
▁Moiséspe	-15036
▁bibliata	-15037
▁opurahéi	-15038
▁municipio	-15039
▁orrespeta	-15040
▁ombotuicha	-15041
CC	-15042
íke	-15043
▁It	-15044
▁LO	-15045
fías	-15046
kuti	-15047
ústo	-15048
▁Qam	-15049
▁Vil	-15050
▁doy	-15051
pacho	-15052
▁emer	-15053
▁Johan	-15054
▁Véase	-15055
▁explo	-15056
äwinaka	-15057
▁diablo	-15058
▁ojapoha	-15059
▁evolución	-15060
▁rrekuádro	-15061
▁tradición	-15062
▁osolusiona	-15063
▁cooperación	-15064
8-3	-15065
▁AD	-15066
wame	-15067
▁ger	-15068
aycha	-15069
wanke	-15070
▁1920	-15071
▁join	-15072
Jehova	-15073
karqan	-15074
▁Nican	-15075
▁jerovi	-15076
▁sorpres	-15077
▁distritun	-15078
▁reaccionó	-15079
▁estudiando	-15080
▁indefinido	-15081
89	-15082
ÑE	-15083
eld	-15084
etee	-15085
melo	-15086
úkena	-15087
▁1980	-15088
▁onqoy	-15089
▁Yalapi	-15090
▁esperamos	-15091
▁imperfección	-15092
Nos	-15093
aso	-15094
▁(7	-15095
liku	-15096
mira	-15097
▁niy	-15098
▁ska	-15099
▁célu	-15100
▁quen	-15101
▁temer	-15102
▁Compar	-15103
▁Itália	-15104
▁Parece	-15105
▁odesidí	-15106
▁ukhamat	-15107
▁persegui	-15108
▁ciudadano	-15109
▁tendencia	-15110
▁willakuyta	-15111
▁identificar	-15112
5.)	-15113
RIS	-15114
ech	-15115
▁acab	-15116
▁azul	-15117
▁memé	-15118
äwinak	-15119
▁madur	-15120
▁major	-15121
▁proxy	-15122
▁tuqin	-15123
dencias	-15124
▁ipláta	-15125
▁iñembo	-15126
▁jueces	-15127
▁noches	-15128
▁samari	-15129
▁destruy	-15130
▁estemos	-15131
▁watanpi	-15132
▁Asimismo	-15133
▁informar	-15134
▁colaboradores	-15135
korã	-15136
ular	-15137
▁reca	-15138
areíri	-15139
▁culto	-15140
▁eipur	-15141
▁gotho	-15142
▁novia	-15143
▁concre	-15144
▁Embojuaju	-15145
▁bibliamanta	-15146
▁consideración	-15147
▁Af	-15148
vene	-15149
▁Ren	-15150
▁saca	-15151
▁waqa	-15152
varamo	-15153
▁Kuérpo	-15154
▁pichqa	-15155
▁reqsin	-15156
▁extremo	-15157
▁ruraspa	-15158
▁omohenda	-15159
▁imaynatam	-15160
▁inspiración	-15161
Hi	-15162
▁Javy	-15163
▁Mani	-15164
▁Ruiz	-15165
▁dige	-15166
▁omen	-15167
▁estri	-15168
▁niwaq	-15169
▁rysýi	-15170
ẽrendúi	-15171
▁frutos	-15172
▁vivido	-15173
▁Nicolás	-15174
▁hembire	-15175
▁enseñado	-15176
▁témplope	-15177
▁exclusiva	-15178
EL	-15179
ckw	-15180
nada	-15181
▁28:	-15182
ancha	-15183
ertos	-15184
minal	-15185
thapi	-15186
▁huir	-15187
▁mitru	-15188
▁examen	-15189
▁encontraron	-15190
ÑA	-15191
ayi	-15192
tīlli	-15193
▁37:2	-15194
▁Aten	-15195
▁bena	-15196
▁hova	-15197
llermo	-15198
▁grano	-15199
▁obvio	-15200
▁pohýi	-15201
▁Santas	-15202
▁huevos	-15203
▁mexica	-15204
▁libropa	-15205
▁alabanza	-15206
eveichagua	-15207
▁Filipinas	-15208
▁kawsakuyta	-15209
▁ndaiporimo	-15210
▁conferencia	-15211
▁apacibilidad	-15212
▁22,	-15213
Manam	-15214
ámica	-15215
útava	-15216
ẽporã	-15217
▁Penn	-15218
▁Táva	-15219
▁alab	-15220
▁apor	-15221
▁demo	-15222
Daniel	-15223
yanyhẽ	-15224
▁Andre	-15225
▁IKATU	-15226
▁iñaña	-15227
▁darnos	-15228
▁ikanta	-15229
▁oprome	-15230
▁Ñahesa	-15231
▁ceremon	-15232
▁formado	-15233
▁iñisqan	-15234
▁Hacienda	-15235
▁rekorosã	-15236
▁willarqa	-15237
▁ministros	-15238
▁declaraciones	-15239
▁Reg	-15240
kayotl	-15241
pokuaa	-15242
▁Media	-15243
▁impon	-15244
▁neská	-15245
▁observ	-15246
▁ojevautis	-15247
▁Governánte	-15248
▁conflictos	-15249
▁isiervokuéra	-15250
▁IM	-15251
▁MO	-15252
Apoc	-15253
pára	-15254
ypas	-15255
tário	-15256
▁fija	-15257
▁noro	-15258
qantin	-15259
▁plani	-15260
fortuna	-15261
▁Parque	-15262
▁milagr	-15263
kawillka	-15264
▁Observa	-15265
▁hospita	-15266
▁Chaynalla	-15267
▁conflicto	-15268
31	-15269
gé	-15270
ÑO	-15271
itz	-15272
▁Bá	-15273
▁Ál	-15274
▁175	-15275
▁ena	-15276
▁eñe	-15277
:10).	-15278
▁ojuh	-15279
▁raro	-15280
▁saqe	-15281
▁thak	-15282
chrome	-15283
mperio	-15284
ándole	-15285
▁atibo	-15286
▁Huñuna	-15287
▁cargos	-15288
▁escala	-15289
▁oguapy	-15290
▁detalle	-15291
▁aumentar	-15292
▁eliminado	-15293
▁jawekeska	-15294
▁obligación	-15295
81	-15296
Mia	-15297
Filip	-15298
étaro	-15299
▁sene	-15300
uetéva	-15301
▁Calli	-15302
▁Noemí	-15303
▁Tomás	-15304
▁corta	-15305
▁cueva	-15306
▁harán	-15307
▁cotidi	-15308
viamente	-15309
▁kusikuy	-15310
▁huchayoq	-15311
▁iglesias	-15312
▁ohecháva	-15313
▁ohekombo	-15314
▁ansianokuéra	-15315
VÕ	-15316
ah	-15317
▁AS	-15318
IKUY	-15319
urar	-15320
▁kur	-15321
▁sil	-15322
▁́li	-15323
estra	-15324
label	-15325
pyend	-15326
trivu	-15327
vamos	-15328
▁casó	-15329
▁inco	-15330
▁maki	-15331
▁miel	-15332
ronqui	-15333
▁Amayá	-15334
▁Janiw	-15335
▁Galeano	-15336
▁interca	-15337
▁sumaqta	-15338
anmantaqa	-15339
▁descubri	-15340
▁positiva	-15341
▁reheguáva	-15342
▁yachasqan	-15343
▁proporcion	-15344
▁regularidad	-15345
htm	-15346
kañ	-15347
TYVÕ	-15348
tiga	-15349
▁khu	-15350
mbare	-15351
▁rabe	-15352
▁tasi	-15353
▁tuva	-15354
▁Sobre	-15355
▁imple	-15356
▁empecé	-15357
▁oguere	-15358
▁sinago	-15359
▁Interné	-15360
▁rimarqa	-15361
▁entretenimiento	-15362
bis	-15363
▁Eu	-15364
▁1:3	-15365
▁Huan	-15366
▁clar	-15367
▁mimi	-15368
hcuilo	-15369
▁Rojas	-15370
▁denun	-15371
▁kóicha	-15372
▁oĩvare	-15373
▁arquite	-15374
▁jaskati	-15375
▁puchuka	-15376
▁Academia	-15377
▁kóntrape	-15378
8-2	-15379
̱ho	-15380
kunki	-15381
ývare	-15382
▁Jahe	-15383
▁Mora	-15384
▁Ojap	-15385
▁kilo	-15386
▁vean	-15387
▁palla	-15388
▁orilla	-15389
▁Bernabé	-15390
▁pasajes	-15391
versiones	-15392
▁ocurrido	-15393
▁peteĩnte	-15394
▁taytacha	-15395
▁iporãveha	-15396
▁ciudadanía	-15397
▁kachkaspan	-15398
▁dic	-15399
▁Muse	-15400
▁mono	-15401
▁Junta	-15402
▁verlo	-15403
▁vuelva	-15404
[...]
