<unk>	0
<s>	0
</s>	0
<aym>	0
<bzd>	0
<cni>	0
<ctp>	0
<gn>	0
<hch>	0
<nah>	0
<oto>	0
<quy>	0
<shp>	0
<tar>	0
.	-3.4215
,	-3.45042
▁de	-3.71821
ʼ	-4.08515
▁la	-4.33763
▁a	-4.40857
▁que	-4.51324
s	-4.61459
▁y	-4.70095
▁en	-4.77952
▁el	-4.80916
▁ha	-4.86075
:	-4.95721
e	-5.05686
?	-5.09249
'	-5.10565
▁(	-5.11913
▁los	-5.16537
▁¿	-5.26138
a	-5.38918
▁se	-5.445
▁	-5.45929
n	-5.4629
i	-5.53568
)	-5.60582
▁“	-5.72084
▁no	-5.72299
’	-5.7345
▁su	-5.73606
▁mba	-5.75075
▁Jehová	-5.76598
▁del	-5.78181
▁.	-5.78837
▁un	-5.80386
▁las	-5.80472
▁con	-5.82099
pe	-5.83457
▁umi	-5.83827
▁es	-5.86788
▁para	-5.88158
ta	-5.92817
▁por	-5.94354
▁pe	-5.97234
-	-5.99684
▁o	-6.00641
▁una	-6.06129
▁lo	-6.06307
▁|	-6.09336
▁hag̃ua	-6.12228
r	-6.21885
pa	-6.26513
▁Dios	-6.29931
▁he	-6.30698
▁ko	-6.3124
va	-6.36856
▁-	-6.45146
▁al	-6.45569
o	-6.46783
m	-6.47541
;	-6.48705
▁peteĩ	-6.50052
▁va	-6.50275
▁Jesús	-6.5036
▁El	-6.52263
▁La	-6.52354
▁sus	-6.59012
qa	-6.60378
ra	-6.61296
u	-6.61514
ha	-6.6351
ekue	-6.64389
mi	-6.64643
re	-6.67435
y	-6.68215
▁como	-6.68975
▁más	-6.69081
ẽ	-6.72373
▁A	-6.72464
).	-6.73896
▁"	-6.77468
▁Biblia	-6.7968
▁Ha	-6.80296
”	-6.80613
▁nos	-6.80999
▁le	-6.82687
▁En	-6.83364
▁‘	-6.84829
▁,	-6.86052
ma	-6.87353
▁avei	-6.87941
na	-6.89696
pi	-6.89748
do	-6.9034
▁??	-6.91545
t	-6.92775
épa	-6.9502
ã	-6.95733
erã	-6.97504
▁ja	-7.0233
▁ne	-7.04866
▁ikatu	-7.05533
▁qué	-7.05871
▁Ñandejára	-7.08343
▁mana	-7.08637
▁chupe	-7.0889
te	-7.09267
▁me	-7.10934
mos	-7.12297
es	-7.1297
Qué	-7.13803
la	-7.1381
S	-7.14322
l	-7.16237
▁mi	-7.16681
▁Por	-7.17004
▁si	-7.17074
ti	-7.17522
se	-7.17643
▁ni	-7.18495
▁ra	-7.19702
▁ya	-7.2106
▁re	-7.23134
da	-7.23266
▁porã	-7.23794
!	-7.23914
▁i	-7.23973
me	-7.24688
ni	-7.25352
▁in	-7.26079
▁este	-7.27151
▁sobre	-7.28431
▁ser	-7.28447
Mba	-7.28649
▁1	-7.2955
ya	-7.30288
▁heta	-7.30374
ki	-7.30555
▁O	-7.3186
▁ningo	-7.32376
▁Mba	-7.33148
▁e	-7.33296
ve	-7.3332
éichapa	-7.33577
▁él	-7.33948
▁cuando	-7.36144
▁te	-7.36185
ba	-7.36513
ri	-7.36881
▁vida	-7.37429
▁está	-7.37532
ku	-7.38312
x	-7.39926
▁ñande	-7.40647
p	-7.40807
▁che	-7.41149
gui	-7.41307
no	-7.41366
lo	-7.41468
▁Ko	-7.42189
pas	-7.42426
▁No	-7.43025
▁”	-7.44086
▁son	-7.4472
to	-7.44978
▁”.	-7.45395
▁Y	-7.45862
▁fue	-7.46499
▁años	-7.46642
A	-7.47052
▁hinaspa	-7.4803
▁’	-7.48654
▁térã	-7.48789
▁Los	-7.49308
▁ñe	-7.50208
ka	-7.50562
▁¡	-7.50683
▁puede	-7.50768
man	-7.50998
▁tiempo	-7.51652
▁también	-7.51654
li	-7.52106
▁oĩ	-7.52909
▁todo	-7.53058
wan	-7.53145
k	-7.53427
▁esta	-7.53638
▁huk	-7.53672
▁2	-7.5374
▁Pablo	-7.54653
q	-7.5501
▁ojapo	-7.55023
mo	-7.55464
▁rupi	-7.55592
sa	-7.55932
▁5	-7.5724
ramo	-7.57389
▁tu	-7.57872
bo	-7.5842
ro	-7.59018
wa	-7.59776
▁día	-7.60465
▁pero	-7.60801
▁hacer	-7.6138
nte	-7.61492
”.	-7.62745
▁oñe	-7.62825
▁15	-7.62882
▁chupekuéra	-7.63001
ña	-7.63036
▁Pe	-7.6323
▁Diospa	-7.63474
▁•	-7.6371
▁Si	-7.64561
▁I	-7.64591
ndo	-7.64765
▁era	-7.65052
▁b	-7.6542
▁upe	-7.65548
▁personas	-7.66153
▁todos	-7.66585
▁upéva	-7.66716
▁les	-7.67429
▁oiko	-7.67673
]	-7.68089
ja	-7.68268
ca	-7.68356
h	-7.68417
chu	-7.68728
cha	-7.69492
w	-7.70055
+	-7.70238
▁hikuái	-7.70967
▁Péro	-7.71269
▁E	-7.71744
▁3	-7.71811
an	-7.71937
ó	-7.72703
▁muy	-7.73152
á	-7.7353
▁[	-7.74749
chi	-7.7476
▁allin	-7.75493
▁kay	-7.75496
▁había	-7.7553
▁iki	-7.76036
▁ka	-7.76448
que	-7.77045
Cómo	-7.77691
▁dijo	-7.78391
gua	-7.78392
"	-7.78654
▁(1	-7.80353
▁tiene	-7.81471
▁Pero	-7.81736
▁ñane	-7.81819
▁pa	-7.83135
manta	-7.83142
▁jepe	-7.8328
▁han	-7.84104
▁4	-7.84179
▁vez	-7.84545
▁voi	-7.84649
▁Se	-7.84751
▁nispa	-7.85328
▁{	-7.85605
▁bien	-7.85828
▁Jehovápe	-7.85884
▁De	-7.85885
▁nuestra	-7.86038
▁10	-7.86094
▁Juan	-7.86701
▁ejemplo	-7.86741
ru	-7.87691
ron	-7.877
lla	-7.87711
▁opa	-7.87762
▁nde	-7.87783
vo	-7.88029
de	-7.88168
▁”,	-7.88617
c	-7.89522
in	-7.89663
▁sin	-7.89796
▁hay	-7.90051
▁nisqaqa	-7.90067
▁cosas	-7.90095
érepa	-7.90304
le	-7.90473
co	-7.90508
rá	-7.90593
▁watakuna	-7.90625
▁espíritu	-7.90936
mente	-7.91397
ke	-7.9152
▁12	-7.91588
▁6	-7.91719
>	-7.9244
▁ñiqin	-7.92456
▁mundo	-7.92658
▁ta	-7.9269
▁guive	-7.92862
▁rehe	-7.93029
kuna	-7.93758
E	-7.94291
▁ma	-7.95003
▁dos	-7.95339
▁nuestro	-7.95376
▁jave	-7.9552
▁entre	-7.95703
▁18	-7.9579
ne	-7.95841
▁porque	-7.96334
▁así	-7.96569
▁yn	-7.96642
▁'	-7.96789
name	-7.96989
▁16	-7.97617
▁7	-7.97691
en	-7.97742
▁Al	-7.97826
▁San	-7.98327
▁8	-7.98683
Por	-7.98799
▁año	-7.9895
▁hague	-7.99038
▁ehémplo	-7.99064
▁Umi	-7.99079
▁da	-7.99517
▁17	-7.99585
▁rire	-7.99585
▁14	-8.00689
▁oje	-8.00799
▁ro	-8.01914
▁ciudad	-8.02098
▁otros	-8.02308
ko	-8.02642
),	-8.03529
▁ellos	-8.03598
▁11	-8.03627
▁eso	-8.04352
▁Jehova	-8.04801
▁13	-8.04861
▁Pedro	-8.05302
▁fe	-8.05712
▁dice	-8.05918
▁g̃uarã	-8.06123
▁hina	-8.06536
ga	-8.06694
▁t	-8.0703
▁ome	-8.07123
ción	-8.07517
▁cómo	-8.07577
▁nosotros	-8.07637
▁casa	-8.0819
▁}	-8.08588
d	-8.08608
▁hombre	-8.08725
▁oĩva	-8.08944
▁9	-8.0908
▁parte	-8.09104
tu	-8.09523
▁hasta	-8.09941
▁mismo	-8.10084
▁ndive	-8.10506
▁Cuando	-8.11162
▁hijos	-8.11595
si	-8.12074
z	-8.12247
on	-8.12385
▁podemos	-8.12735
▁/	-8.13694
▁mucho	-8.13739
▁mo	-8.13778
▁llaqtapi	-8.13817
▁katu	-8.13818
▁hína	-8.13882
▁Ñe	-8.14668
▁Sin	-8.14842
▁amor	-8.15391
▁cristianos	-8.15866
▁guare	-8.16216
▁hermanos	-8.16599
ekuéra	-8.16815
nta	-8.1691
kuéra	-8.1718
▁◄	-8.17422
▁tanto	-8.17476
▁familia	-8.1764
▁ohechauka	-8.17666
▁lugar	-8.17727
ch	-8.17956
▁Es	-8.18
brand	-8.18068
▁uno	-8.18837
▁ima	-8.18868
mba	-8.18944
▁►	-8.19213
▁chay	-8.19438
▁después	-8.19653
▁na	-8.19798
▁manam	-8.19863
é	-8.20148
▁estaba	-8.20455
▁mama	-8.20973
▁están	-8.21214
dos	-8.21222
▁ca	-8.21314
/	-8.21911
▁David	-8.22332
▁pegua	-8.2312
▁gran	-8.23245
▁simi	-8.23442
▁Ja	-8.23505
b	-8.24199
di	-8.24275
▁nombre	-8.24522
bi	-8.24586
▁Re	-8.24668
▁Satanás	-8.2475
so	-8.25123
▁DE	-8.25133
▁solo	-8.25323
j	-8.25393
▁sa	-8.25407
▁karqa	-8.2557
▁Commons	-8.25704
ete	-8.25731
▁ti	-8.25745
▁watapi	-8.25823
▁hecho	-8.26233
I	-8.26328
▁jey	-8.26849
▁tierra	-8.27412
▁yo	-8.27576
éva	-8.27692
▁Upévare	-8.27873
▁ver	-8.28316
íva	-8.2838
po	-8.28903
▁<	-8.29519
▁siempre	-8.29931
▁ani	-8.2998
▁gente	-8.30042
▁yvy	-8.30059
▁py	-8.30097
▁Su	-8.3032
▁pueden	-8.30946
ág̃a	-8.3099
apo	-8.31317
▁áño	-8.32281
▁Para	-8.33247
▁tan	-8.33341
▁péro	-8.33345
▁pi	-8.3345
▁congregación	-8.3346
▁vai	-8.33503
▁ára	-8.33913
▁contra	-8.34033
▁(2	-8.34341
je	-8.34461
ỹ	-8.34536
▁p	-8.34707
xa	-8.34727
▁ñandéve	-8.34852
▁Cristo	-8.35526
▁embargo	-8.35695
▁ermáno	-8.36335
▁muchos	-8.36461
▁manera	-8.36544
▁cuenta	-8.37153
▁decir	-8.3742
▁cha	-8.37527
das	-8.37913
▁CANCIONES	-8.37965
ban	-8.37966
▁Con	-8.38028
▁hese	-8.38197
▁palabras	-8.38404
▁Las	-8.38453
▁cada	-8.38459
▁ayuda	-8.38502
▁antes	-8.3887
▁debemos	-8.39032
C	-8.39154
▁ña	-8.39243
▁tener	-8.3935
he	-8.39534
▁rupive	-8.39539
▁nu	-8.39571
▁hace	-8.40705
▁todas	-8.41032
wi	-8.41053
taq	-8.41346
▁rehegua	-8.41397
▁donde	-8.4141
eve	-8.41541
▁S	-8.41566
▁Reino	-8.41604
▁nuestros	-8.41918
taha	-8.4197
▁pueblo	-8.42009
▁desde	-8.42095
ar	-8.42559
kunata	-8.42621
▁mejor	-8.42731
▁20	-8.43041
nos	-8.43042
▁ambue	-8.43117
▁di	-8.43149
iva	-8.43576
▁corazón	-8.44
el	-8.44107
O	-8.44141
pu	-8.44171
▁sido	-8.44264
▁kaq	-8.44966
▁pues	-8.44993
▁Firefox	-8.45216
▁toda	-8.46499
py	-8.46673
▁algunos	-8.46787
▁tukuy	-8.4692
▁tienen	-8.47032
▁Diosta	-8.47177
▁apóstol	-8.47262
▁José	-8.47333
2	-8.47656
▁upéicha	-8.47807
ndi	-8.47931
▁oipytyvõ	-8.47987
rõ	-8.48005
▁19	-8.48069
▁verdad	-8.48145
▁simipi	-8.48407
▁hizo	-8.48428
▁días	-8.49295
▁ley	-8.49582
▁Mi	-8.4972
▁omombe	-8.49904
les	-8.49907
go	-8.49907
qui	-8.50186
yo	-8.502
▁—	-8.50239
▁suyu	-8.50252
▁ombo	-8.50373
▁usted	-8.51276
▁jajapo	-8.51522
...	-8.51568
▁[...]	-8.51737
”,	-8.51868
▁haguére	-8.52129
▁killapi	-8.52209
▁página	-8.52402
▁to	-8.52478
▁forma	-8.52594
▁m	-8.52602
sqa	-8.53105
▁mä	-8.53107
nku	-8.53205
hápe	-8.53463
í	-8.53514
▁uka	-8.53865
▁sino	-8.54119
▁otro	-8.54141
ré	-8.54396
ce	-8.54494
▁hi	-8.54626
▁oho	-8.54654
▁Un	-8.54659
éi	-8.54664
▁muerte	-8.54932
▁esto	-8.54984
▁sí	-8.55246
▁tenía	-8.55337
▁hag̃uáicha	-8.55355
▁hénte	-8.55522
▁hombres	-8.55626
ỹva	-8.5568
ci	-8.55949
▁Israel	-8.5596
▁durante	-8.56064
▁upévare	-8.56179
▁Peteĩ	-8.56674
▁libro	-8.56849
▁;	-8.56927
rse	-8.57432
▁jan	-8.57432
▁fin	-8.57736
▁ella	-8.57973
▁%	-8.57983
▁Lo	-8.58076
ãi	-8.58383
rã	-8.58626
▁estas	-8.58665
ẽva	-8.58881
▁k	-8.59382
▁ese	-8.59685
▁kuri	-8.60051
kastilla	-8.60239
g	-8.6068
▁nirqa	-8.60809
ía	-8.61228
vi	-8.61234
▁oikuaa	-8.61318
▁otras	-8.61488
▁estos	-8.61498
mu	-8.61677
▁ahora	-8.61875
▁Ma	-8.6211
▁Diosqa	-8.6216
Sal	-8.62248
▁ndaha	-8.62409
▁bi	-8.62429
▁debe	-8.62716
▁www	-8.62943
▁trabajo	-8.62963
▁ore	-8.63355
▁Cor	-8.63373
▁importante	-8.6373
▁ári	-8.63874
▁padres	-8.63919
▁Ca	-8.63941
▁Me	-8.64086
▁padre	-8.64095
kuaa	-8.64116
▁Tierra	-8.64212
▁Ta	-8.64751
▁Este	-8.64913
▁Ñandejárape	-8.65195
▁Ka	-8.65389
▁:	-8.65397
tam	-8.65446
▁Ra	-8.65506
los	-8.656
▁C	-8.65698
▁sea	-8.65709
▁tres	-8.65976
▁hawa	-8.66208
▁hijo	-8.66441
án	-8.6649
cu	-8.66555
▁rey	-8.66583
▁ku	-8.66941
▁hermano	-8.66955
▁otra	-8.67315
▁Jesucristo	-8.67369
▁He	-8.67407
be	-8.67566
▁muchas	-8.67687
▁quien	-8.68324
ría	-8.68512
▁algo	-8.68543
▁país	-8.68644
▁dio	-8.68888
▁madre	-8.68923
▁Padre	-8.68996
▁palabra	-8.69204
▁P	-8.6926
▁omano	-8.69583
Mat	-8.69945
▁Como	-8.70184
we	-8.7019
▁Pa	-8.70372
f	-8.70692
▁demás	-8.71496
nchik	-8.71651
▁estar	-8.71739
▁persona	-8.71851
ite	-8.7195
▁imayna	-8.71982
▁po	-8.72503
▁hoy	-8.72545
ana	-8.72972
▁Upe	-8.72982
v	-8.72995
▁Mo	-8.73076
▁Te	-8.732
yta	-8.73278
lli	-8.73482
▁nuevo	-8.73567
."	-8.73611
▁quienes	-8.74081
jo	-8.74159
▁caso	-8.7431
▁testigos	-8.74386
▁web	-8.74412
▁unos	-8.74689
▁artículo	-8.75064
▁ary	-8.75438
▁información	-8.75673
▁runakuna	-8.75703
▁marandu	-8.75788
▁Pi	-8.76233
▁ri	-8.76434
▁tal	-8.76551
▁Así	-8.76553
▁je	-8.76694
10	-8.76949
▁omba	-8.76968
▁Además	-8.77014
xihuitl	-8.7719
▁Ya	-8.7744
▁icha	-8.77601
▁Chay	-8.7784
▁veces	-8.77957
▁También	-8.78145
hui	-8.78283
▁será	-8.78656
Y	-8.79017
▁tenemos	-8.79076
▁siervos	-8.79127
ciones	-8.79204
▁ou	-8.79233
▁mujer	-8.79444
▁21	-8.79478
su	-8.79644
▁niños	-8.79873
▁pachakwata	-8.79899
▁modo	-8.80013
▁kuimba	-8.80345
▁Una	-8.8037
▁ndo	-8.80429
spa	-8.80609
hi	-8.80975
▁ati	-8.81068
▁qui	-8.8112
▁discípulos	-8.8117
▁fueron	-8.81448
▁posible	-8.8163
G	-8.81651
ho	-8.81758
▁peve	-8.81843
tsi	-8.81879
rqa	-8.81914
▁Avei	-8.8193
▁Ro	-8.82036
▁suyupi	-8.82669
▁María	-8.82687
▁Ichaqa	-8.82846
▁Upéicha	-8.82886
</	-8.8295
▁kasqanta	-8.83005
▁“¿	-8.83032
▁mis	-8.83165
rán	-8.83207
▁be	-8.83318
▁guasu	-8.83419
▁buenas	-8.83842
za	-8.83861
▁ba	-8.83945
hu	-8.84613
▁seguir	-8.84685
No	-8.84733
▁ch	-8.84771
▁co	-8.85051
▁nada	-8.85069
B	-8.85146
▁poco	-8.85535
ñ	-8.85904
as	-8.86034
▁Él	-8.86039
▁Esta	-8.86184
▁ipy	-8.86272
▁agua	-8.86321
las	-8.86451
aka	-8.86595
Juan	-8.8682
▁obra	-8.86856
▁Na	-8.87553
▁aka	-8.87823
nankupaq	-8.88119
res	-8.8812
P	-8.88224
aite	-8.88425
gi	-8.88493
nanpaq	-8.8853
▁ho	-8.88927
▁dar	-8.88967
eha	-8.89357
▁mal	-8.89634
fi	-8.89667
▁jato	-8.89718
tapas	-8.89774
▁ki	-8.89838
▁iñe	-8.89872
▁allinta	-8.90177
ng	-8.9029
▁ama	-8.9053
ñe	-8.90549
▁cielo	-8.90735
▁tetã	-8.90951
▁piko	-8.91099
▁ustedes	-8.91106
▁T	-8.91159
▁servicio	-8.91229
▁u	-8.91251
▁kristiáno	-8.91269
▁mboyve	-8.91326
▁jisk	-8.91388
▁nuestras	-8.91445
▁otaq	-8.91595
▁chéve	-8.91804
▁Nacional	-8.91858
▁$	-8.9195
▁Che	-8.91988
▁primero	-8.92001
▁primer	-8.92115
▁entonces	-8.92206
▁Sa	-8.92273
▁Moisés	-8.92426
▁primera	-8.92503
▁Kay	-8.92562
nin	-8.92589
▁runa	-8.92708
pan	-8.92754
▁K	-8.92897
dor	-8.93275
▁nunca	-8.933
▁datos	-8.93458
▁poder	-8.93594
ise	-8.93631
▁tla	-8.93723
▁ichaqa	-8.93926
▁Palabra	-8.93973
▁U	-8.94058
▁medio	-8.94195
ä	-8.94347
ye	-8.94445
▁Upéicharõ	-8.94716
▁seguridad	-8.94797
N	-8.94833
yá	-8.94943
lu	-8.95048
▁momento	-8.95147
▁Upéva	-8.95253
▁Péicha	-8.95271
▁vivir	-8.95375
▁In	-8.95481
▁M	-8.95593
El	-8.95596
yuqmi	-8.95605
▁ohecha	-8.95671
▁multi	-8.95731
▁alguien	-8.95754
qué	-8.95757
▁mí	-8.95787
▁orekóva	-8.95861
hua	-8.96543
icha	-8.96747
▁nin	-8.96983
▁osẽ	-8.97166
▁ijetu	-8.9727
▁Internet	-8.97404
▁espiritual	-8.97531
▁tiémpo	-8.97572
▁Heta	-8.97631
La	-8.97705
▁NM	-8.97786
▁esposa	-8.98135
▁amo	-8.9829
▁tembiapo	-8.98344
véva	-8.98437
▁esa	-8.98489
▁hablar	-8.985
▁Chaymi	-8.98603
▁luego	-8.98739
▁hérava	-8.98801
▁péicha	-8.98856
▁deben	-8.99192
emos	-8.99238
▁mu	-8.99248
ju	-8.9925
com	-8.99326
▁ayudar	-8.99326
▁ir	-8.99366
Imaynatam	-8.9958
M	-8.99593
▁red	-8.99772
▁significa	-8.99789
▁Tu	-9.00115
▁ge	-9.0029
▁santo	-9.00556
▁haber	-9.00578
▁(19	-9.0059
▁sitio	-9.00623
▁Santa	-9.0069
▁tapicha	-9.00732
▁30	-9.00827
▁22	-9.00841
▁Paraguay	-9.00906
má	-9.00912
yu	-9.00938
T	-9.01025
▁Diosmanta	-9.01154
al	-9.01425
▁n	-9.01548
ria	-9.01561
▁achka	-9.01752
nqa	-9.01829
erãha	-9.01874
▁Salmo	-9.02125
▁chi	-9.02136
napaq	-9.0224
▁Ikatu	-9.02324
▁katuete	-9.02466
▁acerca	-9.02816
▁ñanduti	-9.02887
▁marka	-9.0294
▁LA	-9.0301
▁Piruw	-9.03039
ápe	-9.03234
▁humanos	-9.03287
paq	-9.03301
ran	-9.03486
er	-9.03684
▁Le	-9.03752
▁oreko	-9.03817
nu	-9.03931
▁Mateo	-9.03986
ll	-9.04125
▁ótro	-9.04285
midya	-9.04354
▁kapuyninkuna	-9.04449
▁warmi	-9.04601
▁ga	-9.04686
▁upépe	-9.048
cho	-9.04815
▁paz	-9.05139
mp	-9.05166
▁omo	-9.05189
▁ex	-9.05191
▁Aunque	-9.05242
▁ojejapo	-9.05261
Mateo	-9.05384
▁nuevas	-9.0549
▁pan	-9.05569
▁haguéicha	-9.0572
▁kñ	-9.05753
K	-9.05875
che	-9.06125
▁siguiente	-9.06142
▁Estados	-9.06167
▁gobierno	-9.06205
▁mayor	-9.06232
▁oikóva	-9.06259
▁oñeha	-9.06332
▁habían	-9.06401
▁Ni	-9.06406
os	-9.06424
nki	-9.06439
▁eran	-9.06448
▁mar	-9.06782
▁escribió	-9.07333
▁Estado	-9.07343
▁Oĩ	-9.07384
".	-9.07529
▁24	-9.07534
▁Jesuspa	-9.07573
▁oñembo	-9.07795
ẽme	-9.07815
▁oñepyrũ	-9.0785
J	-9.0788
kunaqa	-9.07911
▁Qué	-9.08049
chá	-9.08115
▁G	-9.08119
▁ancha	-9.08137
▁tomar	-9.08196
▁mbo	-9.08278
▁Jezreel	-9.08302
▁ohasa	-9.08694
Pe	-9.08793
▁sentido	-9.08948
▁tlen	-9.09271
sti	-9.09303
▁ñanepytyvõ	-9.09334
▁problemas	-9.09722
▁mensaje	-9.10011
▁ukat	-9.10074
▁aty	-9.10388
▁lengua	-9.10466
mbo	-9.10492
zo	-9.10689
▁sutiyuq	-9.10931
▁valor	-9.10942
▁aja	-9.11
▁mokõi	-9.11027
ãva	-9.11141
▁Timoteo	-9.11165
▁tekotevẽ	-9.11559
▁hinam	-9.11607
▁Ne	-9.11617
xi	-9.11695
▁Ru	-9.11862
firefox	-9.12018
gue	-9.12155
ji	-9.12496
▁ancianos	-9.12582
▁25	-9.12711
▁iñiqmasinchik	-9.12716
ary	-9.12769
R	-9.12776
anga	-9.12838
De	-9.12908
▁aswan	-9.13066
▁omomba	-9.13314
▁piensa	-9.13421
sta	-9.13461
En	-9.13602
nka	-9.1361
▁preguntas	-9.13862
nti	-9.13921
▁predicar	-9.14123
ty	-9.14188
▁servir	-9.14199
20	-9.14207
kin	-9.14528
5	-9.14653
▁buena	-9.14814
▁non	-9.14829
fa	-9.15053
ánte	-9.15168
nan	-9.15174
▁tarde	-9.15309
▁Adán	-9.15426
▁incluso	-9.15451
▁Ahora	-9.15627
apy	-9.15678
▁aquí	-9.15753
L	-9.15829
▁justicia	-9.15859
▁hatun	-9.15875
▁pyahu	-9.15883
▁cualquier	-9.16044
Imatam	-9.16112
▁ndéve	-9.1618
▁ke	-9.16259
span	-9.16441
▁Yo	-9.16496
D	-9.1657
▁allí	-9.16674
▁persóna	-9.16701
▁pre	-9.16763
xon	-9.16785
▁estado	-9.16894
▁pachapi	-9.16905
▁menos	-9.1708
▁fuera	-9.17082
▁Lima	-9.1716
▁*	-9.17195
▁hemos	-9.17415
▁estudio	-9.17432
▁gueteri	-9.17511
▁ojapóva	-9.17519
▁jaikuaa	-9.17603
ara	-9.17702
▁duda	-9.17924
▁favor	-9.1796
▁tus	-9.17986
▁camino	-9.17993
rí	-9.18007
▁īpan	-9.18076
1	-9.18178
▁estaban	-9.18227
Ima	-9.18259
▁ape	-9.18285
▁Upéi	-9.18324
taqmi	-9.18332
▁qo	-9.184
▁apytépe	-9.18602
▁Ba	-9.18643
▁mujeres	-9.18767
▁Corintios	-9.18767
arõ	-9.18806
▁wa	-9.18899
▁Entonces	-9.19029
▁Artículo	-9.19061
▁ante	-9.19295
▁siglo	-9.19635
rnos	-9.19832
▁mayu	-9.19848
▁situación	-9.19854
▁millones	-9.19937
shi	-9.19984
lea	-9.2034
▁Escrituras	-9.20501
tzin	-9.20508
▁pensar	-9.20566
▁jóvenes	-9.2058
▁Co	-9.20642
mpi	-9.20661
▁asy	-9.20973
▁chaynataq	-9.2105
▁upéi	-9.21133
ay	-9.21243
elee	-9.21296
▁23	-9.21372
▁Cha	-9.21379
háicha	-9.21397
tsa	-9.21456
▁Ñande	-9.21466
▁xihuitl	-9.21634
▁pruwinsyapi	-9.21664
U	-9.2168
▁astawan	-9.21803
▁bo	-9.21825
▁mientras	-9.21876
▁gotyo	-9.22041
▁habla	-9.22091
▁grupo	-9.22136
▁wata	-9.22155
du	-9.22157
▁sistema	-9.22175
▁bajo	-9.22176
sun	-9.22176
▁Jerusalén	-9.22199
▁saber	-9.22226
ua	-9.22258
▁Po	-9.22272
▁xa	-9.22353
▁cristiano	-9.22448
▁Mācuīlpōhual	-9.22482
▁llaqtam	-9.22547
llo	-9.2267
▁quiere	-9.22671
▁pasado	-9.22691
▁Abrahán	-9.22809
▁múndo	-9.22876
con	-9.22882
ul	-9.23034
▁Unidos	-9.23129
▁chugui	-9.23251
sh	-9.23372
▁Santiago	-9.23397
▁organización	-9.23442
▁ministerio	-9.23457
▁seres	-9.23572
aqa	-9.23674
▁esperanza	-9.23712
▁cual	-9.23788
▁ndaikatúi	-9.2393
ado	-9.24023
▁Hijo	-9.24095
▁km	-9.24145
pim	-9.24295
▁sólo	-9.24331
▁israelitas	-9.24403
▁cu	-9.24467
▁Vi	-9.24638
▁tuvo	-9.2472
▁yanapa	-9.24839
▁misma	-9.24857
▁historia	-9.25063
▁N	-9.25069
ry	-9.25105
▁Después	-9.2518
▁opensa	-9.25239
▁hu	-9.25272
▁Li	-9.25764
▁pro	-9.25836
ére	-9.25881
▁ve	-9.25889
▁aunque	-9.25957
▁oguereko	-9.25978
▁karqan	-9.26049
▁Tim	-9.26134
▁cuatro	-9.26145
ẽrendu	-9.26323
rio	-9.26402
▁wakin	-9.26514
nda	-9.26544
▁Hi	-9.26691
▁B	-9.27007
▁Esto	-9.27055
▁runaqa	-9.27108
ge	-9.27157
▁ikatúva	-9.27337
▁conocer	-9.27394
▁punto	-9.27417
“	-9.27443
30	-9.27455
eterei	-9.27465
fe	-9.2747
era	-9.2749
úva	-9.275
eguasu	-9.27575
▁igual	-9.27658
▁F	-9.27749
▁algunas	-9.27881
▁buen	-9.27994
▁ce	-9.2804
gov	-9.28189
▁hetaiterei	-9.28222
▁salud	-9.28238
ten	-9.28338
▁Job	-9.28373
▁R	-9.28397
rqaku	-9.28426
▁zona	-9.28585
té	-9.28842
▁Je	-9.28842
ste	-9.28845
▁futuro	-9.28863
▁idioma	-9.28867
▁jaiko	-9.2887
tla	-9.2892
org	-9.28921
▁Ku	-9.29088
▁grande	-9.29436
▁derecho	-9.29455
▁ika	-9.29549
F	-9.29733
▁acuerdo	-9.2978
▁dios	-9.29826
▁podría	-9.29928
▁ea	-9.30047
▁pecado	-9.30122
rin	-9.3016
▁cuerpo	-9.30438
hína	-9.30527
▁Señor	-9.30626
por	-9.30642
▁aprender	-9.30672
▁relación	-9.30744
ita	-9.30829
ño	-9.30841
▁itan	-9.30935
▁lívro	-9.30974
qu	-9.31061
▁mil	-9.31069
▁ru	-9.31264
▁opyta	-9.31341
▁Saywitu	-9.31389
▁oservi	-9.31389
▁pacha	-9.31482
▁pende	-9.3152
▁To	-9.31591
▁Chi	-9.31598
▁fieles	-9.31675
▁ju	-9.31691
▁tiémpope	-9.31884
▁sapa	-9.32013
▁min	-9.32023
▁nisqa	-9.32094
nak	-9.3216
tra	-9.32193
▁falta	-9.32218
▁wali	-9.3239
▁28	-9.32512
▁oñeme	-9.32733
▁hacia	-9.32737
▁llegar	-9.32883
▁principio	-9.32984
sión	-9.33034
",	-9.33093
taqa	-9.33271
▁tenda	-9.335
▁hetave	-9.33538
▁Di	-9.33541
▁reuniones	-9.33596
▁estamos	-9.3367
▁cerca	-9.33732
pyre	-9.33751
Che	-9.3397
▁provincia	-9.34
▁miembros	-9.34108
▁amigos	-9.34137
4	-9.34158
tin	-9.34294
▁ungidos	-9.3449
3	-9.3452
▁según	-9.3453
iha	-9.34628
▁chayna	-9.34641
▁kuti	-9.34646
ir	-9.34802
▁2011	-9.34805
káda	-9.34839
▁Isaías	-9.34856
ró	-9.3494
▁enseña	-9.35141
õ	-9.35355
6	-9.35394
st	-9.35411
yku	-9.35572
▁ukax	-9.35617
is	-9.35643
un	-9.35711
tá	-9.35739
▁ovy	-9.35778
▁Daniel	-9.35994
▁paqarisqa	-9.36116
▁matrimonio	-9.36223
▁Ña	-9.36328
▁nueva	-9.36552
kue	-9.36622
▁diciembre	-9.36727
▁mara	-9.3673
▁voluntad	-9.36771
▁Comunes	-9.36923
▁ikatuha	-9.36995
▁bíblicos	-9.37029
▁cabeza	-9.37029
▁uso	-9.37125
ai	-9.37194
us	-9.372
▁razón	-9.37249
▁Bíbliape	-9.37326
▁Chayna	-9.37341
▁Pór	-9.37409
▁chaymi	-9.37535
kana	-9.37581
▁&	-9.37656
▁templo	-9.37807
gu	-9.37829
▁Pu	-9.37848
▁ye	-9.37865
▁meme	-9.37934
tl	-9.37936
▁propósito	-9.38014
ngún	-9.38024
kena	-9.38037
▁Mar	-9.38067
▁Rey	-9.38099
▁opredika	-9.38103
▁dinero	-9.38322
▁táva	-9.38343
▁ojos	-9.38532
▁yvágape	-9.38538
▁número	-9.38602
kunam	-9.3863
▁%1$	-9.3864
▁Distrito	-9.38698
éicha	-9.3885
▁noche	-9.3886
7	-9.38889
▁Jesusqa	-9.38897
▁realmente	-9.39006
▁joven	-9.39152
▁rei	-9.3931
▁omoĩ	-9.3951
▁umíva	-9.39567
▁algún	-9.39846
▁tú	-9.39879
▁Cómo	-9.40009
▁Uma	-9.40013
▁pórke	-9.40033
▁llama	-9.40051
▁jo	-9.40098
▁Luis	-9.40135
▁jahecha	-9.40145
idad	-9.40159
épe	-9.40235
cia	-9.40241
▁sapy	-9.40242
▁dado	-9.40327
▁jepi	-9.40425
_	-9.40429
▁moa	-9.40445
▁llevar	-9.40524
▁akin	-9.40535
▁jawen	-9.40537
▁Jehováre	-9.40828
▁entender	-9.4087
▁efecto	-9.40895
ver	-9.41099
ble	-9.41137
▁X	-9.41208
▁mano	-9.41287
ãnga	-9.41314
Ñandejára	-9.41384
▁guerra	-9.41816
▁haya	-9.41996
▁fiel	-9.42006
▁explica	-9.42006
yuq	-9.42076
▁xi	-9.4208
▁leer	-9.42122
▁mayoría	-9.4217
▁reino	-9.42186
pegua	-9.42199
▁bueno	-9.42272
%	-9.42373
▁Ri	-9.42433
▁Noé	-9.42447
kuri	-9.42488
can	-9.42514
▁26	-9.42756
mana	-9.42849
H	-9.4285
▁31	-9.42854
▁vista	-9.42859
▁Ley	-9.42868
sqanmanta	-9.42925
▁Lucas	-9.42928
▁niño	-9.43
▁Eva	-9.43005
▁aún	-9.43015
sqanta	-9.43182
Salmo	-9.43285
ntes	-9.43428
▁sánto	-9.4345
................	-9.4345
▁causa	-9.43495
▁29	-9.43605
vy	-9.4363
▁hanaq	-9.43632
ada	-9.43647
▁hacen	-9.43735
▁riki	-9.43735
Rom	-9.43742
▁27	-9.4378
▁ohechakuaa	-9.44104
▁muestra	-9.44124
▁janiw	-9.44176
Ha	-9.44182
▁cierto	-9.4419
▁Ga	-9.44214
▁kachkan	-9.44242
▁oike	-9.4434
▁ita	-9.44378
▁haguã	-9.44382
▁murió	-9.44431
kunawan	-9.44477
▁vy	-9.44578
▁través	-9.4469
▁final	-9.44727
▁Ti	-9.44776
▁nadie	-9.44833
▁República	-9.44913
dores	-9.44975
▁río	-9.4505
▁imba	-9.45137
▁cinco	-9.4531
yqa	-9.45335
tos	-9.4535
ec	-9.45447
▁cuanto	-9.45457
▁we	-9.45531
▁reko	-9.45749
Imanasqa	-9.45766
̱	-9.45856
▁réra	-9.45884
▁pu	-9.45934
lí	-9.45948
▁Oje	-9.45998
▁principios	-9.46025
▁consejo	-9.46075
▁kasqanmanta	-9.46197
▁hembiapo	-9.4633
ũ	-9.46336
▁oheja	-9.46356
▁tuicha	-9.46367
▁qu	-9.46412
▁aru	-9.46436
▁q	-9.46708
▁kuya	-9.46893
▁mediante	-9.47035
▁diferentes	-9.47096
▁prueba	-9.47233
▁código	-9.47239
▁edad	-9.47266
▁somos	-9.47271
▁usar	-9.47348
▁2.	-9.47357
ê	-9.47375
ax	-9.47581
▁mia	-9.47681
▁hermana	-9.4782
▁clase	-9.47882
▁texto	-9.47939
▁pasa	-9.47946
▁esposo	-9.48064
8	-9.48086
tó	-9.48103
tica	-9.48143
▁)	-9.48266
▁jach	-9.48343
◄	-9.48385
men	-9.48401
►	-9.48608
▁ojapova	-9.48734
lia	-9.48749
▁dejar	-9.48797
▁Brasil	-9.48875
▁oiporu	-9.49069
▁confianza	-9.49123
ata	-9.49146
▁ñanderehe	-9.49148
▁ermána	-9.49208
▁kongregasiónpe	-9.49212
▁atención	-9.49308
▁yvypóra	-9.49313
▁oipota	-9.49328
ẽñemi	-9.49339
lá	-9.49395
nd	-9.49685
▁tipo	-9.49738
▁▪	-9.49831
▁rréi	-9.4989
▁tenían	-9.4992
▁podía	-9.49966
▁seguro	-9.50058
▁pya	-9.50215
▁vi	-9.50273
▁héntepe	-9.50334
▁Ar	-9.50396
▁Francisco	-9.50411
rre	-9.50421
▁(*	-9.50439
▁ruwa	-9.50483
▁muna	-9.50543
▁Porque	-9.50593
▁D	-9.50715
kunamanta	-9.5072
▁so	-9.50773
▁países	-9.50856
▁encontrar	-9.51132
▁uru	-9.51148
▁can	-9.51165
▁opavave	-9.51182
▁oración	-9.51219
▁runakunata	-9.51259
▁Carlos	-9.51362
▁llaqta	-9.51383
▁mitã	-9.51443
▁porãve	-9.51453
▁predicación	-9.51461
▁3:	-9.51528
▁yoyo	-9.51597
tas	-9.51622
▁Hu	-9.51624
ían	-9.51692
▁anciano	-9.51713
▁escuela	-9.51802
▁Jo	-9.51823
▁testígo	-9.51834
sia	-9.5205
▁Ana	-9.5215
▁Wa	-9.52217
▁respuesta	-9.52297
▁dirección	-9.52337
▁fácil	-9.52429
▁vove	-9.52463
▁opaite	-9.52516
ñataqmi	-9.52528
▁og̃uahẽ	-9.52531
▁comunidad	-9.52561
▁wan	-9.52583
▁konsého	-9.52733
*	-9.52825
▁ellas	-9.52853
▁ansiáno	-9.52997
▁kuña	-9.53345
ekuaarã	-9.53386
lle	-9.53477
áva	-9.53538
aya	-9.53544
▁lliw	-9.53749
▁serán	-9.5386
▁Marco	-9.53982
cio	-9.54081
▁tee	-9.54106
des	-9.54118
▁judíos	-9.54259
▁lugár	-9.54274
kunapi	-9.54354
▁Más	-9.54366
▁c	-9.54388
ná	-9.54507
00	-9.54521
▁grandes	-9.54531
tar	-9.54587
▁peteî	-9.54632
▁kongregasión	-9.548
▁wi	-9.54804
▁sería	-9.54861
▁hesekuéra	-9.54904
▁Salomón	-9.54987
mpa	-9.55217
Es	-9.55224
▁oñangareko	-9.55314
▁Huk	-9.55389
véta	-9.55425
nia	-9.55444
tia	-9.55571
▁osegi	-9.55644
▁difícil	-9.55747
▁́	-9.55767
▁Hay	-9.55922
▁mantener	-9.55942
▁realidad	-9.55957
TA	-9.55966
nakax	-9.55987
cua	-9.56007
▁Samuel	-9.56048
▁general	-9.56049
at	-9.56066
aguapy	-9.56075
▁pregunta	-9.56274
PE	-9.563
▁Diablo	-9.56313
▁decisión	-9.56313
▁uan	-9.56313
▁ipan	-9.56354
▁espirituales	-9.56362
▁niko	-9.56387
▁ojerure	-9.56442
uh	-9.56443
ts	-9.56474
▁1:	-9.56499
▁tiempopi	-9.56565
▁araka	-9.56658
9	-9.56667
▁oñemoĩ	-9.56679
ter	-9.56717
▁L	-9.56782
▁2:	-9.56871
nes	-9.56891
nde	-9.57034
▁bondad	-9.57053
-19	-9.57073
▁necesita	-9.57092
▁oĩha	-9.5715
▁humanidad	-9.5717
ekuére	-9.57212
▁contenido	-9.57251
kan	-9.57334
kuq	-9.57373
5).	-9.57379
mbi	-9.5753
ỹre	-9.5756
▁navegador	-9.57651
▁imapas	-9.57686
▁tayta	-9.5772
▁Da	-9.57726
▁campo	-9.57883
▁V	-9.57891
▁entéro	-9.5804
▁problema	-9.58104
▁hendive	-9.5817
▁presidente	-9.58179
iterei	-9.58195
▁cristiana	-9.58296
▁llegó	-9.58333
▁amistad	-9.58564
▁pesar	-9.58572
Jehová	-9.5859
▁Roma	-9.58883
▁dicho	-9.59066
mby	-9.59079
▁Mana	-9.59089
▁fuerte	-9.59107
▁largo	-9.59117
cal	-9.59188
▁sumaq	-9.59212
▁Miguel	-9.59236
Luc	-9.59244
▁responsabilidad	-9.59318
▁autoridad	-9.59463
▁completo	-9.59483
▁lado	-9.59522
▁Tal	-9.59619
nto	-9.59622
▁poguýpe	-9.59651
kua	-9.59762
▁conocimiento	-9.59777
▁iskay	-9.59817
▁hacerlo	-9.59885
remos	-9.59927
▁comer	-9.59938
▁Antonio	-9.59953
wanmi	-9.59961
▁sabiduría	-9.5998
▁bíblico	-9.59987
▁segundo	-9.60036
guáva	-9.60041
▁llaqtanqa	-9.60196
▁don	-9.60379
▁uñt	-9.60439
▁Ki	-9.60491
▁quería	-9.60497
umi	-9.60578
▁Que	-9.60602
▁II	-9.60677
▁2013	-9.60776
nt	-9.60832
baon	-9.60836
▁gracias	-9.60855
▁Ama	-9.61001
▁chaski	-9.61087
▁eterna	-9.61149
▁Sara	-9.61168
▁yachay	-9.61244
eva	-9.61288
▁jahechauka	-9.61303
▁pene	-9.61315
▁provléma	-9.6138
▁profeta	-9.61416
▁Jesus	-9.61627
▁archivo	-9.6165
OS	-9.61707
▁vése	-9.61803
▁Egipto	-9.61852
▁Bo	-9.61867
▁iporã	-9.62059
▁animales	-9.62106
▁llamado	-9.62175
reko	-9.6222
strong	-9.62282
▁1,	-9.62304
▁varios	-9.62373
▁cho	-9.62385
▁kaynata	-9.62416
rra	-9.62427
▁ñañeha	-9.62481
▁Lu	-9.62557
ina	-9.62595
▁hora	-9.62632
▁estudiar	-9.62651
uka	-9.62662
raq	-9.62905
▁obras	-9.62943
▁ixon	-9.62954
▁Be	-9.63002
▁carta	-9.6301
▁conciencia	-9.63018
ida	-9.63062
▁trata	-9.63074
▁cambio	-9.63081
vape	-9.63194
▁ramo	-9.63241
▁semana	-9.63402
▁necesario	-9.63456
véi	-9.63535
ck	-9.63605
▁siete	-9.63616
▁línea	-9.63616
u̱	-9.63643
50	-9.63652
▁Jesúspe	-9.63667
▁Q	-9.63749
▁decisiones	-9.63788
▁ohóvo	-9.63841
▁tras	-9.63876
ton	-9.6389
▁especial	-9.63891
▁sabe	-9.63968
▁Sam	-9.64003
▁México	-9.64203
▁qawa	-9.6422
Génesis	-9.64228
▁alguna	-9.6424
ati	-9.64248
▁Chaymantapas	-9.64363
0	-9.64458
.”	-9.64466
▁Mayukuna	-9.64514
▁iporãva	-9.6459
▁lee	-9.64598
ñam	-9.6462
▁tiempos	-9.64685
nanchik	-9.64729
▁–	-9.64743
▁wañusqa	-9.64803
▁desea	-9.64862
▁punchaw	-9.64893
▁rembiapo	-9.64938
▁ukan	-9.64966
Vea	-9.65034
bu	-9.65049
▁fuerza	-9.6509
▁oipuru	-9.65226
▁ayudará	-9.65267
▁ojerovia	-9.65358
ĩ	-9.65387
▁hinalla	-9.6548
▁Rosa	-9.65528
▁oikove	-9.6555
▁cē	-9.65566
▁verdadero	-9.65583
▁recibir	-9.65594
ribi	-9.6561
paite	-9.65653
▁Mu	-9.6574
▁tema	-9.65759
▁libertad	-9.65967
iri	-9.65976
séva	-9.66077
▁mismos	-9.66107
▁haciendo	-9.66111
▁échi	-9.66218
▁willa	-9.66238
▁yma	-9.66268
rika	-9.66325
▁visto	-9.66476
▁li	-9.66481
▁Tayta	-9.6651
▁naciones	-9.66557
nman	-9.6657
▁mañana	-9.66571
▁llaqtayuq	-9.66602
▁nda	-9.66626
ncia	-9.66913
▁siendo	-9.66925
▁Cu	-9.6697
▁aymara	-9.67107
ia	-9.67146
▁H	-9.67237
▁público	-9.67321
▁6:	-9.67424
▁Ped	-9.67566
▁Constitución	-9.6757
▁rrelihión	-9.67627
ỹijo	-9.6767
▁Mozilla	-9.67827
kunapa	-9.67833
eichaitépa	-9.67866
▁runakunam	-9.6792
▁vino	-9.68073
▁juicio	-9.68076
▁Jehú	-9.68109
▁sean	-9.68147
▁carne	-9.68363
nmi	-9.68382
▁Ministerio	-9.68406
">	-9.68446
▁imatapas	-9.68522
xo	-9.68708
ari	-9.6871
▁iba	-9.68818
▁todavía	-9.69014
▁Pro	-9.69027
▁mes	-9.69107
ine	-9.69174
▁Según	-9.69222
▁sonqo	-9.69223
▁añoite	-9.69284
V	-9.69314
ká	-9.69376
ima	-9.69468
▁rura	-9.69576
▁meta	-9.69589
▁família	-9.69692
▁ynic	-9.69752
nga	-9.6977
▁deseo	-9.69833
tsie	-9.6985
▁actitud	-9.69867
▁ojepy	-9.69923
th	-9.69949
▁dentro	-9.69998
sqan	-9.70108
kunatam	-9.70138
kama	-9.70169
▁Proverbios	-9.70216
Ko	-9.70226
▁Ju	-9.70227
▁Cabeza	-9.70231
▁yacha	-9.70271
▁2012	-9.7028
}	-9.70325
miento	-9.7044
▁qillqa	-9.70441
▁ñanepytyvõta	-9.70568
▁nación	-9.70594
léase	-9.70598
▁Nueva	-9.70637
▁on	-9.707
▁Diosman	-9.70734
▁ohupyty	-9.70813
aiterei	-9.70839
▁región	-9.70844
sen	-9.70876
▁voz	-9.70888
▁Todos	-9.70956
▁J	-9.71059
ero	-9.71092
▁ñañe	-9.71093
▁junto	-9.71158
▁Romanos	-9.71216
Prov	-9.71239
Si	-9.71288
leey	-9.7129
▁aquel	-9.71361
▁kanqa	-9.71406
▁rangue	-9.71422
▁síno	-9.71473
bra	-9.71583
▁qhichwa	-9.71707
▁Ho	-9.71743
▁’,	-9.71756
▁oha	-9.71764
▁ohendu	-9.71779
Lucas	-9.7187
llu	-9.71884
ú	-9.71885
▁luz	-9.71886
cómo	-9.72079
iti	-9.72097
▁akóinte	-9.72149
▁verdadera	-9.72242
áta	-9.72248
▁Añetehápe	-9.72261
ýra	-9.72313
▁publicaciones	-9.7234
ë	-9.72368
▁sabía	-9.72572
▁karai	-9.72581
▁evitar	-9.72587
▁Quchakuna	-9.72591
▁Yvy	-9.7268
▁añetehápe	-9.7269
Hech	-9.72776
▁>	-9.72791
▁ojo	-9.73116
Heb	-9.73281
▁cumplir	-9.73293
dia	-9.73306
?”.	-9.73377
▁Algunos	-9.73418
▁nota	-9.73435
ekuépe	-9.73443
▁viven	-9.73493
▁h	-9.73685
▁ello	-9.73742
▁Asunción	-9.73755
▁noa	-9.73917
▁ojekuaa	-9.73929
▁respeto	-9.74001
▁san	-9.74018
ón	-9.74024
ekuaa	-9.74203
▁permite	-9.74236
▁encuentra	-9.74256
▁Ñandejárare	-9.74313
▁renda	-9.74318
▁Marcos	-9.74393
ani	-9.74467
▁Urqukuna	-9.745
▁2010	-9.74526
▁manos	-9.74552
▁Oñe	-9.74589
▁lista	-9.74615
cas	-9.74631
▁ÑÑB	-9.74639
ãiha	-9.74651
▁correo	-9.74676
▁Puede	-9.74781
▁chuya	-9.7491
▁odesidi	-9.75059
▁imagen	-9.75114
▁Hoy	-9.75179
▁celestial	-9.75302
▁uma	-9.75306
▁nació	-9.7533
car	-9.75379
▁versión	-9.75443
▁marca	-9.75581
▁debido	-9.75621
▁sol	-9.75621
▁kan	-9.75732
▁pasar	-9.75902
▁Paraguái	-9.75928
Ja	-9.75933
▁jaqi	-9.75958
▁Rréino	-9.75982
▁feliz	-9.76017
▁Universidad	-9.76078
▁go	-9.7611
▁kanman	-9.76122
▁cualidades	-9.76227
tero	-9.76277
▁kananpaq	-9.76308
▁noñe	-9.76327
▁goviérno	-9.76394
▁jerovia	-9.76477
▁principal	-9.765
▁poner	-9.76524
▁♪	-9.76525
▁uyari	-9.76712
▁menudo	-9.76754
▁4:	-9.7676
▁proyecto	-9.76778
tan	-9.76847
▁trabajar	-9.76862
▁oikóta	-9.76877
una	-9.7691
▁casi	-9.76988
gra	-9.76992
▁desarrollo	-9.77016
▁Mesías	-9.77016
Gén	-9.7709
▁javy	-9.77092
▁ovejas	-9.77121
▁buscar	-9.77151
ngo	-9.77595
▁ihuan	-9.77657
▁actividades	-9.77763
▁papel	-9.77793
sto	-9.77795
▁ikatúta	-9.77806
▁joi	-9.77817
▁kawsa	-9.77817
mar	-9.77973
▁últimos	-9.78005
gob	-9.78032
▁quién	-9.78038
▁cambiar	-9.78149
▁leyes	-9.7816
▁consejos	-9.78208
▁quechua	-9.7827
Re	-9.78357
▁parece	-9.78469
▁oporo	-9.78548
▁hicieron	-9.7864
▁tari	-9.78645
▁cuidado	-9.78674
▁lleva	-9.78716
it	-9.78797
▁runakunapa	-9.78862
▁Testigos	-9.78891
▁iti	-9.7901
▁entiende	-9.79032
▁comenzó	-9.79139
▁ītōcā	-9.79172
▁rima	-9.79186
▁programa	-9.79302
▁derechos	-9.79359
jey	-9.79403
▁oñondive	-9.79408
ras	-9.79479
▁centro	-9.79503
▁páhina	-9.7951
▁mapu	-9.79607
▁estudia	-9.79631
▁Ciudad	-9.79698
▁href	-9.79912
Hechos	-9.79941
sqankuta	-9.79969
▁propio	-9.7997
18	-9.7998
▁dejó	-9.79987
▁razones	-9.79996
▁ombohovái	-9.80196
▁ñanembo	-9.80323
▁amigo	-9.80364
▁á	-9.8037
▁nisqanman	-9.80446
▁único	-9.80522
▁ñamomba	-9.80635
▁40	-9.8064
▁Chu	-9.80688
▁tape	-9.807
▁Auh	-9.80761
▁ven	-9.80797
▁adoración	-9.80804
▁12:	-9.8082
▁mato	-9.80843
▁renondépe	-9.80862
▁oportunidad	-9.80957
pxi	-9.81007
▁párrafo	-9.81049
moĩ	-9.81068
ación	-9.81113
▁5,	-9.8117
▁propia	-9.81181
▁sur	-9.8133
▁cabo	-9.81393
▁Upépe	-9.81476
.*	-9.81593
ygua	-9.81604
▁cosa	-9.81635
kuy	-9.81745
▁páginas	-9.81817
80	-9.819
▁Argentina	-9.82017
▁Betel	-9.82033
▁ángeles	-9.82051
▁do	-9.82155
▁guaraní	-9.82193
cer	-9.82197
▁sy	-9.8226
▁señor	-9.82308
▁Atalaya	-9.8234
▁yoia	-9.82419
▁kasuku	-9.82507
▁mbohapy	-9.82518
▁puso	-9.82519
▁hinaspam	-9.82676
▁5:	-9.82731
▁control	-9.82744
▁rembipota	-9.82756
▁pronto	-9.82873
▁rejapo	-9.82897
▁auh	-9.82918
▁runakunaqa	-9.83007
iko	-9.83069
▁Durant	-9.83104
▁indica	-9.83132
▁Luego	-9.83141
▁educación	-9.83179
▁compañeros	-9.83209
short	-9.83447
▁Ella	-9.83455
▁artíkulo	-9.83475
▁chura	-9.83526
cen	-9.83587
▁hubiera	-9.83628
▁meses	-9.83648
▁distrito	-9.83734
▁vio	-9.83742
▁tsa	-9.83776
▁objetivo	-9.83797
▁apóstoles	-9.83826
▁experiencia	-9.83835
▁personal	-9.83872
▁oime	-9.83949
▁s	-9.84238
▁Apóstol	-9.84261
▁octubre	-9.84332
▁ñapensa	-9.84382
▁nato	-9.84384
▁Mbo	-9.84427
Se	-9.84626
▁sigue	-9.84634
▁libre	-9.84647
ame	-9.84741
▁oñeñandu	-9.84822
▁apoyo	-9.8484
▁léi	-9.84874
▁aña	-9.84902
▁papa	-9.84909
▁castellano	-9.85069
▁reñói	-9.85077
mí	-9.85114
▁kusisqa	-9.85149
▁inglés	-9.8526
oka	-9.85293
▁mente	-9.85318
▁pequeña	-9.85443
llan	-9.85472
▁ánhel	-9.85532
▁distritu	-9.85546
ur	-9.85575
16	-9.85623
▁of	-9.85644
▁protección	-9.85647
▁shinan	-9.85663
▁joni	-9.85705
▁sacrificio	-9.85731
▁sangre	-9.85759
▁50	-9.85797
▁EN	-9.85835
▁sabemos	-9.85855
▁Bibliapa	-9.85888
▁...	-9.85951
▁alma	-9.85971
°	-9.8601
▁comida	-9.86054
lé	-9.86147
▁33	-9.86197
▁pruebas	-9.86203
▁enseñar	-9.86213
tro	-9.86249
▁Bi	-9.86277
▁importancia	-9.86297
▁puesto	-9.86332
npi	-9.86364
▁árape	-9.86483
▁#	-9.86521
▁reunión	-9.86549
\	-9.86565
▁situasión	-9.86577
▁taha	-9.8661
▁vamos	-9.86704
▁“¡	-9.86803
▁chu	-9.86812
▁okambia	-9.86824
▁mundial	-9.86857
▁enfermedad	-9.86857
nanku	-9.86908
▁Gran	-9.86971
piqa	-9.87079
▁%(	-9.87129
ẽnguéra	-9.87224
▁may	-9.87339
▁lugares	-9.87376
PA	-9.87409
▁ninguna	-9.87527
▁juk	-9.87566
▁Tla	-9.87568
▁payqa	-9.87747
▁oñemo	-9.87784
▁respeta	-9.87805
▁."	-9.87859
▁política	-9.87863
▁mostrar	-9.87885
▁jatian	-9.87923
▁allá	-9.87941
Pro	-9.8799
▁seis	-9.88001
▁bíblicas	-9.88003
▁4.	-9.88024
cion	-9.88029
ꟲ	-9.88036
▁alegría	-9.88036
▁ji	-9.88058
▁marzo	-9.88061
▁siémpre	-9.88073
▁espera	-9.88075
▁resultado	-9.88103
có	-9.8813
▁último	-9.88146
▁volver	-9.88237
son	-9.88281
rupi	-9.88296
▁Desde	-9.88319
▁Man	-9.88333
gar	-9.88355
▁dicen	-9.88368
▁escuchar	-9.88526
▁Hechos	-9.8858
▁Ani	-9.88581
▁idea	-9.88608
eño	-9.88615
nas	-9.88615
▁social	-9.88689
▁religión	-9.88698
▁horas	-9.88705
▁acceso	-9.88772
ven	-9.88868
▁́mi	-9.88872
▁iká	-9.88892
▁Facebook	-9.88928
▁pudo	-9.8896
​	-9.89098
▁realizar	-9.89137
▁ts	-9.89252
▁@	-9.89258
tza	-9.89267
▁respecto	-9.8929
▁queremos	-9.89302
▁punta	-9.89392
jerovia	-9.89438
▁100	-9.89511
tor	-9.89544
tima	-9.89615
▁10).	-9.8963
60	-9.89645
Cuál	-9.89753
nanchikpaq	-9.89835
▁vive	-9.89864
▁kallpanchaku	-9.89865
nqaku	-9.89931
▁tantea	-9.90043
▁diez	-9.90045
▁amar	-9.90048
ik	-9.9009
▁EL	-9.90144
▁teko	-9.90322
▁Veamos	-9.90328
▁Payqa	-9.90352
▁qucha	-9.90471
ando	-9.90499
▁Manam	-9.90507
▁katt	-9.90534
▁kamachi	-9.90541
▁varias	-9.90695
▁profesor	-9.90698
▁ashaninka	-9.9074
naypaq	-9.90838
éta	-9.9085
ira	-9.90905
▁ivaíva	-9.90926
▁So	-9.90928
▁cheqap	-9.90959
▁kuatia	-9.90977
pó	-9.91038
▁oikova	-9.91053
tava	-9.91119
sqankumanta	-9.91135
▁siguientes	-9.91135
▁suma	-9.91145
ky	-9.91161
▁tratar	-9.91186
▁importantes	-9.9123
▁uñnaqa	-9.91238
tes	-9.91316
▁5.	-9.91338
▁buenos	-9.91365
RE	-9.91443
▁Jacob	-9.91454
▁kaptinpas	-9.91466
▁oraciones	-9.91478
▁oúva	-9.91488
Dios	-9.91533
kó	-9.91558
▁kuatiarogue	-9.91617
▁frente	-9.91628
▁3.	-9.91685
amongeta	-9.91732
▁Piruwpi	-9.91734
▁kundahára	-9.91746
▁Mama	-9.91747
▁guía	-9.91786
▁wasi	-9.91833
▁toma	-9.91843
▁cielos	-9.91863
▁héra	-9.91931
▁Bolivia	-9.91934
tal	-9.91946
▁hará	-9.91981
rro	-9.92016
▁’.	-9.92044
▁árbol	-9.92063
▁Car	-9.92202
yoq	-9.9222
Q	-9.92231
▁orden	-9.92246
▁Jahechamína	-9.92343
nchu	-9.92344
▁gusta	-9.92399
▁supuesto	-9.92515
▁aquellos	-9.92602
▁upéicharõ	-9.92697
▁ajapo	-9.9272
▁claro	-9.92749
ados	-9.92798
▁Ch	-9.92805
▁ocho	-9.92837
▁jesús	-9.92839
▁Babilonia	-9.9291
▁ayudó	-9.92916
▁dolor	-9.93024
▁sola	-9.93081
▁2014	-9.93205
rus	-9.93272
▁alto	-9.93284
▁phaxsin	-9.93296
▁medios	-9.93357
chwan	-9.93408
▁interés	-9.9342
▁mañaku	-9.93433
eporã	-9.93465
kunapaq	-9.93558
gá	-9.93616
▁error	-9.93641
▁ohayhu	-9.93708
▁van	-9.93879
mantam	-9.9388
▁llena	-9.93918
▁demostrar	-9.94011
▁tengo	-9.94038
nko	-9.94047
▁oficial	-9.94083
19	-9.94089
▁fuego	-9.94178
véima	-9.94224
imo	-9.94298
▁justo	-9.94307
▁jakon	-9.94368
Te	-9.94376
▁qallarisqa	-9.94386
▁interior	-9.94537
▁ngu	-9.94568
▁omokyre	-9.9464
▁Muchos	-9.94685
Me	-9.94701
via	-9.94794
▁resurrección	-9.94858
▁ohai	-9.94923
▁esté	-9.94935
▁primeros	-9.94996
1).	-9.95025
aq	-9.95032
tĩ	-9.95056
6).	-9.95083
▁normas	-9.95095
ngu	-9.95163
▁wañu	-9.95168
▁pequeño	-9.95286
▁servi	-9.9533
kuérape	-9.95369
▁kimsa	-9.9537
▁kanku	-9.95394
pá	-9.95398
▁má	-9.95407
▁gozo	-9.95416
íri	-9.95429
▁fiesta	-9.95438
▁Nuevo	-9.95488
pacha	-9.95491
▁esclavo	-9.95527
▁base	-9.95541
▁Diosmi	-9.95571
▁Presidente	-9.95606
▁ñaipytyvõ	-9.95606
▁sutiyoq	-9.9565
▁Manuel	-9.95657
para	-9.95738
▁ojehecha	-9.95792
▁promesa	-9.95941
naka	-9.95949
▁nisqapi	-9.9603
▁manaña	-9.96092
ívo	-9.96154
▁superintendente	-9.96161
▁gua	-9.96198
▁ntsu	-9.96214
▁nacional	-9.96239
kai	-9.96358
▁Perú	-9.96377
▁presente	-9.96379
Con	-9.96409
▁idiomas	-9.96433
▁juntos	-9.96442
▁cambios	-9.96467
▁felices	-9.96559
▁Cámara	-9.9656
▁sé	-9.96679
▁oñeñe	-9.96688
▁Sal	-9.96729
▁japredika	-9.96858
eta	-9.96864
▁jajerovia	-9.96893
1,	-9.96903
▁jefe	-9.96945
naykipaq	-9.9695
▁sitios	-9.96989
▁uta	-9.97008
ros	-9.97189
hára	-9.97191
tí	-9.97249
Proverbios	-9.97256
▁Jeremías	-9.97278
guápe	-9.97285
▁nisqanta	-9.97333
="	-9.97399
▁origen	-9.9759
uy	-9.97591
way	-9.97617
▁Aka	-9.97691
hague	-9.97694
▁puedes	-9.97863
▁cargo	-9.9788
▁testigo	-9.97884
mína	-9.97892
▁wawa	-9.97897
▁hinaqa	-9.97917
▁betan	-9.97943
Imanasqam	-9.98003
▁yaqa	-9.98053
mé	-9.98064
tura	-9.9809
▁soy	-9.98119
8,	-9.98177
▁4).	-9.9819
▁mucha	-9.98211
24	-9.98237
ui	-9.98292
▁ndaja	-9.98294
▁kawsay	-9.9832
Is	-9.98355
▁habitantes	-9.98374
etéva	-9.9843
▁siente	-9.98466
▁tenido	-9.98494
▁utaq	-9.9863
▁tsi	-9.98688
▁Saúl	-9.98862
▁abril	-9.98901
▁autoridades	-9.98991
sis	-9.99016
▁Congreso	-9.99105
ychik	-9.99125
▁kanankupaq	-9.99213
ncha	-9.99242
▁jajepy	-9.99287
▁Wi	-9.99329
ska	-9.99398
▁necesidades	-9.99517
▁equipo	-9.99556
▁General	-9.99561
▁Eso	-9.99597
▁xe	-9.99786
▁electrónico	-9.99803
ente	-9.99824
▁estoy	-9.99824
Ma	-9.99857
▁Federal	-9.99885
ad	-9.99922
▁qawachin	-9.99938
▁ñepyrũ	-9.99939
▁32	-9.99991
▁además	-10.0001
▁español	-10.0001
▁llamada	-10.0002
▁Upérõ	-10.0008
▁Ita	-10.0009
▁Sí	-10.0019
▁yvyporakuéra	-10.0021
pre	-10.0027
porã	-10.0031
▁llumpay	-10.0041
▁heko	-10.0048
▁Go	-10.0056
▁ukhamarak	-10.0057
sion	-10.0058
am	-10.0059
▁hermanas	-10.006
tapa	-10.0062
▁época	-10.0063
ber	-10.0069
▁Hebreos	-10.0071
▁lenguas	-10.0075
▁privacidad	-10.0076
▁dificultades	-10.0077
mati	-10.0079
puni	-10.0079
▁cantidad	-10.008
90	-10.0083
rte	-10.0085
▁visión	-10.0087
▁mas	-10.0093
▁muertos	-10.0096
▁d	-10.0098
nsa	-10.0106
▁orar	-10.0109
▁ñembo	-10.0116
ãmbaite	-10.012
▁oiméne	-10.012
15	-10.0124
▁demasiado	-10.013
▁Fue	-10.0134
▁Génesis	-10.0137
▁ara	-10.0139
▁John	-10.0142
▁kalindaryukama	-10.0142
▁común	-10.0142
▁Entre	-10.0143
▁contrario	-10.0148
▁sentimientos	-10.0149
▁esos	-10.0158
ávo	-10.0159
lis	-10.0162
▁sal	-10.0165
▁Estos	-10.0172
▁manaraq	-10.0172
▁«	-10.0172
fo	-10.0174
▁necesidad	-10.0176
▁tariku	-10.0177
▁2009	-10.018
23	-10.0183
▁jasegi	-10.0183
ama	-10.0185
rú	-10.0188
▁agosto	-10.0189
▁puedo	-10.0189
▁unidad	-10.0199
▁asamblea	-10.0201
▁r	-10.0207
yan	-10.0211
▁creación	-10.0212
▁norte	-10.0214
▁saqe	-10.0215
31	-10.0215
▁recordar	-10.0218
cos	-10.0228
▁partes	-10.0233
▁revista	-10.024
22	-10.0246
kiti	-10.0253
Á	-10.0259
▁hija	-10.0269
kuaáva	-10.0274
▁Creador	-10.0286
▁RE	-10.0288
▁mira	-10.029
▁viene	-10.0299
▁oro	-10.0308
né	-10.0313
▁DEL	-10.032
▁Salón	-10.0331
▁bake	-10.0334
▁sesión	-10.0334
▁podrá	-10.0346
▁pipas	-10.036
ñi	-10.036
▁Ara	-10.0364
▁ojejapóva	-10.0371
▁mayo	-10.0371
▁carga	-10.0373
12	-10.0375
▁Secretaría	-10.038
â	-10.0386
▁ndaipóri	-10.0388
▁diferencia	-10.0393
ín	-10.0398
14	-10.0413
▁añetegua	-10.0421
▁Tetã	-10.0424
▁wataqa	-10.0426
ed	-10.0426
▁capital	-10.0432
▁Ci	-10.0434
▁6.	-10.0435
▁SUMO	-10.0436
▁tetãme	-10.0436
ü	-10.0441
▁chuguikuéra	-10.0442
▁Arí	-10.0445
▁ndoje	-10.0447
▁2).	-10.0451
▁ñaime	-10.046
▁conducta	-10.0466
ndu	-10.0469
▁pruwinsya	-10.0469
chí	-10.047
ut	-10.0472
catl	-10.0475
▁miedo	-10.0485
rlo	-10.0489
▁opaichagua	-10.049
or	-10.0498
waq	-10.05
▁artículos	-10.0508
▁yachachi	-10.051
▁julio	-10.0523
▁éxito	-10.0531
aw	-10.0531
ista	-10.0536
▁1914	-10.0538
▁profesía	-10.054
▁debería	-10.0541
▁7.	-10.0542
ismo	-10.0544
▁watam	-10.0546
▁Áño	-10.0549
sco	-10.0559
▁hendivekuéra	-10.0562
▁porandu	-10.0562
▁bakebo	-10.0563
per	-10.0566
▁Léi	-10.0569
▁11:	-10.0574
▁tendrá	-10.058
28	-10.0583
tz	-10.0586
▁(2)	-10.0591
▁segunda	-10.0592
▁rendápe	-10.0597
sé	-10.0597
▁casos	-10.0598
▁medida	-10.06
▁salva	-10.0608
▁BNP	-10.0618
▁karqaku	-10.062
▁ontende	-10.0623
saq	-10.0623
▁raymi	-10.0625
▁pueda	-10.0631
▁hacemos	-10.0631
▁ocasión	-10.0632
▁fuerzas	-10.064
▁obtener	-10.0649
rayku	-10.0652
▁actuar	-10.0654
▁Nu	-10.0655
▁humano	-10.0661
ime	-10.0662
tado	-10.0664
et	-10.0666
▁paso	-10.0669
tiva	-10.0685
kunapas	-10.0686
▁mayores	-10.0688
▁suti	-10.0689
▁tendayke	-10.0689
▁precursor	-10.07
bé	-10.0702
▁llapallan	-10.0706
▁ifamília	-10.0718
▁anima	-10.0719
▁proceso	-10.0723
▁MBA	-10.0724
▁jajapova	-10.0729
tho	-10.0738
▁Wakin	-10.0739
hue	-10.0744
▁cree	-10.0744
26	-10.0747
▁aplicación	-10.0748
▁imandu	-10.0751
▁jahechakuaa	-10.0752
▁confiar	-10.0755
▁Du	-10.0757
▁usuario	-10.0759
▁yhuan	-10.0766
▁(1)	-10.0769
▁pecados	-10.077
non	-10.0772
▁peẽme	-10.0773
▁condiciones	-10.0773
11	-10.0774
▁aravo	-10.0775
▁habría	-10.0775
VA	-10.0782
▁Qui	-10.0787
▁cuida	-10.079
▁suya	-10.0794
Los	-10.0794
▁JEHOVÁ	-10.08
▁0	-10.0802
vare	-10.0804
▁testimonio	-10.0805
niki	-10.0809
Quién	-10.0825
ski	-10.083
▁televisión	-10.0836
▁libra	-10.0837
▁rehehápe	-10.0839
▁natural	-10.0841
▁pie	-10.0842
▁7).	-10.0846
llam	-10.0856
▁hemimbo	-10.0872
ló	-10.0886
▁práctica	-10.0887
nza	-10.0888
%1$	-10.0889
▁huel	-10.0889
yi	-10.089
▁Revelación	-10.0893
▁(18	-10.0895
);	-10.0896
▁dónde	-10.0898
▁%2$	-10.0902
Job	-10.0903
▁planta	-10.0904
mantapas	-10.0904
▁expresión	-10.0908
▁sunqu	-10.0911
▁términos	-10.0912
▁Escuela	-10.0917
▁España	-10.0917
▁munisipyu	-10.0921
▁usa	-10.0928
mava	-10.0933
▁jaskara	-10.094
▁influencia	-10.0944
▁territorio	-10.0945
▁escritor	-10.0947
Ca	-10.0948
25	-10.0949
▁ogoverna	-10.0952
▁jake	-10.0964
▁ohechaukáva	-10.0968
rina	-10.097
ntin	-10.0975
▁utiliza	-10.0975
lar	-10.0982
▁nitaq	-10.0984
▁data	-10.0985
▁dan	-10.0988
▁túva	-10.0992
ái	-10.0992
▁enemigos	-10.1001
▁kaqkunata	-10.1001
▁perder	-10.1001
▁pasó	-10.1004
▁opu	-10.1005
▁visita	-10.1006
ýte	-10.1007
tawan	-10.1008
▁7:	-10.1009
▁anterior	-10.1014
▁obedecer	-10.1027
ive	-10.1031
▁divina	-10.1033
▁profecía	-10.1033
▁rapichápe	-10.1035
▁kuna	-10.1046
▁empezar	-10.1049
▁ñ	-10.105
8).	-10.1051
éiva	-10.1052
▁III	-10.1058
▁70	-10.1061
▁Tom	-10.1061
par	-10.1062
▁York	-10.1064
pampa	-10.1065
spanmi	-10.1071
▁oi	-10.1071
▁cuales	-10.1072
▁Bu	-10.1076
▁ofrece	-10.1083
▁haga	-10.1089
▁malo	-10.1094
▁período	-10.1095
▁presencia	-10.1095
nmanku	-10.1109
tzi	-10.111
▁fruto	-10.1121
▁kastilla	-10.1126
▁interesa	-10.1127
tri	-10.1131
▁ojapóta	-10.1133
▁inter	-10.1134
tli	-10.1136
▁Gobierno	-10.114
▁recibido	-10.1141
▁imitar	-10.1143
▁color	-10.1147
21	-10.1147
▁g	-10.116
▁ciudades	-10.116
▁omyesakã	-10.1167
▁Gua	-10.1175
aki	-10.1181
▁recuerda	-10.1183
rme	-10.1184
▁pláta	-10.1188
raka	-10.1194
gre	-10.1202
▁yu	-10.1206
qi	-10.1213
ika	-10.122
▁febrero	-10.1221
aty	-10.1223
▁oréve	-10.1225
▁congregaciones	-10.1229
▁pública	-10.123
000	-10.1244
▁oñemomba	-10.1246
▁2008	-10.1256
▁delante	-10.1256
▁Guarani	-10.1257
▁W	-10.126
tiri	-10.1263
▁acciones	-10.1267
▁dará	-10.1273
▁cal	-10.1279
▁jeike	-10.128
▁anta	-10.1283
▁tra	-10.1285
ing	-10.1297
stra	-10.1297
▁oñekumpli	-10.1299
▁chepytyvõ	-10.1309
▁tuichavéva	-10.1313
maha	-10.1317
io	-10.1319
▁HA	-10.1322
▁Mientras	-10.1325
▁honor	-10.1329
▁2016	-10.1331
▁15).	-10.1333
cta	-10.1335
▁quizás	-10.1335
ak	-10.1337
mó	-10.1337
▁kundaha	-10.1338
à	-10.1341
▁voy	-10.1342
▁kani	-10.1344
▁mymba	-10.1346
▁wasikuna	-10.1347
▁ejemplos	-10.1347
▁péva	-10.1351
▁múndope	-10.1353
▁per	-10.1355
▁chaynapi	-10.1355
um	-10.1359
▁paciencia	-10.1363
▁Nde	-10.1366
▁esas	-10.1372
ñu	-10.1373
▁aceptar	-10.1374
▁ira	-10.1394
▁Maria	-10.1398
▁sca	-10.1402
▁ojeporu	-10.1406
▁real	-10.1408
▁haykapipas	-10.141
▁hasy	-10.1415
▁capacidad	-10.1416
▁reqsi	-10.142
▁cua	-10.1422
▁Yupaykuna	-10.1428
▁llegado	-10.1431
▁opromete	-10.1431
▁9.	-10.1433
▁nacionpi	-10.1438
▁gloria	-10.1447
▁recibió	-10.1447
▁Pre	-10.145
▁pueblos	-10.1454
▁cambia	-10.1455
▁clave	-10.1459
ix	-10.1462
▁6).	-10.1463
▁recursos	-10.1475
▁anchata	-10.1475
▁ñaneñe	-10.1478
▁14).	-10.148
▁Kóva	-10.1489
▁tso	-10.1501
jan	-10.1503
▁ermanokuérape	-10.1503
29	-10.1504
▁óga	-10.1507
▁predica	-10.1511
17	-10.1514
▁wiñaypaq	-10.1515
▁Sol	-10.1518
▁mbarete	-10.1523
chkan	-10.1525
9).	-10.1532
▁seguros	-10.1536
▁ikai	-10.1545
27	-10.1546
ā	-10.1547
▁rete	-10.1548
▁Sus	-10.1548
qucha	-10.155
▁Ce	-10.1555
▁mitãrusu	-10.1557
▁tenga	-10.1558
ndy	-10.1558
kanai	-10.1559
▁Mat	-10.156
▁mávapa	-10.1564
▁artíkulope	-10.1564
ypi	-10.1568
▁bendiciones	-10.1568
kunaman	-10.1572
▁imp	-10.1575
▁paginapi	-10.1575
▁puri	-10.1583
rían	-10.1584
▁Ehecha	-10.1587
▁pacto	-10.1594
▁Municipalidad	-10.1597
éramo	-10.1607
▁Elías	-10.1614
▁sociedad	-10.162
▁político	-10.1623
mento	-10.1625
taki	-10.1625
▁markan	-10.1629
▁rescate	-10.1635
▁Judá	-10.1637
Rev	-10.1637
▁ména	-10.1641
▁enero	-10.1641
aguasu	-10.1642
▁rikch	-10.1643
▁aisati	-10.1645
▁tñan	-10.1645
nanmanta	-10.1645
▁empresa	-10.1649
▁tienes	-10.165
▁lucha	-10.1653
▁rreunionhápe	-10.1654
▁x	-10.1654
Pa	-10.1655
▁Josué	-10.1659
▁hendápe	-10.1659
▁j	-10.1662
▁gana	-10.1663
▁oncan	-10.1664
▁búsqueda	-10.1664
spanku	-10.1664
▁Buliwya	-10.1665
▁Oimé	-10.1666
pro	-10.1667
32	-10.1675
▁beneficios	-10.168
▁kilómetros	-10.1682
▁puquy	-10.1684
▁escrito	-10.1687
▁morir	-10.1689
▁Chaynaqa	-10.1689
ario	-10.1694
▁17).	-10.1696
▁yoi	-10.1703
▁griego	-10.1703
▁10:	-10.1705
ac	-10.1708
tivo	-10.1709
Mar	-10.1711
▁wetsa	-10.1713
▁okumpli	-10.1713
▁comunicación	-10.1714
mante	-10.1719
▁jahecháta	-10.1725
▁iglesia	-10.1726
▁viaje	-10.1732
▁haguépe	-10.1736
▁ic	-10.1741
iro	-10.1741
▁llumpayta	-10.1745
▁existe	-10.1746
▁certificado	-10.1752
▁busca	-10.1752
RI	-10.1759
▁salir	-10.1764
wanqa	-10.1766
▁ñemigua	-10.1768
▁conoce	-10.1769
35	-10.1773
▁Ke	-10.1778
▁mburuvicha	-10.178
▁enterove	-10.1787
▁ké	-10.1788
▁total	-10.1791
▁miembro	-10.1801
▁relato	-10.1801
▁2017	-10.1807
▁13).	-10.1808
▁refiere	-10.1809
▁inic	-10.1813
▁habló	-10.1816
▁fa	-10.1818
▁dibujo	-10.1823
gan	-10.1828
▁necesitan	-10.1831
▁aswanqa	-10.1837
▁jonibo	-10.1838
tã	-10.1838
▁LOS	-10.184
▁lejos	-10.1842
▁kyre	-10.1846
▁Villa	-10.1847
▁kayta	-10.1848
▁quin	-10.1848
▁Río	-10.185
▁The	-10.1855
▁metá	-10.186
▁instrucciones	-10.1861
▁dispuesto	-10.1862
▁junio	-10.1862
▁rapichakuérape	-10.1862
▁mācuīlpōhual	-10.1871
▁Isaac	-10.1881
nal	-10.1884
▁2015	-10.1898
▁capítulo	-10.1899
▁esperar	-10.1899
▁kunan	-10.1903
▁participar	-10.1925
▁libros	-10.1938
▁oipe	-10.1939
▁Iglesia	-10.1941
▁comprender	-10.1941
▁alimento	-10.1942
íta	-10.195
huan	-10.1953
▁Qutanaka	-10.1956
▁ropa	-10.196
▁Estas	-10.1963
aguapýpe	-10.1965
▁BIBLIA	-10.1971
énte	-10.1972
lan	-10.1977
▁puerta	-10.1978
▁sacerdote	-10.1985
▁probable	-10.1987
▁funciones	-10.1988
Umi	-10.1988
▁mozo	-10.199
▁diossen	-10.1993
▁mamá	-10.1998
tax	-10.1998
▁casas	-10.2001
asy	-10.2002
▁avave	-10.2003
ruw	-10.2016
aña	-10.2016
▁Sapy	-10.2017
▁Qu	-10.2025
▁video	-10.2025
ike	-10.2031
▁estuvo	-10.2037
▁traducción	-10.2037
▁Ima	-10.2038
▁oikotevẽ	-10.204
▁sociales	-10.2043
▁come	-10.2049
î	-10.205
▁qullqi	-10.205
▁9).	-10.2053
▁vemos	-10.2054
sos	-10.2063
▁cherehe	-10.2069
▁kuska	-10.2071
▁iqui	-10.2079
▁ermanokuéra	-10.208
▁20:	-10.2085
▁promete	-10.2086
▁qawachi	-10.209
▁Is	-10.2096
sin	-10.21
▁tribu	-10.2103
mantaqa	-10.2103
▁ogueraha	-10.2105
▁escribir	-10.2105
▁PE	-10.2105
▁actual	-10.2108
▁representa	-10.2115
ava	-10.2118
▁8.	-10.2121
.</	-10.2126
rurqa	-10.2127
rd	-10.2132
▁Fa	-10.2137
apóva	-10.2141
▁CÁNTIC	-10.2143
▁partir	-10.2144
ren	-10.2145
▁actividad	-10.2153
▁60	-10.2168
▁cor	-10.2171
mb	-10.2174
chay	-10.219
▁Mario	-10.219
▁ava	-10.2194
▁oporandu	-10.2197
RA	-10.2199
▁alrededor	-10.2202
ptin	-10.2204
▁eres	-10.2208
▁2007	-10.2209
akin	-10.2209
UMI	-10.2218
▁última	-10.2225
sqanchikta	-10.2228
▁marandurenda	-10.2232
▁asuntos	-10.2235
▁Jawiranaka	-10.2236
▁enseñanza	-10.2237
▁14:	-10.2237
▁regalo	-10.2243
▁tuichaiterei	-10.2245
fu	-10.2245
iháicha	-10.2252
mbu	-10.2255
SA	-10.2262
▁mala	-10.2263
tú	-10.2275
▁Monte	-10.2282
è	-10.2289
▁akai	-10.229
▁Nos	-10.2291
▁w	-10.2293
▁isrraelíta	-10.2295
bilidad	-10.2298
▁ermánope	-10.23
uri	-10.2304
▁Todo	-10.2305
▁kikin	-10.2307
▁llevó	-10.2309
ö	-10.2318
qta	-10.2323
▁Ore	-10.2331
▁jain	-10.2335
▁rimay	-10.2337
iendo	-10.2349
▁indígenas	-10.2361
▁12).	-10.2363
▁raẽ	-10.2365
▁cuidar	-10.2366
▁López	-10.2366
▁maneras	-10.2381
▁ángel	-10.2383
▁peligro	-10.2384
▁motivo	-10.2385
▁especialmente	-10.2388
▁Antes	-10.2394
der	-10.2396
Ehecha	-10.2397
encia	-10.2397
▁habrá	-10.2405
▁explicó	-10.2408
pé	-10.2409
▁considera	-10.2409
ymi	-10.2412
mbe	-10.2414
▁muerto	-10.2415
(	-10.242
▁septiembre	-10.2424
▁boca	-10.2425
▁yanaparqa	-10.2425
▁reheve	-10.2427
▁chayta	-10.2428
▁serie	-10.2431
▁deseos	-10.2436
▁Justicia	-10.2439
▁pidió	-10.2441
fer	-10.2442
▁Ye	-10.2444
im	-10.2445
ō	-10.2449
▁yanapawanchik	-10.245
mozilla	-10.2466
▁ohechávo	-10.247
▁Ndaikatúi	-10.2471
bora	-10.2475
▁Europa	-10.2492
▁sasa	-10.2494
ýpe	-10.2496
ví	-10.2497
▁Yu	-10.2498
▁errores	-10.2499
▁ica	-10.2503
▁celebra	-10.2504
▁ora	-10.2506
▁5).	-10.251
▁walt	-10.2514
▁guarani	-10.2516
▁yupaycha	-10.252
chik	-10.2522
aj	-10.2529
▁cultura	-10.2532
epuru	-10.2537
▁yvyporakuérape	-10.254
sk	-10.2541
▁15:	-10.2542
▁1933	-10.2542
▁misericordia	-10.2545
▁enseñanzas	-10.2546
▁Bar	-10.2547
▁Voices	-10.255
▁qawachirqa	-10.255
▁usuarios	-10.2552
arã	-10.2555
▁veve	-10.2563
▁hogar	-10.2568
▁kóva	-10.2569
▁tai	-10.2572
▁compañía	-10.2574
▁Pukyu	-10.2577
▁construcción	-10.2577
▁investigación	-10.2578
ehára	-10.2581
nse	-10.2582
▁empezó	-10.2583
▁acción	-10.2585
▁miles	-10.2587
▁ostudia	-10.2588
▁Cuerpo	-10.2588
▁Yachay	-10.2589
pari	-10.259
▁Ellos	-10.2592
▁Unión	-10.2594
▁ñawpaq	-10.2597
▁población	-10.2599
den	-10.26
Mi	-10.2608
▁pantalla	-10.2608
▁hembireko	-10.2609
▁ñaaprende	-10.261
▁car	-10.2611
kun	-10.2613
▁Está	-10.2618
▁qarqan	-10.2626
▁Hulyan	-10.2633
▁resultados	-10.2634
ní	-10.2639
▁tuku	-10.2644
”?	-10.2648
sunchik	-10.2654
kuévo	-10.2656
▁Nato	-10.2656
▁González	-10.2658
▁necesitamos	-10.2658
▁sara	-10.2665
Isaías	-10.2669
▁resulta	-10.2672
il	-10.2678
▁Hatun	-10.268
▁entrar	-10.2687
▁19:	-10.269
▁verdaderos	-10.2691
▁ñañembo	-10.2691
36	-10.2692
ándose	-10.2696
día	-10.2697
▁JA	-10.2697
▁idióma	-10.2699
▁kasqankuta	-10.2699
▁lenguaje	-10.27
▁pekádo	-10.2701
▁isla	-10.2702
ỹme	-10.2711
▁proféta	-10.2712
▁grupos	-10.2713
▁judío	-10.2716
▁maton	-10.2723
▁Do	-10.2726
sqayki	-10.2728
▁mejorar	-10.273
▁familias	-10.273
▁oh	-10.2731
▁uk	-10.2732
▁Bibliaqa	-10.2733
▁humana	-10.2735
▁ñemo	-10.2735
▁Per	-10.2739
wayi	-10.2743
▁Nuestro	-10.2743
kurqa	-10.2746
▁suficiente	-10.2746
▁campaña	-10.2747
▁omenda	-10.2747
▁sentir	-10.275
▁función	-10.275
▁Ñane	-10.2751
zar	-10.2752
▁fuente	-10.276
▁llegaron	-10.2761
▁jainxon	-10.2763
▁2,	-10.2766
▁kawsaku	-10.2766
▁allpa	-10.277
://	-10.2772
Le	-10.2774
▁peces	-10.2775
dio	-10.2778
▁tomó	-10.2779
▁Son	-10.2781
▁propiedad	-10.2785
▁Primero	-10.2787
asa	-10.2788
▁ministro	-10.2793
iki	-10.2795
▁13.	-10.2797
▁kaptinqa	-10.2801
▁Instituto	-10.2802
▁distritum	-10.2808
▁circunstancias	-10.2818
▁Reyes	-10.282
▁felicidad	-10.2821
▁Wikimedia	-10.2821
shaman	-10.2822
▁jaton	-10.2823
▁qellqa	-10.2823
▁ndaikatumo	-10.2838
▁contraseña	-10.2848
▁obstante	-10.2848
▁Tra	-10.285
13	-10.2858
▁ija	-10.286
É	-10.2863
▁Ve	-10.2863
▁demostró	-10.2865
▁naña	-10.2868
▁oservíva	-10.2868
tico	-10.2871
▁cosecha	-10.2881
▁proteger	-10.2882
▁situaciones	-10.2887
ido	-10.2888
mombe	-10.2892
▁diferente	-10.2893
▁oĩramo	-10.2893
▁PÁGINA	-10.2901
guasu	-10.2909
▁omombarete	-10.291
sha	-10.291
▁Amo	-10.2915
▁24:	-10.2919
rea	-10.2925
▁Francia	-10.2928
▁Fi	-10.2936
bires	-10.2936
▁Á	-10.2938
▁chhasku	-10.2948
▁tembipuru	-10.2948
▁ojepuru	-10.2949
▁8).	-10.2952
▁”?	-10.2952
▁Twitter	-10.2953
Lea	-10.2954
▁disfrutar	-10.2959
ito	-10.2966
imi	-10.2969
nca	-10.2972
iñimportantevéva	-10.2975
—	-10.2977
▁13:	-10.2981
▁fortalecer	-10.2982
▁par	-10.2987
chan	-10.2992
▁sakrifísio	-10.2994
hecha	-10.3
nce	-10.3012
▁6,	-10.3014
▁difíciles	-10.3016
wanchik	-10.302
▁Internacional	-10.302
pensa	-10.3022
ES	-10.3025
▁preguntó	-10.3025
▁Uka	-10.3027
iya	-10.3027
dé	-10.3028
▁escribe	-10.3031
añ	-10.3031
▁sasachakuykuna	-10.3036
▁ñantende	-10.3037
gó	-10.3042
▁bu	-10.3043
▁ocasiones	-10.3048
▁servicios	-10.3049
▁An	-10.3053
▁violencia	-10.3054
mas	-10.3054
tian	-10.3056
▁tuvakuéra	-10.306
▁tarinki	-10.3062
▁parábola	-10.3065
ñemano	-10.3065
nx	-10.3067
▁cariño	-10.307
▁chayqa	-10.307
▁tembiguái	-10.3071
▁arriba	-10.3077
TO	-10.3078
▁noticia	-10.3078
▁16:	-10.3086
▁oguerekóva	-10.3091
▁aquella	-10.3093
▁xo	-10.3096
▁11.	-10.31
▁resto	-10.3101
▁is	-10.3102
▁jä	-10.3104
phi	-10.3107
▁hinaspapas	-10.3107
▁preocupa	-10.3108
▁hudío	-10.3108
▁humildad	-10.311
▁servísiope	-10.311
▁espacio	-10.311
ere	-10.3112
▁siervo	-10.3112
▁pena	-10.3112
▁ruway	-10.3117
▁Guerra	-10.3121
pia	-10.3125
tt	-10.3128
▁suelo	-10.313
▁pype	-10.3135
▁familiar	-10.3154
01	-10.3156
▁chaylla	-10.3156
raqmi	-10.3157
&	-10.3162
▁sub	-10.3163
nakan	-10.3163
▁hucha	-10.3164
kay	-10.3171
▁paraíso	-10.3182
▁crear	-10.3186
Lo	-10.3187
▁oja	-10.3189
▁téxto	-10.3189
33	-10.3194
yki	-10.3195
▁Global	-10.32
▁omoakãva	-10.3201
▁dä	-10.3205
▁rekove	-10.3205
▁oimé	-10.3212
kanti	-10.3212
▁amta	-10.3212
eapohára	-10.3213
▁tembi	-10.3214
▁Pachapi	-10.3214
▁Par	-10.3219
▁Gi	-10.3222
▁Mundial	-10.3223
▁encuentran	-10.3224
ér	-10.3225
aba	-10.3226
katu	-10.3226
min	-10.3233
▁sasachakuy	-10.3236
llapi	-10.3237
ol	-10.3239
▁Achka	-10.324
amos	-10.3242
▁urqu	-10.3242
▁pensamientos	-10.3243
▁rrevísta	-10.3246
jaleemína	-10.3249
▁carrera	-10.3252
▁chaypi	-10.3253
▁importa	-10.3256
7,	-10.3257
▁ñandepy	-10.3257
▁Bibliam	-10.3259
▁contranpi	-10.3263
▁man	-10.3264
▁porãiterei	-10.3271
38	-10.3273
▁apoyar	-10.3277
▁completa	-10.3277
▁animal	-10.3278
▁iñi	-10.3282
▁señala	-10.3282
▁ukatx	-10.3283
▁8:	-10.3286
▁tribulación	-10.3286
▁oiporavo	-10.3288
▁estudiantes	-10.3289
▁aprendido	-10.3289
▁Paul	-10.3291
▁Educación	-10.3292
ah	-10.3294
▁Tetãvore	-10.3297
▁ryepýpe	-10.3309
▁nivel	-10.3309
▁cumplimiento	-10.331
▁iporãvéva	-10.332
▁16).	-10.3323
mokyre	-10.3325
bles	-10.3327
▁quieren	-10.3327
ual	-10.3329
nxa	-10.333
▁auto	-10.3334
tina	-10.3336
▁llamka	-10.3339
▁hacía	-10.3339
xe	-10.3342
▁22:	-10.3342
▁pareja	-10.3344
44	-10.3346
▁pay	-10.3348
▁película	-10.3348
▁tiyan	-10.335
55	-10.335
▁paypa	-10.3357
▁f	-10.3361
▁dis	-10.3364
kon	-10.3371
▁unhído	-10.3372
▁rápido	-10.3378
eichagua	-10.3378
▁contiene	-10.3378
▁za	-10.3379
taj	-10.3379
▁Sur	-10.339
zca	-10.3391
▁ñakari	-10.3393
ala	-10.3395
▁uywa	-10.3395
▁relaciones	-10.3395
kiw	-10.3396
▁prójimo	-10.3401
rux	-10.3402
▁ojevautisa	-10.3404
▁11).	-10.3406
rqani	-10.3413
▁ñaha	-10.3413
▁walja	-10.3414
▁Tes	-10.3417
▁China	-10.3419
▁qallari	-10.3422
▁kayna	-10.3422
▁líder	-10.3428
▁aguas	-10.3435
tion	-10.3444
▁apañuãi	-10.3448
▁honra	-10.3451
▁opytáva	-10.3454
▁personalidad	-10.3457
▁oipotáva	-10.3457
san	-10.3461
▁quedó	-10.3463
▁podrían	-10.3463
[	-10.3465
6,	-10.347
len	-10.3471
hayhu	-10.3472
▁trans	-10.3476
tayna	-10.3479
▁upearã	-10.3488
▁discurso	-10.3489
cue	-10.3491
▁ñandutípe	-10.3492
pipas	-10.3495
▁servichiku	-10.3496
sapa	-10.3504
▁oisãmbyhy	-10.3506
quin	-10.3508
▁chunka	-10.3513
3,	-10.3515
Romanos	-10.3517
▁Alcaraz	-10.3518
▁ipu	-10.3522
ld	-10.3522
▁actualidad	-10.3525
▁espiritualmente	-10.3527
▁rojo	-10.3527
▁noticias	-10.3527
▁inicio	-10.3532
37	-10.3535
Está	-10.3535
▁8,	-10.3537
▁asi	-10.3539
X	-10.3541
▁Ndaipóri	-10.3548
▁chacha	-10.3573
gos	-10.3576
uti	-10.3576
▁sufrimiento	-10.3578
09	-10.3582
▁10.	-10.3583
kiri	-10.3585
▁Ver	-10.3588
lti	-10.3588
▁wiñay	-10.3588
▁podrán	-10.3594
bí	-10.3601
▁jawe	-10.3605
▁ayudarnos	-10.3611
▁Ejecutivo	-10.3612
▁ruray	-10.3621
Z	-10.3624
▁2006	-10.3624
▁tuvieron	-10.3631
rt	-10.3632
ngue	-10.3635
▁mesko	-10.3635
▁Fe	-10.3637
vu	-10.3637
▁gui	-10.3639
arive	-10.3639
▁Mundo	-10.364
ɨ	-10.364
▁Joapykuéra	-10.3648
▁mborayhu	-10.3648
▁informe	-10.3652
▁actos	-10.3653
▁veremos	-10.3655
bre	-10.3656
▁yapa	-10.3665
inei	-10.367
▁creado	-10.367
▁Testígo	-10.3678
▁Jorge	-10.3678
niyoq	-10.368
▁Chile	-10.3681
gen	-10.3682
ieron	-10.3683
▁kapítulo	-10.3684
ces	-10.3684
▁local	-10.3692
̱u	-10.3693
▁disciplina	-10.37
▁opinión	-10.3702
▁indihina	-10.3702
▁3,	-10.3705
▁Gobernante	-10.3708
▁fecha	-10.3713
▁significado	-10.3723
He	-10.3731
▁América	-10.3733
▁18:	-10.3736
▁ojejuhu	-10.374
ini	-10.3743
Al	-10.3746
zi	-10.3752
▁9:	-10.3753
Col	-10.3756
ger	-10.3761
▁juez	-10.3765
mpo	-10.3767
já	-10.3768
▁estás	-10.3769
▁sutin	-10.3774
▁chaqf	-10.3775
chin	-10.378
▁opensáva	-10.3782
▁Ab	-10.3783
▁pé	-10.3785
▁Col	-10.3786
▁piedra	-10.3789
▁segura	-10.379
▁ompa	-10.3791
▁Santo	-10.3792
▁Centro	-10.3793
▁watamanta	-10.3798
▁20).	-10.3798
▁añe	-10.3799
▁traváho	-10.3804
AN	-10.3804
▁2005	-10.3805
48	-10.3805
▁17:	-10.3808
▁ipo	-10.3815
▁demuestra	-10.3822
▁propios	-10.3824
▁koshi	-10.3826
Cuánto	-10.3828
▁nuevos	-10.3833
ité	-10.384
▁pukukue	-10.3847
▁ayllu	-10.3847
▁árboles	-10.3848
▁materiales	-10.3854
▁res	-10.3856
▁ohesa	-10.3859
▁creer	-10.3861
▁runakunaman	-10.3863
▁3).	-10.3863
ner	-10.3865
▁esfuerzos	-10.3869
kari	-10.387
▁PURAHÉI	-10.387
▁sirviente	-10.387
▁ocupa	-10.3871
▁nombres	-10.3874
sí	-10.3881
▁ñanemandu	-10.3884
g̃uahẽ	-10.3885
▁revela	-10.3887
▁dé	-10.3887
▁kallpancha	-10.3888
chka	-10.3888
▁tekotevẽha	-10.3892
▁gérra	-10.3895
▁humilde	-10.3896
▁Za	-10.3899
▁dieron	-10.39
W	-10.3902
▁bienes	-10.3905
>.	-10.3907
▁documento	-10.3907
▁siquiera	-10.3908
39	-10.3909
éma	-10.3914
ino	-10.3915
ral	-10.3916
▁arandu	-10.3918
tari	-10.392
▁Tukuy	-10.3921
▁Del	-10.3926
▁haz	-10.3927
MBA	-10.3928
▁comunes	-10.3928
▁yaqha	-10.3931
▁Tribunal	-10.3932
▁diciendo	-10.3939
▁18).	-10.394
▁cumpli	-10.3942
▁malas	-10.3946
▁blog	-10.3949
rk	-10.3951
ser	-10.3952
▁Nuestra	-10.3954
▁tarea	-10.3954
ké	-10.3955
sca	-10.3958
▁casado	-10.3965
▁Mä	-10.3968
▁paga	-10.3969
▁permanecer	-10.397
▁peẽ	-10.397
▁cuál	-10.3972
ẽvo	-10.3973
▁Her	-10.3978
▁familiares	-10.3979
▁encontrado	-10.3981
▁Martin	-10.3981
hendu	-10.3982
ẽta	-10.3984
▁superior	-10.3984
Ecl	-10.3986
▁du	-10.3986
▁bíblica	-10.3986
▁puévlo	-10.3994
▁mombyry	-10.3996
▁Gracias	-10.3997
▁hákatu	-10.3999
tre	-10.4004
▁queda	-10.4004
▁ahí	-10.4006
▁síglo	-10.4006
asi	-10.4014
▁formas	-10.4015
▁estén	-10.4016
▁mandato	-10.4017
▁tanta	-10.4021
▁premio	-10.4024
▁ñahesa	-10.4025
meh	-10.4027
▁Consejo	-10.403
▁alcanzar	-10.4036
▁hembipota	-10.4036
▁Guasu	-10.4038
▁niq	-10.4038
▁viuda	-10.4042
▁calidad	-10.4042
▁departamento	-10.4048
▁iména	-10.405
▁munan	-10.405
▁Papa	-10.4052
▁militar	-10.4052
rqaniku	-10.4056
▁Upémarõ	-10.4061
▁recuadro	-10.4061
▁Jehovágui	-10.4066
▁ohundi	-10.4066
niyuq	-10.4068
▁dijeron	-10.4069
▁cristianas	-10.4069
ptinqa	-10.407
▁culpa	-10.4074
▁9,	-10.4077
apýpe	-10.4078
kuspa	-10.4079
▁responder	-10.4083
▁35	-10.4086
▁Warmi	-10.4086
▁pone	-10.4088
cui	-10.4089
▁bendición	-10.4092
▁adelante	-10.4104
▁Comisión	-10.4105
pt	-10.4106
?”	-10.4109
HA	-10.4112
▁famíliape	-10.412
ER	-10.4121
▁Ex	-10.4123
▁puruhára	-10.4125
▁jaje	-10.4126
▁herramientas	-10.4128
▁contar	-10.4128
▁ijerovia	-10.4129
DE	-10.4136
Ilustración	-10.4137
kaya	-10.4137
▁Cho	-10.4139
wá	-10.4139
▁sacerdotes	-10.414
▁pisi	-10.414
▁Ezequiel	-10.4141
nanta	-10.4146
ñachu	-10.4151
MA	-10.4157
▁música	-10.416
▁reta	-10.4161
▁qillqasqa	-10.4163
▁killa	-10.4171
▁jaservi	-10.4171
▁Gu	-10.4172
▁pyahúpe	-10.4173
▁recompensa	-10.4173
▁yvate	-10.4179
▁plan	-10.418
cción	-10.4186
ninta	-10.4193
ze	-10.4194
▁fu	-10.4197
▁the	-10.4199
▁allicha	-10.4201
▁2018	-10.4202
kanwe	-10.4203
▁jahupyty	-10.4207
▁monte	-10.4209
sas	-10.421
mun	-10.4215
mina	-10.4215
▁soberanía	-10.4217
▁ypan	-10.4235
▁yuyari	-10.4237
▁contraseñas	-10.4242
▁nacimiento	-10.4244
▁maska	-10.4244
vé	-10.4244
uta	-10.4248
paye	-10.4253
▁Jan	-10.4255
▁conocido	-10.426
▁37	-10.4265
▁(3	-10.4268
▁lawpi	-10.4268
▁oimeraẽ	-10.4271
▁asistir	-10.4271
▁euro	-10.4278
▁manq	-10.4288
nayki	-10.4293
▁kamachiq	-10.4294
46	-10.4296
▁modelo	-10.4299
▁onan	-10.4303
▁promesas	-10.4305
▁Cada	-10.4309
mara	-10.431
▁rá	-10.4311
séi	-10.4312
ff	-10.4319
▁7,	-10.4319
égui	-10.4325
▁cara	-10.4328
▁ypy	-10.4329
9,	-10.4329
▁Políticas	-10.4333
▁rógape	-10.4338
▁pies	-10.4344
ÉPA	-10.4354
VE	-10.4356
▁upérõ	-10.4357
▁fi	-10.4359
▁alta	-10.4361
▁×	-10.4365
áma	-10.4366
cida	-10.4369
tera	-10.4374
cto	-10.4375
▁implica	-10.4376
▁única	-10.4378
▁envió	-10.438
▁temas	-10.4382
torio	-10.4385
pis	-10.4387
ymanta	-10.4388
ẽre	-10.4389
▁asegura	-10.4399
▁Fernando	-10.4403
97	-10.4404
▁cierta	-10.4408
ẽha	-10.441
▁nai	-10.4412
▁kaymantam	-10.4413
▁qhapaq	-10.4416
▁Judas	-10.4416
Imata	-10.4417
▁Jahechaháicha	-10.4421
34	-10.4424
▁disponible	-10.4424
▁pastor	-10.4425
▁esperánsa	-10.4427
ano	-10.4429
▁crea	-10.443
▁Allí	-10.4437
kunatapas	-10.4444
▁heñói	-10.4446
pata	-10.4449
45	-10.4452
▁yoiai	-10.4455
cre	-10.4464
kuyta	-10.4465
▁iri	-10.4466
▁17.	-10.4467
siones	-10.4468
▁lectura	-10.4472
▁yanapt	-10.4475
▁Martín	-10.4479
▁creen	-10.448
▁suyukunata	-10.4482
▁jejavy	-10.4484
▁ayudan	-10.4484
▁meve	-10.4485
sal	-10.4491
▁reina	-10.4491
▁imágenes	-10.4491
▁Traducción	-10.4491
▁cuyo	-10.4492
▁Debe	-10.4495
▁apo	-10.4497
▁inti	-10.4499
7).	-10.4501
▁hamuq	-10.4501
▁ichupe	-10.4505
yana	-10.4505
nra	-10.4507
▁and	-10.4513
▁wiña	-10.4516
▁ojuka	-10.4516
▁dispositivos	-10.4518
▁36	-10.4521
▁religiosos	-10.4522
hy	-10.4522
▁jupax	-10.4531
41	-10.4534
▁uyarinakuna	-10.4535
▁alaba	-10.4535
▁quieres	-10.4538
▁noviembre	-10.4543
▁atipa	-10.4544
▁aikuaa	-10.4544
▁pachaman	-10.4548
▁papá	-10.4548
▁runam	-10.4552
▁temor	-10.4552
▁nderehe	-10.4557
stro	-10.4558
▁aprendemos	-10.4559
▁Bibliamanta	-10.4562
hechávo	-10.4565
rios	-10.4569
▁utja	-10.4571
2,	-10.4577
▁nace	-10.4577
▁oimo	-10.458
▁Hasta	-10.4581
brandShortName	-10.4582
▁Allin	-10.4583
▁Pacha	-10.4583
▁Corte	-10.4589
▁grave	-10.4589
vá	-10.4592
51	-10.4594
▁llamó	-10.4595
▁oc	-10.4596
▁yati	-10.4599
▁qam	-10.46
▁dispositivo	-10.4601
▁teléfono	-10.4602
▁herencia	-10.4602
▁Oiméne	-10.4603
tya	-10.4604
ris	-10.4605
▁alegra	-10.4605
▁Eipuru	-10.4608
KU	-10.4609
wé	-10.4611
▁ifamíliape	-10.4612
stru	-10.4615
▁enseñó	-10.4615
▁hamu	-10.4617
▁allinmi	-10.462
▁mesa	-10.462
nguéra	-10.4626
pyréva	-10.4627
dó	-10.4628
txa	-10.4628
▁contacto	-10.4635
▁metros	-10.4642
iwa	-10.4642
nco	-10.4642
Ó	-10.4644
qkuna	-10.4648
▁kiti	-10.4652
▁original	-10.4653
nmanta	-10.4657
▁ikaxbi	-10.4657
▁12.	-10.4658
▁oj	-10.4658
▁alimentos	-10.4659
▁oñehundi	-10.4663
▁sentía	-10.4669
bira	-10.4673
▁edición	-10.4677
adas	-10.4678
▁atipana	-10.4679
▁indígena	-10.4681
▁bautismo	-10.4681
▁mahtlācxihuitl	-10.4681
▁Luc	-10.4681
abo	-10.4683
cla	-10.4683
▁cónyuge	-10.4687
▁usu	-10.4694
▁pedir	-10.4694
ynin	-10.4697
▁“[	-10.4698
lin	-10.4698
▁invita	-10.4704
▁aparece	-10.4705
▁párte	-10.4707
▁estudios	-10.4709
ización	-10.471
MO	-10.4712
▁respondió	-10.4714
▁80	-10.4715
▁yachachikuykuna	-10.4716
▁ojoko	-10.4717
llaña	-10.4721
▁37:	-10.4724
▁rimanku	-10.473
▁porãva	-10.4731
▁perdido	-10.4734
▁Katuete	-10.4736
awi	-10.4737
▁Efesios	-10.4742
manmi	-10.4748
▁oko	-10.4749
▁kallpa	-10.4752
▁podían	-10.4753
yamai	-10.4758
▁Jesusta	-10.476
riki	-10.4761
▁asunto	-10.4762
oma	-10.4763
▁daño	-10.4767
ñembo	-10.4773
ñataq	-10.4774
írõ	-10.4776
ý	-10.4777
▁produce	-10.4785
▁ivai	-10.4785
▁beneficia	-10.4787
▁omendáva	-10.4791
▁García	-10.4794
▁Grande	-10.4794
bu̱	-10.4795
▁45	-10.4795
▁paykunaqa	-10.4797
▁encontró	-10.48
▁pequeños	-10.4801
▁yc	-10.4802
▁utilizar	-10.4802
▁elección	-10.4802
▁ciudadanos	-10.4806
▁imanasqa	-10.4806
▁materia	-10.4807
▁perfecto	-10.4808
▁yaku	-10.4811
rire	-10.4811
▁nete	-10.4811
tha	-10.4815
▁wisha	-10.4816
▁Paykunaqa	-10.4818
▁#1	-10.482
▁eike	-10.4823
42	-10.4825
▁profundo	-10.4827
▁resolver	-10.4829
▁VI	-10.4836
jepy	-10.4837
Pi	-10.4843
▁convirtió	-10.4847
:14).	-10.4848
:13).	-10.4851
my	-10.4854
tana	-10.4855
nge	-10.4858
▁16.	-10.4859
▁ijespíritu	-10.486
▁Taytan	-10.4872
▁omboyke	-10.4874
hechakuaa	-10.4877
chkaq	-10.4881
▁plantas	-10.4886
▁navegación	-10.4888
▁lu	-10.4889
pytyvõ	-10.4892
nkuta	-10.4896
▁costa	-10.4898
▁tales	-10.4899
▁wañuchi	-10.4903
▁4,	-10.4909
▁maestro	-10.491
▁iñarandu	-10.4914
▁privilegio	-10.4916
▁Ñandejáragui	-10.4921
▁jaweki	-10.4924
ex	-10.4926
NA	-10.4927
▁posición	-10.4927
▁misión	-10.4935
▁públicos	-10.4936
pero	-10.4936
em	-10.4938
4,	-10.4942
▁Paymi	-10.4942
▁nokon	-10.4942
huac	-10.4944
▁puedan	-10.4946
nsi	-10.4947
▁conexión	-10.4948
▁sentimos	-10.4948
▁firma	-10.4952
Yo	-10.4956
évo	-10.4957
▁puvlikasión	-10.4962
▁saben	-10.4962
▁distritupi	-10.4962
lio	-10.4962
mayá	-10.4964
▁Dioswan	-10.4965
▁líderes	-10.4965
▁tyi	-10.4966
▁2001	-10.4966
▁SSL	-10.4968
dad	-10.497
▁raka	-10.4972
▁siervokuéra	-10.4973
▁productos	-10.4975
há	-10.4975
e̱	-10.4981
▁Pues	-10.4982
veha	-10.4984
by	-10.4987
ytaqa	-10.499
▁Gra	-10.4993
▁pejapo	-10.4996
▁willaku	-10.4996
2).	-10.4999
land	-10.5003
▁14.	-10.5004
▁2000	-10.501
▁justos	-10.5012
▁chakra	-10.5017
ē	-10.5017
▁informasión	-10.5017
eh	-10.5017
▁Jaikuaa	-10.5018
5,	-10.5021
gado	-10.5024
▁ambos	-10.5025
▁oúvape	-10.5028
▁claramente	-10.5032
▁oñorairõ	-10.5035
▁nayriri	-10.5037
▁39	-10.5038
▁pescado	-10.5042
apa	-10.5043
teri	-10.5046
ywan	-10.5046
▁sabio	-10.5049
▁japu	-10.5049
guero	-10.5051
▁34	-10.5051
▁conseguir	-10.5053
▁Sha	-10.5054
ena	-10.5057
▁oaprende	-10.5064
▁ká	-10.5067
ió	-10.507
▁óra	-10.5073
ment	-10.5075
gué	-10.5077
52	-10.5079
▁ciertamente	-10.5081
ología	-10.5084
▁añónte	-10.5084
▁calle	-10.5088
▁Puerto	-10.5092
id	-10.5092
▁informa	-10.5093
▁Alemania	-10.51
▁sacrificios	-10.5103
pxa	-10.5113
▁ndoikói	-10.5114
vis	-10.5117
▁ojogua	-10.5119
▁oin	-10.512
07	-10.5124
="%(	-10.5126
▁enemigo	-10.5127
▁rembireko	-10.5133
Isa	-10.5135
▁kuñakarai	-10.514
▁ere	-10.5141
▁IV	-10.5141
▁retãme	-10.5146
rón	-10.5151
▁consecuencias	-10.5156
▁anti	-10.5158
▁Diospi	-10.5164
hual	-10.5166
▁ci	-10.5167
▁perdonar	-10.5168
huatl	-10.5169
ura	-10.517
sqay	-10.5176
wala	-10.5177
▁churi	-10.5178
ap	-10.5178
▁hubo	-10.5178
qku	-10.5179
▁organisasión	-10.5179
cur	-10.5186
ot	-10.5189
▁debía	-10.519
▁municipales	-10.5192
▁omoakã	-10.5192
▁cunta	-10.5192
br	-10.5199
▁enviar	-10.5199
tic	-10.52
▁Ge	-10.5204
▁jene	-10.5204
▁reyes	-10.5209
▁lago	-10.5213
▁Jesusmi	-10.5213
▁título	-10.5214
▁Abraham	-10.5215
▁siguen	-10.522
▁duro	-10.5228
uel	-10.5229
▁ypykue	-10.5231
ál	-10.5234
▁expresa	-10.5238
▁Web	-10.524
▁suele	-10.5246
▁comp	-10.5252
ud	-10.5254
▁lája	-10.5257
▁ndojapói	-10.5258
▁mitãkuña	-10.5258
▁Va	-10.5258
▁señal	-10.5262
amp	-10.5262
▁sacar	-10.5267
▁wal	-10.527
▁naturaleza	-10.5272
gueraha	-10.5272
sqanku	-10.5276
ica	-10.5276
HINA	-10.5278
▁Claro	-10.528
pí	-10.5282
▁iskayraya	-10.5283
▁funciona	-10.5284
▁í	-10.5291
▁blanco	-10.5292
▁Indihina	-10.5293
del	-10.5293
▁jadesidi	-10.5295
▁reikuaa	-10.5295
▁hapipaku	-10.5295
=	-10.5304
pykue	-10.5307
▁evento	-10.5313
▁katli	-10.5313
bri	-10.5316
raki	-10.5318
47	-10.5318
▁yayku	-10.532
▁rebaño	-10.5321
▁Des	-10.5322
▁Uru	-10.5324
▁termina	-10.5324
▁construir	-10.5328
▁sábado	-10.5328
▁né	-10.5329
▁jahasa	-10.5332
▁menciona	-10.5336
ichagua	-10.5336
▁llega	-10.5337
▁elegir	-10.5342
▁venir	-10.5352
spanchikqa	-10.5356
▁elemento	-10.5356
▁Mis	-10.5358
▁hagan	-10.5366
▁Hinaptinqa	-10.537
▁apostol	-10.5376
▁Alberto	-10.5376
stre	-10.5377
▁director	-10.538
▁okakuaa	-10.5381
▁iko	-10.5384
▁memoria	-10.5384
erãpa	-10.5388
▁respuestas	-10.5389
boki	-10.5391
▁simple	-10.5391
▁Lengua	-10.5391
maña	-10.5394
▁/1	-10.5397
▁yanapawasun	-10.5403
▁aplicar	-10.5407
▁profecías	-10.541
Ro	-10.5415
▁/2	-10.5419
▁Rimaq	-10.5419
▁conclusión	-10.5421
▁observa	-10.5423
▁ova	-10.5423
▁vivo	-10.5424
▁medidas	-10.5424
joko	-10.5426
▁ob	-10.5426
▁ejercicio	-10.5427
▁plenamente	-10.5429
ME	-10.5429
ones	-10.5429
▁oipotaháicha	-10.5429
ípe	-10.5433
▁niman	-10.5436
tend	-10.5436
▁noA	-10.5437
▁visitar	-10.5438
:20).	-10.5441
▁consuelo	-10.5441
▁precio	-10.5442
tai	-10.5444
▁piensan	-10.5446
endo	-10.5446
Ani	-10.5447
▁chaymanta	-10.5447
▁ánimo	-10.5448
▁salvación	-10.5453
▁riesgo	-10.5455
és	-10.5458
tawa	-10.5461
49	-10.5463
><	-10.5468
▁entrada	-10.5469
▁Aun	-10.5472
▁Ji	-10.5473
tus	-10.5476
▁figura	-10.5477
dica	-10.5478
peteĩ	-10.5478
▁oguerohory	-10.5479
ekuérape	-10.5483
▁viento	-10.5484
▁correcto	-10.5484
▁_	-10.5488
▁oño	-10.5488
▁mejores	-10.5491
▁maldad	-10.5492
▁aguanta	-10.5492
▁ninku	-10.5495
08	-10.5495
▁Nunca	-10.5496
naykupaq	-10.55
▁Or	-10.55
▁5+	-10.5501
▁kanan	-10.5501
én	-10.5505
Que	-10.5508
▁chaynata	-10.5513
▁archivos	-10.5514
áramo	-10.5518
▁kristianokuéra	-10.5519
spaqa	-10.5525
▁caer	-10.5532
stu	-10.5533
▁Partido	-10.5534
▁yvyra	-10.5538
éro	-10.5538
▁Ary	-10.5539
▁precursores	-10.5541
bó	-10.5543
56	-10.5546
▁internacional	-10.5547
▁róga	-10.5548
▁Incluso	-10.5548
oso	-10.555
▁estará	-10.5552
43	-10.5553
▁oku	-10.5558
ipa	-10.5559
Ta	-10.5564
▁ejército	-10.5564
▁India	-10.5567
▁kawsaq	-10.5571
▁im	-10.5573
▁opavavépe	-10.5573
Ẽ	-10.5577
▁iña	-10.5583
rqu	-10.5584
cor	-10.5585
▁añete	-10.5585
▁continuación	-10.5585
kara	-10.5586
▁14,	-10.5586
▁médico	-10.5586
▁baja	-10.5591
▁ehecha	-10.5594
▁pyhare	-10.5596
▁Oiko	-10.56
▁Thunderbird	-10.5601
▁omanóva	-10.5602
▁ukham	-10.5603
▁destrucción	-10.5606
▁ótra	-10.5607
▁flor	-10.5612
▁creó	-10.5616
vó	-10.5616
ibo	-10.5623
▁eliminar	-10.5625
▁probablemente	-10.5626
▁Buenos	-10.563
pon	-10.5634
▁contrato	-10.5634
erechaha	-10.5638
▁=	-10.5639
▁runapa	-10.5641
▁Chijya	-10.5642
▁acto	-10.5644
▁jane	-10.5646
93	-10.5647
▁oficina	-10.5649
ỹi	-10.565
▁Testigo	-10.565
▁tuichakue	-10.5652
kha	-10.5652
▁kayqa	-10.5656
listli	-10.5657
▁presenta	-10.5657
▁CON	-10.5657
▁hojas	-10.5663
▁Ladislaa	-10.5664
▁kanapaq	-10.5666
▁Aníke	-10.5667
▁tata	-10.5668
04	-10.5669
▁Punta	-10.5673
▁buscando	-10.5677
▁redes	-10.5682
▁oikuaauka	-10.5683
▁venga	-10.5684
niku	-10.5687
ñangareko	-10.5694
▁18.	-10.5695
ntu	-10.5699
▁Silvero	-10.5701
▁jeikove	-10.5702
▁hechos	-10.5703
▁ruraq	-10.5705
▁amenaza	-10.5708
▁servidor	-10.5718
▁labor	-10.572
{	-10.5727
▁regionales	-10.5732
rei	-10.5732
▁deberíamos	-10.5737
ẽasa	-10.5739
54	-10.5744
99	-10.5745
▁estilo	-10.5747
▁publicadores	-10.5748
▁taki	-10.5751
▁akã	-10.5751
▁domingo	-10.5753
▁clases	-10.5754
▁jareko	-10.5756
Jer	-10.5759
▁Podemos	-10.5763
▁aha	-10.5764
Ã	-10.5765
▁Guaraní	-10.5769
DO	-10.5771
rqachu	-10.5773
▁Ser	-10.5773
▁Aires	-10.5774
▁kasqanchikta	-10.5774
hupyty	-10.5777
`	-10.5783
ronki	-10.5785
Cuándo	-10.5791
58	-10.5798
▁software	-10.5803
▁conforme	-10.5812
▁seguidores	-10.5819
tta	-10.582
itéva	-10.5821
▁Castilla	-10.5822
▁permiso	-10.5825
▁omoirũ	-10.5827
-3	-10.5829
40	-10.583
▁propias	-10.5832
▁jehasa	-10.5834
▁payta	-10.5837
▁detalles	-10.5838
95	-10.584
▁conjunto	-10.584
▁planeta	-10.5841
▁Lea	-10.5842
bido	-10.5844
qo	-10.5846
▁cristianokuna	-10.5847
▁porãta	-10.5849
noxon	-10.5851
88	-10.5851
▁nt	-10.5852
▁fiscal	-10.5853
liztli	-10.5855
▁ã	-10.5855
▁ohasava	-10.5856
▁21:	-10.5857
▁pudiera	-10.5857
Cuando	-10.5857
▁costumbre	-10.5858
▁kirika	-10.586
▁26:	-10.5861
▁imemby	-10.5866
▁utji	-10.5867
wananchikpaq	-10.5874
tur	-10.5875
▁aprobación	-10.5877
▁corresponde	-10.5877
$	-10.5879
:22).	-10.588
▁viernes	-10.5885
▁marcha	-10.5885
▁retã	-10.5885
▁contesta	-10.5889
▁tekove	-10.5891
▁Robert	-10.5891
▁permitir	-10.5892
Apocalipsis	-10.5894
▁ykére	-10.5895
▁pide	-10.5895
▁Py	-10.5896
▁puntos	-10.5896
▁imakuna	-10.5896
▁hablando	-10.5898
▁Poco	-10.5898
▁ayvu	-10.5899
▁siglos	-10.5904
▁Ber	-10.5905
▁oka	-10.5906
gueropu	-10.5907
▁empleo	-10.5907
ñepyrũ	-10.5909
▁Way	-10.5911
▁elementos	-10.5915
rlos	-10.5915
▁Nehemías	-10.5919
Ka	-10.5922
tä	-10.5922
▁banda	-10.5922
ctor	-10.5923
▁ipahápe	-10.5924
▁sucedió	-10.5928
▁cambiado	-10.593
▁jeýta	-10.5933
▁partido	-10.5935
▁Japón	-10.5938
sej	-10.5939
▁Nación	-10.594
poro	-10.5942
▁rérape	-10.5944
▁policía	-10.5944
Sant	-10.5945
heta	-10.5945
tán	-10.5946
tación	-10.5948
hechauka	-10.5949
▁tengan	-10.595
ábamos	-10.5951
▁aje	-10.5952
▁precursora	-10.5952
▁toca	-10.5953
▁pahápe	-10.5954
▁orrepresenta	-10.5956
tiro	-10.5958
▁kantun	-10.5959
02	-10.5959
▁téysto	-10.5959
▁ayudado	-10.5962
4;	-10.5963
▁Felipe	-10.5963
▁objeto	-10.5963
▁ojuehe	-10.5965
▁dispuestos	-10.5966
▁10,	-10.5971
eri	-10.5972
▁marco	-10.5973
▁qollqe	-10.5974
▁Upéicharamo	-10.5974
cht	-10.5979
▁qatipaku	-10.598
▁yachayta	-10.5981
▁kundaharape	-10.5982
▁Poder	-10.5983
usa	-10.5984
▁enfermedades	-10.5985
▁declaración	-10.5992
4).	-10.5995
rachi	-10.5997
▁nican	-10.5998
▁requiere	-10.6004
▁tampoco	-10.6004
▁Mal	-10.6006
águi	-10.6011
▁compasión	-10.6012
▁Cruz	-10.6012
71	-10.6016
05	-10.6017
▁cultivar	-10.6017
▁Italia	-10.6019
▁clic	-10.602
▁Otros	-10.6024
rle	-10.6024
03	-10.6027
▁Asamblea	-10.6027
▁enlace	-10.6029
▁principales	-10.6032
▁jatíbi	-10.6033
ꟳ	-10.6034
98	-10.6038
▁curso	-10.6041
▁mostró	-10.6042
▁dueño	-10.6043
▁yuyaymana	-10.6045
ãvéima	-10.6046
▁já	-10.605
▁Asia	-10.6051
▁19,	-10.6053
▁AL	-10.6055
▁dura	-10.6056
▁hierba	-10.6057
▁salió	-10.6058
ẽmondo	-10.6058
Revelación	-10.606
her	-10.6062
ỹinte	-10.6063
▁+	-10.6068
▁Andrés	-10.607
▁versículo	-10.607
▁Mon	-10.6075
▁Z	-10.6075
gio	-10.6078
KA	-10.6085
▁lleno	-10.6087
▁yachaq	-10.6092
▁dejado	-10.6092
nio	-10.6093
▁Can	-10.6094
▁Fu	-10.6094
64	-10.6098
▁ojavy	-10.61
Mávapa	-10.61
▁prácticas	-10.6102
▁11,	-10.6102
▁menor	-10.6103
69	-10.6104
67	-10.6106
▁23).	-10.6106
▁pruwinsyakuna	-10.6107
▁sienten	-10.6108
▁fo	-10.6109
▁controla	-10.611
tak	-10.611
Su	-10.6111
pla	-10.6113
nera	-10.6116
▁darle	-10.6119
▁oguerovia	-10.612
▁zan	-10.612
▁waqaycha	-10.6121
▁Apocalipsis	-10.6123
▁kaqkuna	-10.6124
ás	-10.6124
yman	-10.6127
▁kuatiañe	-10.6128
▁1990	-10.6129
▁finalmente	-10.613
séramo	-10.6134
▁arma	-10.6135
▁pelea	-10.6138
▁for	-10.6142
stin	-10.6146
84	-10.6158
xta	-10.6164
▁perdón	-10.6164
▁ganar	-10.6165
▁sar	-10.6166
▁omondo	-10.6166
▁eipuru	-10.6168
seha	-10.6179
▁ari	-10.6181
cá	-10.6185
▁oqui	-10.6185
jas	-10.6185
▁particular	-10.619
ketian	-10.6191
▁término	-10.6203
▁leales	-10.6204
Gál	-10.6207
ity	-10.6207
65	-10.6208
▁muestran	-10.6209
▁producción	-10.621
▁ovecha	-10.621
kum	-10.6223
INEI	-10.6229
59	-10.6229
▁predikasiónpe	-10.623
tón	-10.6231
kunataqa	-10.6232
▁col	-10.6234
▁jahayhu	-10.6235
▁centra	-10.6237
mal	-10.6239
▁ambiente	-10.624
▁esfuerzo	-10.6242
▁ipa	-10.6245
▁sufrir	-10.6246
▁tapu	-10.6246
ãha	-10.6246
▁hablan	-10.6248
▁yvága	-10.6248
hú	-10.6248
▁Umíva	-10.6249
▁Iñe	-10.6255
▁salmista	-10.6256
▁junta	-10.6256
▁itúva	-10.6257
▁ainbo	-10.626
▁Pay	-10.6264
▁energía	-10.6265
▁oñemoñe	-10.6266
▁prekursór	-10.6276
▁antiguo	-10.6281
▁lunes	-10.6288
▁ótrope	-10.629
ekuégui	-10.6295
▁superar	-10.6296
▁multilingüe	-10.6296
▁karu	-10.6297
▁PÁ	-10.6298
83	-10.6298
▁fui	-10.6298
ára	-10.63
gri	-10.6302
▁Zacarías	-10.6302
Paita	-10.6304
▁iñimportánte	-10.6304
▁1941	-10.6305
Gen	-10.6305
▁90	-10.6308
cional	-10.6311
▁afirma	-10.6314
▁19.	-10.6314
ler	-10.6323
▁pocos	-10.6323
Ajépa	-10.633
▁cuestión	-10.6333
▁celo	-10.6339
▁13,	-10.6339
▁12,	-10.6343
nakaw	-10.6344
▁15.	-10.6346
ster	-10.6349
▁periodista	-10.6349
zque	-10.635
porãi	-10.6351
ly	-10.6351
tlan	-10.6356
▁gri	-10.6358
lica	-10.636
▁locales	-10.636
▁momentos	-10.6361
sio	-10.6363
▁tri	-10.6364
aporã	-10.6369
▁pestañas	-10.6369
▁semilla	-10.6372
▁imam	-10.6372
▁universo	-10.6372
▁Eiporavo	-10.6374
aron	-10.6375
teo	-10.6376
Jawe	-10.6377
iséi	-10.638
▁kuéra	-10.6383
▁sintió	-10.6383
mpu	-10.6385
▁vale	-10.6386
▁ñorairõ	-10.6389
▁ohasáva	-10.639
▁nacido	-10.6391
▁munarqa	-10.6393
▁ijojaha	-10.6396
▁oheka	-10.6396
liz	-10.6399
▁políticos	-10.6399
▁chanincha	-10.6399
▁entra	-10.64
▁presentes	-10.6403
▁conmigo	-10.6404
▁plazo	-10.6405
nakuy	-10.6409
▁pagar	-10.6409
▁omotenonde	-10.6411
▁Muchas	-10.6417
rori	-10.6419
▁Departamento	-10.6419
kí	-10.6423
sá	-10.6429
▁†	-10.6432
Mo	-10.6438
istas	-10.6438
▁com	-10.6442
▁árare	-10.6444
▁doce	-10.6445
mínte	-10.6446
▁May	-10.6448
ívare	-10.6452
▁caminos	-10.6454
▁aguantar	-10.6455
Ne	-10.6459
92	-10.6459
▁congregacionpi	-10.6459
▁ohaiva	-10.646
▁vo	-10.6461
▁té	-10.6461
▁fueran	-10.6462
▁Shi	-10.6463
▁xobo	-10.6465
ave	-10.6465
▁Armagedón	-10.6466
▁Ambue	-10.6467
tsu	-10.6474
link	-10.6477
▁hebreo	-10.6478
▁aklla	-10.6479
▁treinta	-10.6482
▁westiora	-10.6482
▁Bibliata	-10.6483
▁quiero	-10.6486
▁Benítez	-10.649
▁estúdio	-10.649
▁2004	-10.6491
▁hambre	-10.6496
▁ideas	-10.6498
rica	-10.6499
▁pata	-10.6503
▁Min	-10.6505
nankuta	-10.6507
▁explicar	-10.651
mein	-10.6511
▁jawekibo	-10.6514
▁divino	-10.6518
▁rama	-10.6519
▁ije	-10.6523
▁osẽva	-10.6523
▁Siempre	-10.6524
▁semanas	-10.6524
Ku	-10.653
poriahuvereko	-10.6531
▁predikasión	-10.6532
rado	-10.6539
▁hayt	-10.6542
yama	-10.6543
▁olee	-10.6545
▁Ezequías	-10.6546
▁opárupi	-10.6546
táva	-10.6546
cul	-10.655
▁téra	-10.6565
enda	-10.6567
▁próximo	-10.6569
▁batalla	-10.657
▁participación	-10.6572
aro	-10.6573
▁esperaba	-10.6573
▁jani	-10.6576
▁sasachakuypi	-10.6577
ï	-10.6577
▁Fo	-10.6583
▁kuery	-10.6585
▁dicha	-10.6587
▁lugárpe	-10.6587
▁grado	-10.659
▁iñarandúva	-10.6593
▁decidir	-10.6593
▁kárta	-10.6593
▁senador	-10.6596
jé	-10.6596
pax	-10.6597
▁jisa	-10.6599
ct	-10.66
▁continuar	-10.66
▁ogueru	-10.6601
ipota	-10.6602
▁paykunata	-10.6607
url	-10.6608
Despertad	-10.6609
▁ndai	-10.6615
▁Opa	-10.6617
▁Julio	-10.6618
épepa	-10.6618
ora	-10.6618
▁aski	-10.6624
▁Cartes	-10.6627
▁Balaam	-10.6633
▁Qusqu	-10.6637
▁guarda	-10.6641
dis	-10.6644
▁dirigir	-10.6651
▁omanda	-10.6652
▁excelente	-10.6655
LA	-10.6656
▁Qullunaka	-10.6657
▁inmerecida	-10.6657
▁saqi	-10.6658
▁imata	-10.6662
úramo	-10.6669
▁willakuy	-10.667
▁oñemoĩva	-10.6673
▁haihára	-10.6674
▁rápidamente	-10.6675
nankumanta	-10.6675
▁llaqtanpi	-10.668
▁ijehe	-10.6682
▁miércoles	-10.6682
▁predijo	-10.6683
▁graves	-10.6683
61	-10.6687
nica	-10.6691
▁Tiene	-10.6694
▁1950	-10.6695
▁deja	-10.6697
▁ojeruréva	-10.6699
aru	-10.67
▁rreunión	-10.6701
▁Esa	-10.6705
lación	-10.6705
▁qhull	-10.6707
▁aun	-10.6714
▁amígo	-10.6717
▁apu	-10.6717
Para	-10.6717
▁sirve	-10.672
nkuchu	-10.6725
▁foto	-10.6726
▁post	-10.6726
▁reco	-10.6735
▁ñanemokyre	-10.6736
▁comenta	-10.6738
oñe	-10.6741
▁dedicar	-10.6741
▁malos	-10.6745
▁Upearã	-10.6749
▁gobernador	-10.675
▁Kunan	-10.675
véma	-10.6753
ī	-10.6753
▁ñandehegui	-10.6754
▁Era	-10.6755
▁oído	-10.6755
▁importar	-10.6755
ez	-10.6757
▁lección	-10.6757
▁extranjero	-10.6761
hesa	-10.6761
▁Enra	-10.6763
▁ton	-10.6767
▁Quizás	-10.6769
▁sentencia	-10.6771
▁papapy	-10.6771
paqmi	-10.6772
▁oĩháme	-10.6775
äwi	-10.6784
opa	-10.6787
▁axon	-10.6788
guerovia	-10.6792
▁caja	-10.6794
▁(2007)	-10.6795
▁lealtad	-10.6795
jú	-10.6797
▁oskrivi	-10.6801
▁instituciones	-10.6803
▁vuelta	-10.6803
▁rembiasakue	-10.6803
▁decía	-10.6809
cido	-10.681
▁César	-10.6811
▁qari	-10.6812
06	-10.6812
ykuna	-10.6813
▁Pascua	-10.6817
▁19).	-10.6817
cía	-10.6818
spankum	-10.6821
▁limpia	-10.6822
▁porãite	-10.6824
nchikmi	-10.6827
▁compartir	-10.6827
▁riqsi	-10.6829
▁Ñawpaq	-10.6831
AR	-10.6833
▁hnini	-10.6836
▁simplemente	-10.684
mboyke	-10.6844
▁Rut	-10.6844
▁alerta	-10.6848
▁verdades	-10.6848
▁kaptin	-10.6849
jehe	-10.6852
63	-10.6854
▁tierras	-10.6857
hágui	-10.6857
▁(@	-10.6857
▁prepara	-10.6857
▁tendrán	-10.6858
pay	-10.6859
▁útil	-10.686
▁podríamos	-10.686
▁munasqanman	-10.6861
bia	-10.6863
ben	-10.6865
▁niwanchik	-10.6865
▁hayan	-10.6866
▁ay	-10.6867
▁200	-10.6867
▁Chawpi	-10.6869
▁mercado	-10.6869
▁--	-10.6875
▁presión	-10.6875
▁África	-10.6877
94	-10.6877
▁quiso	-10.6879
2.	-10.6883
paqqa	-10.6884
VI	-10.6884
▁38	-10.6885
▁Quechua	-10.6885
▁2003	-10.6886
▁oye	-10.6889
rás	-10.689
▁meran	-10.6891
▁sh	-10.6893
▁markapi	-10.6895
▁willakuq	-10.6896
món	-10.6896
▁canto	-10.6898
▁Hua	-10.6899
sunchu	-10.6899
wí	-10.6903
▁corta	-10.6904
▁semána	-10.691
-18	-10.6912
nder	-10.6912
▁Ichapas	-10.6912
▁llaqtanmi	-10.6914
tika	-10.6915
▁Xi	-10.6917
▁diskúrso	-10.6918
▁kananchik	-10.6919
▁hekove	-10.692
rakiwa	-10.6924
ales	-10.6925
▁abierto	-10.6926
nk	-10.6928
▁yachachikuynin	-10.6929
▁regular	-10.6932
▁taqi	-10.6934
85	-10.6935
▁kómo	-10.6938
▁reconocer	-10.6942
tso	-10.6943
▁aplica	-10.6943
▁1980	-10.6948
▁arte	-10.695
bla	-10.695
▁terminar	-10.6952
▁directamente	-10.6953
tani	-10.6954
▁onase	-10.6961
aca	-10.6962
▁ndere	-10.6964
tis	-10.6964
▁kaqta	-10.6965
▁siuda	-10.6966
▁atrás	-10.6968
▁analizar	-10.6975
▁Sapa	-10.6977
▁peteĩva	-10.6978
▁oír	-10.6979
▁walla	-10.698
▁Estoy	-10.6981
ram	-10.6983
▁llegue	-10.6983
▁ukhama	-10.6983
▁decidió	-10.6984
▁Alma	-10.6986
▁sucede	-10.6986
▁altura	-10.6992
▁volvió	-10.6993
▁Les	-10.6993
uni	-10.6998
▁imperfectos	-10.7
▁jajerure	-10.7001
▁23:	-10.7002
▁impulsa	-10.7008
▁físico	-10.7009
karaiñe	-10.701
▁registro	-10.701
77	-10.7011
▁Israelgua	-10.7011
▁rregálo	-10.7017
▁maíz	-10.7017
▁Rréi	-10.702
8;	-10.702
▁entrega	-10.7023
▁fondo	-10.7024
▁oikotevẽva	-10.7028
stó	-10.7031
▁sección	-10.7033
▁captura	-10.7034
▁Kamachi	-10.7034
cí	-10.7037
▁ken	-10.7044
▁vol	-10.7051
dra	-10.7053
kunanpaq	-10.7057
▁preparar	-10.7058
▁gobernar	-10.7059
ag̃aite	-10.706
▁esclavos	-10.706
▁ie	-10.7062
▁waranqa	-10.7064
shoko	-10.7067
▁incluye	-10.7069
ndé	-10.7073
▁parecer	-10.7074
▁yanqa	-10.7075
▁mboajepyréva	-10.7076
tix	-10.7076
▁advertencia	-10.7077
To	-10.708
▁rapicha	-10.708
▁escucha	-10.7081
▁oñatende	-10.7082
ray	-10.7083
▁movimiento	-10.7084
▁naiñe	-10.7085
▁ohóva	-10.7086
namanta	-10.709
▁responde	-10.7092
paya	-10.7092
▁nchca	-10.7093
ágã	-10.7094
guata	-10.7096
▁LAS	-10.7098
▁aman	-10.71
▁watapim	-10.7102
▁gusto	-10.7104
▁Jerusalénpe	-10.7105
thi	-10.7106
▁superintendénte	-10.7109
53	-10.7112
▁oñembyaty	-10.7113
▁Ajépa	-10.7122
▁Ese	-10.7124
pp	-10.7125
pha	-10.7126
▁Wikispecies	-10.7126
▁configuración	-10.7126
▁meditar	-10.7128
mano	-10.7135
sqanchik	-10.7139
▁pulitiku	-10.7143
▁prometido	-10.7145
66	-10.7151
▁circuito	-10.7152
▁senen	-10.7153
▁señora	-10.7154
▁privada	-10.7157
▁casaraku	-10.7164
▁SPL	-10.7166
0).	-10.7167
run	-10.7171
chus	-10.7173
▁llevan	-10.7174
▁beber	-10.7181
▁As	-10.7183
▁publicado	-10.7183
mer	-10.719
▁Abdo	-10.7191
▁ijehegui	-10.7192
dri	-10.7193
▁Día	-10.7199
▁hy	-10.7201
▁triste	-10.7202
▁2)	-10.7202
▁encontramos	-10.7202
▁versículos	-10.7203
úpe	-10.7207
▁hinachu	-10.7211
▁formación	-10.7212
úta	-10.7213
▁cuentas	-10.7222
▁1970	-10.7226
▁Solo	-10.7228
spi	-10.7229
▁detrás	-10.7229
▁protege	-10.7231
89	-10.7236
▁Hace	-10.7239
▁gustaría	-10.724
▁capaz	-10.7246
▁enviado	-10.7248
▁iñimportánteva	-10.7251
▁imbarete	-10.7252
▁iñimportantete	-10.7253
▁yoiwe	-10.7256
–	-10.7258
▁salvar	-10.7259
▁25:	-10.7267
eron	-10.7269
▁quimo	-10.7269
▁isy	-10.7271
▁comisión	-10.7271
▁vaya	-10.728
▁ofrecer	-10.7282
▁Dos	-10.7282
fí	-10.7283
▁kopi	-10.7284
▁Alto	-10.729
▁Aty	-10.7291
mbra	-10.7292
▁promésa	-10.7296
▁maran	-10.7298
Í	-10.7299
▁ganado	-10.7301
78	-10.7301
▁radio	-10.7303
kt	-10.7303
▁gra	-10.7309
▁pasos	-10.731
▁antigüedad	-10.7313
▁lluvia	-10.7318
sor	-10.7325
▁ojagarra	-10.7325
▁acaba	-10.7326
▁nueve	-10.7328
menda	-10.7329
▁solicitud	-10.733
▁Federación	-10.733
▁esencial	-10.7331
▁Lee	-10.7332
kyre	-10.7333
▁saserdóte	-10.7334
▁sede	-10.7336
▁distritukuna	-10.7337
gro	-10.7338
▁iban	-10.7339
▁iro	-10.7339
▁licencia	-10.7339
▁sirven	-10.7341
▁Etiopía	-10.7348
▁sexual	-10.7348
▁mandó	-10.7348
▁1:2	-10.7349
▁debían	-10.7349
▁sagrado	-10.7349
▁adorar	-10.7349
▁mieme	-10.735
▁gu	-10.7353
▁realizó	-10.7356
▁autor	-10.7363
▁Bra	-10.7364
▁munisipyupi	-10.7366
▁panta	-10.7368
▁́lí	-10.7368
▁completamente	-10.737
▁[...].	-10.7374
háre	-10.7376
▁leemos	-10.7376
▁Apostol	-10.738
nmanchu	-10.7381
▁kananmanta	-10.7381
▁maki	-10.7385
ikuaa	-10.7387
▁churin	-10.7388
▁pusa	-10.7388
▁Ikwadur	-10.739
▁asuyku	-10.739
81	-10.7391
▁Conmemoración	-10.7391
▁muchedumbre	-10.7391
▁pei	-10.7391
▁basa	-10.7394
win	-10.74
▁rimaypi	-10.7402
▁etiqueta	-10.7404
▁jw	-10.7405
▁creencias	-10.7407
▁elecciones	-10.7409
▁41	-10.7415
▁21).	-10.7415
▁ipoguýpe	-10.7417
▁internet	-10.7417
▁(%	-10.7421
íma	-10.7421
sy	-10.7423
▁proporciona	-10.7424
▁depende	-10.7428
ptinchikqa	-10.743
▁cuya	-10.743
udi	-10.7431
px	-10.7433
tada	-10.7436
▁tuqi	-10.7437
eiha	-10.7441
▁cuiya	-10.7441
▁podido	-10.7443
naku	-10.7443
qkunata	-10.7443
chiq	-10.7445
▁comunidades	-10.7446
gí	-10.745
▁ty	-10.7451
▁roho	-10.7456
▁ikax	-10.7457
jerure	-10.7458
▁rami	-10.7459
▁jeroviaha	-10.7461
▁siguió	-10.7469
▁Diego	-10.747
▁l	-10.7471
▁antigua	-10.7471
▁media	-10.7472
▁angustia	-10.7478
▁normal	-10.7478
▁trabajadores	-10.7482
▁]	-10.7484
lt	-10.7484
ihápe	-10.7485
▁sucursal	-10.7486
▁Mexico	-10.7487
MI	-10.749
▁legal	-10.749
eran	-10.7491
▁llaki	-10.7491
▁Ára	-10.7493
▁ñoqa	-10.7499
▁Au	-10.7499
▁Cal	-10.7502
▁hospital	-10.7503
75	-10.7506
▁siento	-10.7508
▁desierto	-10.7513
▁QUE	-10.7515
▁yachachiwanchik	-10.7516
▁pornografía	-10.7521
▁remimbo	-10.7522
bicho	-10.7525
▁tengamos	-10.7527
▁metas	-10.753
▁máximo	-10.753
▁tawa	-10.7537
▁Domingo	-10.7539
▁kuarahy	-10.7543
▁mosoq	-10.7548
▁Ben	-10.7548
sqanrayku	-10.7552
▁oposición	-10.7554
:7).	-10.7554
72	-10.7556
▁éste	-10.7558
kas	-10.7562
▁privado	-10.7564
▁espiritu	-10.7567
▁guardar	-10.7568
▁13:1	-10.757
▁cuándo	-10.7573
▁naturales	-10.7574
▁tama	-10.7574
▁enorme	-10.7574
▁New	-10.7575
▁aspectos	-10.7576
▁derecha	-10.7577
▁1)	-10.7578
▁nápi	-10.7582
▁pampacha	-10.7582
▁purahéi	-10.7587
▁acepta	-10.7587
▁ñañeporandu	-10.7589
pura	-10.7589
▁Ur	-10.7592
▁personales	-10.7594
▁conversación	-10.7602
0,	-10.7602
▁rehecha	-10.7604
▁invitación	-10.7605
▁oipytyvõva	-10.7605
▁Salud	-10.7605
▁reconoce	-10.7605
ías	-10.7606
▁ciento	-10.7607
▁decidido	-10.7607
bel	-10.7609
▁iñimportanteve	-10.7609
▁1994	-10.7612
▁firme	-10.7612
▁ñame	-10.7617
▁permitió	-10.7618
▁1999	-10.7621
▁establecer	-10.7625
▁paraguayo	-10.7625
▁távape	-10.7626
▁ves	-10.7626
▁oñemongeta	-10.7627
▁aká	-10.7631
isa	-10.7635
▁perfil	-10.7636
▁hógape	-10.7637
▁jakonma	-10.764
▁Maman	-10.7644
ipy	-10.7645
▁aves	-10.7645
▁Ñanemandu	-10.7645
▁uksan	-10.7647
úi	-10.7647
▁kaspa	-10.7649
▁Dis	-10.7653
kat	-10.7654
Hebreos	-10.7656
▁rurarqa	-10.7656
ýi	-10.7656
sina	-10.7657
▁otrata	-10.7658
▁ukha	-10.7662
▁diversas	-10.7663
74	-10.7667
▁Abel	-10.7671
rente	-10.7673
▁Dicen	-10.7673
tech	-10.7675
▁http	-10.7678
▁falsa	-10.7679
▁way	-10.768
▁Walla	-10.7683
▁martes	-10.7684
ND	-10.7684
▁ipype	-10.7687
güe	-10.769
76	-10.7691
▁pase	-10.7692
Efe	-10.7694
▁llevado	-10.7694
▁Itúva	-10.7696
▁antiguos	-10.7696
▁Ñanduti	-10.7698
▁faraón	-10.7698
▁industria	-10.7707
▁Iporã	-10.7709
▁eha	-10.7709
japóramo	-10.771
iza	-10.7715
▁carácter	-10.7716
▁trigo	-10.7718
▁barrio	-10.7722
yotl	-10.7722
rqan	-10.7724
96	-10.7725
ienta	-10.7728
▁inin	-10.7732
▁Sólo	-10.7734
PY	-10.7737
▁jaa	-10.7741
▁Espíritu	-10.7743
▁ó	-10.7743
▁KO	-10.7743
▁utanaka	-10.7746
▁riku	-10.7746
▁George	-10.7748
▁llaqtap	-10.7748
▁agradable	-10.7749
▁VA	-10.775
▁watakama	-10.7751
▁Paraíso	-10.7752
▁Naciones	-10.7754
▁1992	-10.7754
▁Heb	-10.7756
lca	-10.776
▁hatã	-10.7761
▁peg̃uarã	-10.7761
Dónde	-10.7761
▁encima	-10.7762
zqui	-10.7763
itépe	-10.7765
▁aiko	-10.7767
▁Eike	-10.7769
▁Comité	-10.777
háme	-10.7773
▁instalar	-10.7773
▁examinar	-10.7777
kiwa	-10.7779
rentsi	-10.7779
▁Estaba	-10.7779
ona	-10.7781
:18).	-10.7786
▁ij	-10.7791
▁demonios	-10.7794
kã	-10.7796
ij	-10.7798
▁comenzaron	-10.7799
hto	-10.7799
62	-10.7802
tle	-10.7804
▁jay	-10.7804
?"	-10.781
▁amorosa	-10.781
▁Jára	-10.7815
▁Ari	-10.7818
ẽrõ	-10.7818
▁2002	-10.7819
▁ventana	-10.7824
papa	-10.7828
▁maestros	-10.783
▁juzga	-10.783
▁tendápe	-10.7833
▁Enrique	-10.7833
hekombo	-10.7834
▁copia	-10.7839
▁Tupã	-10.7842
57	-10.7842
llata	-10.7843
▁tratamiento	-10.785
▁Salvador	-10.7851
ador	-10.7854
▁marido	-10.7857
▁ñaikotevẽ	-10.7859
▁secreto	-10.786
▁Sant	-10.7866
▁viru	-10.7866
tua	-10.7867
▁Superior	-10.7869
haguére	-10.787
▁compra	-10.7875
▁viva	-10.7875
▁cuarto	-10.7879
ció	-10.788
79	-10.7882
xu	-10.7882
▁terrestre	-10.7887
gas	-10.7889
▁huñunaku	-10.789
▁controlar	-10.7891
▁entera	-10.7892
ág̃arupi	-10.7893
▁pira	-10.7895
LI	-10.7895
iete	-10.7895
▁dör	-10.7896
▁Mac	-10.7897
▁negro	-10.7897
▁25).	-10.7902
toria	-10.7904
▁larga	-10.7904
▁vaíva	-10.7904
▁espada	-10.7906
▁diseño	-10.7906
jar	-10.791
▁300	-10.7917
▁tiya	-10.7917
▁declara	-10.7917
▁pertenece	-10.7921
Hay	-10.7924
▁hijas	-10.7925
jogua	-10.7928
yru	-10.7935
▁Churinkuna	-10.7935
are	-10.7942
▁rapichakuéra	-10.7942
▁ina	-10.7942
▁ungido	-10.7943
nya	-10.7943
yeta	-10.7944
▁ciencia	-10.7948
▁acceder	-10.7951
▁vivimos	-10.7951
▁expresar	-10.7954
▁(5	-10.7954
▁intereses	-10.7955
rqakuchu	-10.7956
In	-10.7957
mai	-10.7957
▁oñemombe	-10.796
fra	-10.7962
▁64	-10.7965
▁Am	-10.7965
▁2011-2014	-10.7969
▁shi	-10.797
▁Ir	-10.797
▁kutichi	-10.797
▁burla	-10.7972
quí	-10.7978
▁institución	-10.7981
ýva	-10.7982
87	-10.7983
ico	-10.7984
dura	-10.7984
nkuna	-10.7985
▁Kan	-10.7986
port	-10.799
▁Pabloqa	-10.799
mon	-10.7993
▁guarã	-10.7993
▁yuca	-10.7994
▁jajapóramo	-10.7996
▁llamar	-10.8
▁persecución	-10.8006
▁grúpo	-10.8006
▁cerro	-10.8009
eros	-10.801
rak	-10.8011
▁condena	-10.8012
net	-10.8014
▁Rodríguez	-10.8015
▁tareas	-10.8017
▁abrir	-10.8018
qha	-10.8019
▁jaha	-10.802
▁animar	-10.802
▁saca	-10.8021
▁hukmanya	-10.8021
kuaái	-10.8025
▁activa	-10.8025
▁ndi	-10.8025
▁omanova	-10.8027
uk	-10.8029
ntema	-10.8032
▁Bal	-10.8033
juhu	-10.8038
▁jawéki	-10.8043
▁hermoso	-10.8043
▁tikra	-10.8045
imatam	-10.8046
▁pura	-10.8047
▁ī	-10.805
▁realizado	-10.8051
▁qepa	-10.8051
SE	-10.8053
▁paha	-10.8055
vévo	-10.8056
▁Otra	-10.8059
▁luchar	-10.806
▁qallta	-10.8065
▁Lenguas	-10.807
▁wat	-10.8071
▁Comun	-10.8073
▁kuánto	-10.808
Vi	-10.8081
▁michĩ	-10.8082
▁chacra	-10.8082
▁requisitos	-10.8082
▁aservi	-10.809
▁Uno	-10.8093
▁hawkalla	-10.8098
▁valle	-10.8099
▁1960	-10.81
▁oĩma	-10.8101
▁amoroso	-10.8101
▁características	-10.8101
▁recibe	-10.8102
▁amistadnin	-10.8104
2;	-10.8105
▁43	-10.8105
pta	-10.8107
▁URL	-10.8108
▁</	-10.8115
▁dominio	-10.8117
86	-10.8118
▁resistir	-10.8119
▁Tar	-10.812
ꞌ	-10.812
▁tupa	-10.8121
pin	-10.8121
entes	-10.8122
▁sama	-10.8122
nar	-10.8125
jer	-10.8125
:23).	-10.8127
▁iniciativa	-10.8128
▁Marandu	-10.8128
▁extranjeros	-10.8128
kar	-10.8129
▁Nosotros	-10.8132
▁oguenohẽ	-10.8134
nakat	-10.8134
▁entusiasmo	-10.8136
▁16,	-10.8136
▁plataforma	-10.8136
▁TNM	-10.8136
miki	-10.8139
▁ñamombe	-10.814
Nde	-10.8141
▁Lla	-10.8141
▁condición	-10.8142
▁42	-10.8142
chkanku	-10.8144
▁biblia	-10.8145
▁tuichakuére	-10.8145
▁Jahecha	-10.8146
▁17,	-10.8147
Na	-10.8148
twa	-10.8148
▁Bibliapi	-10.815
▁kametsa	-10.815
▁tá	-10.8153
▁pul	-10.8153
▁thu	-10.8154
▁trabajos	-10.8157
▁encarga	-10.8159
3;	-10.8167
arõva	-10.817
mán	-10.8171
1.	-10.8172
niwa	-10.8172
▁demuestran	-10.8173
kunku	-10.8181
▁identidad	-10.8182
ãrõ	-10.8183
▁Wawa	-10.8184
▁or	-10.8188
pach	-10.8189
ólogo	-10.819
▁respetar	-10.8191
ninpi	-10.8191
▁5:1	-10.8191
sar	-10.8191
▁cama	-10.8192
▁material	-10.8193
▁merece	-10.8194
ley	-10.8195
cciones	-10.8197
▁barra	-10.8199
▁pampa	-10.8201
▁análisis	-10.8201
▁moĩmbaha	-10.8201
rurqaku	-10.8202
▁paymi	-10.8202
ì	-10.8206
▁kamachiy	-10.8209
voi	-10.8209
▁Edén	-10.8209
▁jardín	-10.821
▁milagros	-10.8212
▁ñambohovái	-10.8212
82	-10.8212
chkanchik	-10.8213
▁1995	-10.8213
▁cura	-10.8213
ane	-10.8216
▁comprar	-10.8218
▁central	-10.8219
▁Chayraykum	-10.8219
▁inmediato	-10.822
tti	-10.822
cord	-10.822
bal	-10.822
▁Eduardo	-10.8221
▁serio	-10.8222
▁cita	-10.8222
▁Cusco	-10.8223
▁Piluta	-10.8229
▁abogado	-10.8229
achi	-10.8233
▁waqa	-10.8233
▁predicando	-10.8234
ken	-10.8238
▁Asociación	-10.8239
blo	-10.824
▁Sé	-10.8246
▁kaqmanta	-10.8248
▁Nayriri	-10.8248
▁William	-10.8248
▁kopí	-10.825
▁-"	-10.825
▁pensamiento	-10.8253
▁parki	-10.8254
▁pantaq	-10.8257
▁oî	-10.826
▁sueño	-10.826
jw	-10.8261
tlali	-10.8261
▁valora	-10.8264
▁madera	-10.8265
▁Segundo	-10.8267
▁Agua	-10.8268
páva	-10.8269
nea	-10.8271
takix	-10.8272
▁tuicháva	-10.8273
upa	-10.8273
▁gobiernos	-10.8274
til	-10.8274
ense	-10.8274
ptinku	-10.8275
▁casta	-10.8275
pun	-10.8277
▁reñe	-10.8281
▁guiar	-10.8283
▁ndoikuaái	-10.8283
▁matrimónio	-10.8286
▁hekoitépe	-10.8286
zan	-10.8288
▁UN	-10.8289
▁establecido	-10.8291
▁káusare	-10.8295
▁derécho	-10.8295
▁jajapóva	-10.8296
▁rape	-10.8297
zó	-10.8298
▁fielmente	-10.8301
▁tyaa	-10.8306
col	-10.8308
Dan	-10.8314
▁titular	-10.8315
▁diario	-10.8318
▁escritura	-10.8324
▁formar	-10.8326
▁rimaq	-10.8328
▁pí	-10.8329
68	-10.8329
▁tomado	-10.833
▁sata	-10.8331
val	-10.8332
myesakã	-10.8332
▁Madre	-10.8333
▁Gal	-10.8335
▁calli	-10.8335
jopy	-10.8336
-20	-10.8338
▁doctor	-10.8339
▁aire	-10.834
▁ocurrió	-10.8343
▁comportamiento	-10.8343
▁areko	-10.8347
taña	-10.8351
▁ñambo	-10.8351
▁ojejuka	-10.8354
hu̱	-10.8355
nwan	-10.8355
▁ñamba	-10.8356
manpas	-10.8358
▁agradeceku	-10.8359
dero	-10.836
mbyaty	-10.8361
.."	-10.8366
▁Amérikagua	-10.8372
guereko	-10.8374
▁jueves	-10.8381
▁disposición	-10.8381
pái	-10.8385
ñaína	-10.8386
▁puku	-10.8387
llay	-10.8389
▁Política	-10.8391
árõ	-10.8392
6;	-10.8392
yari	-10.8397
▁inmediatamente	-10.8401
hai	-10.8402
Pu	-10.8405
▁Inka	-10.8406
▁ñu	-10.8408
lado	-10.8409
▁discreto	-10.8409
▁francés	-10.8409
▁Yma	-10.8411
▁similar	-10.8416
spam	-10.8417
▁encontrará	-10.8423
▁32:	-10.8423
gia	-10.8424
▁Foto	-10.8425
▁pachak	-10.8425
▁guasúpe	-10.8426
▁prisión	-10.8429
▁Vida	-10.8433
▁jaqinaka	-10.8434
▁ur	-10.8434
▁çan	-10.844
▁ido	-10.844
muy	-10.8441
guy	-10.8443
▁Bautista	-10.8448
cita	-10.845
ykichik	-10.8452
▁oîva	-10.8452
may	-10.8452
▁oñemoag̃ui	-10.8453
hé	-10.8454
▁señaló	-10.8454
▁tetepy	-10.8458
ẽrendúva	-10.846
the	-10.8461
▁olvidar	-10.8466
▁kamachikuynin	-10.8467
▁pusieron	-10.847
moirũ	-10.8472
▁ojehechauka	-10.8473
▁lura	-10.8475
▁tendría	-10.8483
▁aspecto	-10.8484
▁alimenta	-10.8485
▁muchísimo	-10.8486
:21).	-10.849
▁amamos	-10.8491
▁Ñepyrũrã	-10.8491
chasqa	-10.8491
▁romano	-10.8491
▁cá	-10.8492
anta	-10.8492
cra	-10.8492
rdi	-10.8494
Marcos	-10.8494
naq	-10.8495
▁Diputados	-10.8495
▁Paraguáipe	-10.8495
▁rapykuéri	-10.8496
ami	-10.8498
▁textos	-10.8505
▁jeytaha	-10.8506
▁tecnología	-10.8507
nchikta	-10.8513
▁Lorenzo	-10.8515
▁pérdida	-10.8515
▁Chaynata	-10.8516
▁tamaño	-10.8517
nkichu	-10.8521
▁onanti	-10.8521
Imaynam	-10.8523
▁Pablopa	-10.8525
▁Pentecostés	-10.8525
▁contexto	-10.8525
QA	-10.8527
▁Sãmbyhyha	-10.8527
▁Familia	-10.8528
▁1919	-10.8529
▁áñore	-10.853
▁correcta	-10.8531
kú	-10.8532
▁ojehu	-10.8533
▁ataque	-10.8533
▁trono	-10.8535
for	-10.8535
▁henyhẽ	-10.8536
▁descendientes	-10.8537
▁willakun	-10.8537
▁omopu	-10.8539
▁nombrado	-10.854
▁2019	-10.854
▁fra	-10.854
▁Jonás	-10.854
▁pensando	-10.8544
▁Com	-10.8547
▁Pan	-10.8548
▁jaiporu	-10.8548
▁sector	-10.8549
▁compar	-10.8549
gla	-10.8551
▁upégui	-10.8554
▁hampi	-10.8554
warqa	-10.8558
▁toro	-10.8558
esta	-10.8558
kyhyje	-10.8558
▁abajo	-10.856
ñataki	-10.856
bá	-10.8561
▁fuertes	-10.8565
erepy	-10.8565
▁soldados	-10.8566
▁ranti	-10.8571
vý	-10.8573
▁sirviendo	-10.8574
▁otorga	-10.8574
▁fija	-10.8576
▁nija	-10.8577
▁castiga	-10.8578
▁perro	-10.858
ced	-10.8582
▁trató	-10.8585
▁llank	-10.8586
kata	-10.8588
▁48	-10.8591
▁oikuave	-10.8591
▁quichen	-10.8594
cac	-10.8596
▁yanapan	-10.8597
uda	-10.8599
mbohasa	-10.86
tx	-10.8602
▁Gabriel	-10.8603
iséva	-10.8603
tachu	-10.8604
awix	-10.8605
▁Aquí	-10.8607
▁celebrar	-10.8609
▁Mostrar	-10.8613
Jos	-10.8613
DA	-10.8615
Deut	-10.8615
▁sach	-10.8619
▁vivía	-10.8619
▁Puesto	-10.8621
kuépe	-10.8623
▁plata	-10.8623
▁ua	-10.8627
▁é	-10.8628
▁jastudia	-10.8629
▁oĩvape	-10.8629
▁orekoha	-10.8638
kõi	-10.8641
▁defender	-10.8643
Ña	-10.8644
▁pobres	-10.8644
ejerure	-10.8644
ápa	-10.8645
▁Mburuvicha	-10.8645
▁voto	-10.8649
▁odia	-10.865
▁hatuncha	-10.8654
▁amado	-10.8655
▁historias	-10.8659
▁mayma	-10.8659
▁sasachaku	-10.866
Tu	-10.866
▁gi	-10.8661
▁sencilla	-10.8661
▁masa	-10.8661
▁1930	-10.8662
▁Paz	-10.8663
más	-10.8664
▁Tenemos	-10.8664
aciones	-10.8665
▁Primera	-10.8665
line	-10.8667
bar	-10.8668
acha	-10.8668
▁nd	-10.867
▁Tekotevẽ	-10.867
▁tã	-10.8671
▁vivos	-10.8671
▁cristianokunaqa	-10.8676
▁imitã	-10.8679
▁seamos	-10.868
▁1993	-10.868
▁bosque	-10.8681
91	-10.8681
SI	-10.8681
▁mé	-10.8686
▁49	-10.8687
▁pago	-10.8687
▁tó	-10.8687
▁Ignacio	-10.8691
▁milágro	-10.8691
▁pytyvõ	-10.8691
LO	-10.8691
▁hacerse	-10.8692
invita	-10.8695
▁tercera	-10.8697
▁hinallam	-10.8698
rias	-10.8702
▁Paulo	-10.8703
rla	-10.8705
▁iketian	-10.8707
pare	-10.8707
▁oĩta	-10.871
▁presta	-10.871
▁palávra	-10.8711
▁hendáicha	-10.8711
▁paykuna	-10.8711
▁comentarios	-10.8712
eti	-10.8713
▁ahechakuaa	-10.8714
okápe	-10.8717
kwa	-10.872
▁podamos	-10.8721
▁porãramo	-10.8722
▁ojehai	-10.8722
▁existencia	-10.8724
▁Tembiapo	-10.8725
▁miku	-10.8728
kunap	-10.8728
▁Galaad	-10.873
▁apytégui	-10.873
▁34:	-10.8734
▁describe	-10.8734
▁León	-10.8734
▁ahecha	-10.8736
▁compañero	-10.874
▁ysyry	-10.8743
uro	-10.8744
▁Yaqa	-10.8746
▁interesante	-10.8746
tira	-10.8749
▁pedido	-10.8752
▁cuánto	-10.8753
Di	-10.8753
▁Apo	-10.876
▁cometido	-10.876
▁llamkay	-10.8762
▁1989	-10.8763
▁Ndo	-10.8769
▁demostramos	-10.877
▁DIOS	-10.877
▁mani	-10.8773
spaykiqa	-10.8773
▁moral	-10.8775
wanpas	-10.8776
▁Rafael	-10.878
▁diputado	-10.878
▁témplo	-10.878
▁ofrenda	-10.8781
puru	-10.8783
▁nepytyvõ	-10.8785
teca	-10.8786
▁armonía	-10.879
▁arsu	-10.879
▁políticas	-10.8791
▁144.000	-10.8791
tén	-10.8791
▁cayó	-10.8792
dora	-10.8793
▁Rev	-10.8796
▁atra	-10.8799
▁desarrollar	-10.8799
▁jehecha	-10.8801
▁Unidas	-10.8802
Efesios	-10.8807
hasa	-10.8809
▁Chaymanta	-10.8809
▁priviléhio	-10.881
▁idiferénte	-10.8811
▁lectores	-10.8812
▁Electoral	-10.882
▁yvagapegua	-10.882
▁ruwayta	-10.882
▁qellqarqa	-10.8824
▁ejerce	-10.8824
▁rojapo	-10.8826
ipo	-10.8826
aria	-10.8828
▁producto	-10.8829
▁Android	-10.883
▁Aarón	-10.883
▁relatos	-10.883
ykurqa	-10.8832
qnin	-10.8835
tili	-10.8836
▁maravilloso	-10.884
rista	-10.884
▁ruwarqa	-10.8844
iz	-10.8845
▁parecía	-10.885
▁Casa	-10.8852
▁nayra	-10.8854
Jawekeska	-10.8855
73	-10.8857
▁jaheja	-10.8857
▁siérvo	-10.886
▁usó	-10.886
▁oportunida	-10.8866
forma	-10.8866
▁nepytyvõta	-10.8866
▁NO	-10.8867
Un	-10.8869
▁encuentro	-10.887
▁hapichápe	-10.887
▁tuta	-10.8871
▁terminó	-10.8872
▁Nahániri	-10.8873
▁computadora	-10.8874
ph	-10.8878
▁tembireko	-10.8881
▁kasqan	-10.8882
▁exige	-10.8882
▁apensa	-10.8883
▁realiza	-10.8884
ula	-10.8884
cahua	-10.8886
jua	-10.8887
▁mohendaha	-10.889
▁blanca	-10.889
▁jainoax	-10.8892
▁yachanchik	-10.8893
▁24).	-10.8894
mbre	-10.8894
▁65	-10.8895
anqayuq	-10.8897
lco	-10.8899
▁competencia	-10.89
▁Ñemañaha	-10.89
▁Kamasqa	-10.89
marka	-10.8901
▁venido	-10.8902
▁Rusia	-10.8904
kopi	-10.8905
▁bana	-10.8909
▁asambléa	-10.891
▁poguýgui	-10.891
▁ombyai	-10.8911
rakiw	-10.8912
▁Markus	-10.8912
pú	-10.8912
▁15,	-10.8913
▁corre	-10.8917
▁Pablom	-10.8917
¿	-10.8917
▁phaxsi	-10.8917
▁atýpe	-10.8917
▁anchatam	-10.8918
▁qoE	-10.892
▁conocida	-10.892
sqanraykum	-10.8923
cé	-10.8924
▁totalmente	-10.8928
▁ñanderehehápe	-10.8928
páma	-10.8928
onda̱	-10.8931
jó	-10.8934
xeiya	-10.8934
▁Derechos	-10.8936
éra	-10.8938
▁mío	-10.8939
▁cuestiones	-10.894
▁frecuencia	-10.894
▁levanta	-10.894
▁isa	-10.8947
▁72	-10.8947
▁porãha	-10.8948
▁Aquel	-10.895
TI	-10.895
CI	-10.8954
▁bautizaku	-10.8956
▁debes	-10.8957
▁rupípa	-10.896
▁Tri	-10.8961
CE	-10.8961
▁vieron	-10.8962
▁asýva	-10.8963
uma	-10.8966
aha	-10.8966
▁Dr	-10.897
▁1998	-10.8971
ẽrõitéma	-10.8971
▁presentó	-10.8971
▁SE	-10.8973
amiento	-10.8974
míva	-10.8975
sign	-10.8976
▁imposible	-10.8981
▁joibo	-10.8981
▁idiómape	-10.8985
▁44	-10.8985
▁leal	-10.8986
▁perfecta	-10.8987
▁Yacha	-10.899
▁Epidendrum	-10.8991
▁ndovaléi	-10.8991
▁Central	-10.8991
▁ñemboheko	-10.8991
eni	-10.8991
▁amaba	-10.8992
▁29).	-10.8992
ain	-10.8993
▁Chupe	-10.8993
▁ojesalva	-10.8993
▁Dirección	-10.9001
▁22).	-10.9001
▁aula	-10.9003
paj	-10.9004
▁120	-10.9005
▁oñemoingove	-10.9005
gna	-10.9005
▁jupa	-10.9007
▁puro	-10.901
ún	-10.9011
▁crecimiento	-10.9011
▁seguimos	-10.9013
▁luna	-10.9013
▁Ramón	-10.9013
▁parla	-10.9015
▁jiwi	-10.9015
nkum	-10.9017
dro	-10.9018
▁ombohasa	-10.9019
▁pä	-10.902
▁Tesalonicenses	-10.9021
zón	-10.9022
unchaw	-10.9023
▁saya	-10.9028
PI	-10.9033
▁́a	-10.9042
▁campos	-10.9042
1;	-10.9045
product	-10.9046
▁We	-10.9048
▁Tras	-10.9049
bli	-10.9051
▁Watch	-10.9052
▁mai	-10.9052
▁kookie	-10.9053
▁posibilidad	-10.9053
▁ñañatende	-10.9054
mani	-10.9057
▁inon	-10.9061
▁ejapo	-10.9062
▁ÑA	-10.9063
▁tetãvore	-10.9063
cito	-10.9068
eguasúva	-10.9068
atã	-10.9069
▁Hukllachas	-10.9069
▁destaca	-10.907
▁lograr	-10.9073
▁multitud	-10.9073
uca	-10.9073
niy	-10.9073
▁Autoridades	-10.9075
▁oimehápe	-10.9078
▁gobernante	-10.908
▁tlaca	-10.9081
▁Sch	-10.9082
▁Tiémpo	-10.9083
▁Suprema	-10.9083
▁alcance	-10.9083
▁descarga	-10.9084
tantyari	-10.9084
▁Javier	-10.9085
▁dioses	-10.9086
mbohovái	-10.9087
▁omoĩva	-10.9088
▁rico	-10.9088
▁religion	-10.9092
▁impedir	-10.9093
pana	-10.9093
RO	-10.9093
▁generación	-10.9094
▁Enoc	-10.9095
inlish	-10.9096
▁regresar	-10.9096
▁traer	-10.9098
▁rechazar	-10.9099
▁ojuhu	-10.91
▁bastante	-10.91
cri	-10.91
▁permanente	-10.9103
apohára	-10.9107
cado	-10.9111
▁sentado	-10.9112
▁recibieron	-10.9113
▁ndaija	-10.9115
▁Mari	-10.9115
▁tor	-10.9117
▁materna	-10.9118
▁orgullo	-10.9121
▁`	-10.9121
nchikchu	-10.9122
▁persónape	-10.9127
kero	-10.9127
▁caballo	-10.913
Mu	-10.9131
qkunaqa	-10.9131
▁okanta	-10.9131
▁matar	-10.9134
▁qatiqnin	-10.9135
▁arst	-10.9137
▁Canadá	-10.914
▁maya	-10.9143
▁siembra	-10.9144
▁nchgaa	-10.9145
▁Mujer	-10.9147
▁referencia	-10.915
▁cuarenta	-10.9155
▁chaypim	-10.9155
tía	-10.9156
▁gestión	-10.9158
-4	-10.9163
tzinco	-10.9164
▁confia	-10.9164
▁kawsakuy	-10.9166
▁pestaña	-10.917
▁juego	-10.917
▁Media	-10.9172
▁Israélpe	-10.9175
▁mborayhúpe	-10.9175
momarandu	-10.9178
sol	-10.9179
▁qaway	-10.9179
▁mensajes	-10.9189
▁imamantapas	-10.9192
▁sonido	-10.9194
▁Jehovándi	-10.9196
▁carro	-10.9196
▁ukanaka	-10.9202
TE	-10.9205
▁PETEĨ	-10.9206
▁ámbito	-10.9206
äna	-10.9208
▁ñemano	-10.9209
llachu	-10.921
▁Nda	-10.921
dy	-10.9211
▁yachachisqan	-10.9212
▁quiénes	-10.9213
▁servirle	-10.9214
▁trae	-10.9217
▁Fernández	-10.9217
▁rimayta	-10.9217
Ya	-10.9218
▁aswanta	-10.9218
▁Senado	-10.9225
▁enterovéva	-10.9227
▁tercer	-10.9228
▁Charles	-10.9228
nke	-10.9229
▁1986	-10.9229
pyta	-10.923
▁}</	-10.9231
▁kamachirqa	-10.9232
▁chaq	-10.9237
shin	-10.9238
erãmo	-10.924
rma	-10.924
háva	-10.9242
▁Qi	-10.9244
upy	-10.9246
▁vivió	-10.9248
▁ikon	-10.9249
▁1991	-10.925
▁profetas	-10.9253
porandu	-10.9254
jos	-10.9254
▁miti	-10.9258
▁ovetã	-10.9258
▁ruvicha	-10.9258
▁ilustración	-10.9261
▁echi	-10.9263
▁salida	-10.9264
rame	-10.9264
▁embo	-10.9264
etépe	-10.9266
rico	-10.9268
▁Runa	-10.9268
▁integridad	-10.9269
▁física	-10.927
▁vestir	-10.9271
▁qha	-10.9272
▁ombyaty	-10.9275
ãta	-10.9275
fre	-10.9277
vio	-10.9278
sqaykichik	-10.9279
▁Público	-10.9279
▁Sea	-10.9285
▁munaynin	-10.9285
▁super	-10.9286
Po	-10.9286
▁warma	-10.9286
llos	-10.9286
▁querido	-10.9289
▁cui	-10.9289
▁progreso	-10.929
▁exactamente	-10.9291
▁bendeci	-10.9291
▁asistencia	-10.9291
5;	-10.9295
▁18,	-10.9295
ãichagua	-10.93
▁munaychakusqan	-10.93
▁Tower	-10.93
▁rurayta	-10.9301
dió	-10.9302
nakamp	-10.9302
:24).	-10.9303
▁crecer	-10.9305
idades	-10.9305
bio	-10.9305
▁Anta	-10.9307
▁Ac	-10.931
como	-10.931
▁Iskay	-10.931
zu	-10.9311
mea	-10.9311
quiz	-10.9312
▁1940	-10.9313
▁káso	-10.9315
tilla	-10.9316
Puede	-10.9321
▁Eliseo	-10.9321
▁profundamente	-10.9323
cara	-10.9323
▁1981	-10.9324
▁protesta	-10.9325
▁wawqe	-10.9325
▁estructura	-10.9325
▁llaqtan	-10.9328
nwa	-10.9328
nepa	-10.9328
mbyasy	-10.933
nai	-10.933
▁Fuerza	-10.9331
▁piña	-10.9338
▁(4	-10.9344
▁boda	-10.9345
▁báque	-10.9347
▁considerar	-10.9348
▁agradar	-10.9348
▁elegido	-10.9348
▁estrecha	-10.9349
▁aní	-10.935
▁Provincial	-10.935
▁presentar	-10.935
▁at	-10.9352
pal	-10.9352
▁Pá	-10.9353
Ni	-10.9353
pytu	-10.9354
▁nic	-10.9358
▁rimaykuna	-10.9359
mita	-10.9361
▁ideprovécho	-10.9362
▁poderoso	-10.9363
▁Pública	-10.9363
▁extensión	-10.9363
▁sala	-10.9365
▁domina	-10.9365
tivos	-10.9366
yaq	-10.9371
iba	-10.9373
▁ipyahúva	-10.9374
▁congregacion	-10.9377
▁empresas	-10.9377
tantsi	-10.9377
▁emo	-10.9381
▁Vea	-10.9383
lde	-10.9383
▁Hinaptinmi	-10.9384
▁descanso	-10.9384
▁kaynin	-10.9385
▁UNA	-10.9385
▁nja	-10.9386
▁enteron	-10.9386
▁Australia	-10.9391
▁independiente	-10.9395
winaka	-10.9402
▁mental	-10.9403
sma	-10.9405
▁tapichápe	-10.9405
stri	-10.9406
7;	-10.9408
▁vencer	-10.941
▁sapakama	-10.941
ndú	-10.9414
▁desgracia	-10.9416
▁jahuen	-10.9416
mat	-10.9416
▁vae	-10.942
▁suyuxa	-10.9422
▁distancia	-10.9426
▁manda	-10.9427
Efes	-10.9427
taw	-10.9427
ori	-10.9427
taka	-10.9432
▁denuncia	-10.9433
▁evidente	-10.9437
▁Algunas	-10.9437
▁kasqankumanta	-10.9439
▁popular	-10.9439
▁cien	-10.9441
▁estudiante	-10.9443
izar	-10.9443
▁Deuteronomio	-10.9444
▁área	-10.9446
▁iporãitereíva	-10.9448
▁Díaz	-10.9452
illa	-10.9453
Mayna	-10.9453
▁convertido	-10.9458
sado	-10.9464
ore	-10.9468
▁oñondivepa	-10.9468
▁Corinto	-10.9469
CA	-10.9469
fri	-10.9469
yka	-10.9469
▁dando	-10.947
▁objetivos	-10.9471
▁Chayta	-10.9472
▁oportunidades	-10.9475
▁dejaron	-10.9479
▁mensáhe	-10.948
▁ukar	-10.948
▁Amirika	-10.948
▁kama	-10.9482
▁tratado	-10.9483
▁digo	-10.9484
▁iamax	-10.9484
▁Embo	-10.9485
▁mus	-10.9486
▁Ven	-10.9487
▁llevaba	-10.9489
▁extraordinaria	-10.949
▁petición	-10.9491
▁valores	-10.9491
▁Información	-10.9491
ína	-10.9492
ári	-10.9496
▁Plan	-10.9496
▁tekotevẽva	-10.9497
▁Ze	-10.9498
▁ohenói	-10.9498
▁hardín	-10.9501
▁publicación	-10.9503
▁extra	-10.9505
▁Isla	-10.951
Qaway	-10.9512
yun	-10.9512
▁administración	-10.9513
▁Filipenses	-10.9513
waqninchik	-10.9517
▁Rom	-10.9517
▁breve	-10.9519
▁responsable	-10.9519
idas	-10.9521
▁montaña	-10.9522
▁terrible	-10.9522
▁ipya	-10.9526
▁desarrolla	-10.9527
▁12:1	-10.9528
▁reínte	-10.9529
▁recuperar	-10.953
▁kasukuq	-10.9532
▁paraguaya	-10.9533
▁1996	-10.9535
▁hablaba	-10.9537
▁yachachikuy	-10.9539
Oĩ	-10.9541
▁columna	-10.9544
ich	-10.9545
▁rasa	-10.9545
▁comenzar	-10.9546
▁plaza	-10.9547
▁ypykuéra	-10.9548
apu	-10.955
gé	-10.9552
punim	-10.9552
puesta	-10.9554
▁!	-10.9555
▁santos	-10.9555
▁permita	-10.9555
inec	-10.9555
▁rostro	-10.956
kame	-10.9563
▁método	-10.9563
▁apoya	-10.9563
▁efectos	-10.9563
▁dí	-10.9564
▁aceptó	-10.9565
▁obliga	-10.9565
▁indicó	-10.9566
▁perdió	-10.9566
▁existen	-10.9566
▁ayude	-10.9566
▁pobreza	-10.9566
guá	-10.9568
▁asambleas	-10.9571
▁khu	-10.9571
▁aya	-10.9572
▁Ay	-10.9575
yetiri	-10.9575
Wa	-10.9576
▁ABC	-10.9576
ntsi	-10.9582
kuru	-10.9584
▁1:1	-10.9584
▁salvo	-10.9586
▁promover	-10.9587
▁válido	-10.9587
biribi	-10.9589
▁suyuwa	-10.9589
nanchikchu	-10.9592
take	-10.9594
ãramo	-10.9595
:1-3).	-10.9599
ákena	-10.9602
ýre	-10.9603
▁anteriores	-10.9607
poru	-10.9607
▁viejo	-10.9608
▁allinkunata	-10.9609
▁mantenerse	-10.9609
▁fundamental	-10.961
▁ciertas	-10.9613
▁Ñañeha	-10.9618
▁soldádo	-10.9619
▁chehegui	-10.9619
▁alemán	-10.9619
▁aceite	-10.9619
Co	-10.9622
▁yanapawa	-10.9625
▁ike	-10.9627
riy	-10.9627
▁enfermo	-10.9628
▁descendencia	-10.963
▁organizaciones	-10.9631
ninkuta	-10.9634
▁cheqni	-10.9635
chirqa	-10.9636
▁entidades	-10.9637
▁Lingüísticas	-10.9638
lón	-10.9641
▁crece	-10.9641
▁1958	-10.9644
▁É	-10.9644
▁paykunapa	-10.9645
▁nisqan	-10.9649
Chi	-10.965
▁fidelidad	-10.9651
ntli	-10.9652
▁Colorado	-10.9653
▁churinkuna	-10.9657
:28).	-10.9657
az	-10.9657
▁musuq	-10.9658
▁utilizado	-10.9661
ãngamýi	-10.9662
▁demostrado	-10.9662
▁avavépe	-10.9663
chiy	-10.9663
▁hinaptinmi	-10.9665
▁abandonar	-10.9668
Esta	-10.967
▁comienza	-10.9673
▁veinte	-10.9673
▁programas	-10.9675
pot	-10.9677
▁Cultura	-10.9679
qmi	-10.968
ire	-10.9682
▁económica	-10.9683
▁abuelo	-10.9683
pul	-10.9683
▁mata	-10.9685
▁casarse	-10.9686
▁(6	-10.969
ÿ	-10.9694
ykuéra	-10.9694
▁extranjera	-10.9695
lina	-10.9698
▁piedras	-10.9699
▁límites	-10.97
▁rre	-10.97
jeita	-10.9706
▁westíora	-10.9706
▁liberación	-10.9707
él	-10.9709
▁peor	-10.9709
vier	-10.9709
nkunata	-10.9715
▁obediencia	-10.9717
▁Marta	-10.972
▁oipytyvõta	-10.972
▁Clima	-10.9722
▁usando	-10.9725
▁posee	-10.9727
▁especiales	-10.9728
▁Ministro	-10.9728
▁comienzo	-10.9728
etereíva	-10.9728
▁niña	-10.973
▁HAG̃UA	-10.9739
▁Pensemos	-10.9739
cón	-10.9746
▁misionero	-10.9748
dór	-10.9749
▁téma	-10.9751
tâ	-10.9753
▁Pin	-10.9754
ninchik	-10.9755
9;	-10.9756
▁Jaskara	-10.9756
irinaka	-10.9757
▁oñehenói	-10.9758
▁victoria	-10.976
▁kallpanchawa	-10.9768
▁Concepción	-10.9773
▁humildes	-10.9774
▁riremínte	-10.9776
▁qonqa	-10.9778
▁lloqsi	-10.9779
▁muchacho	-10.9781
perdona	-10.9782
▁allintam	-10.9783
▁kanchik	-10.9786
▁Comp	-10.9787
ambue	-10.9789
▁llu	-10.9794
sus	-10.9795
▁oikótava	-10.9796
Elee	-10.9797
▁pasaje	-10.9797
rusu	-10.9799
▁1922	-10.9799
▁munasqanta	-10.98
▁hekopete	-10.9803
▁Usted	-10.9806
▁constantemente	-10.9807
▁fácilmente	-10.9809
dón	-10.981
▁reciben	-10.9811
▁Bor	-10.9815
mor	-10.9815
▁Sala	-10.9816
▁expresó	-10.9817
▁dedicado	-10.9819
wiya	-10.982
▁kawsarimu	-10.9821
▁mamallaqta	-10.9822
▁pasando	-10.9825
▁peso	-10.9825
▁religiones	-10.9825
▁Yana	-10.9826
bor	-10.9827
▁sipas	-10.9827
▁remo	-10.9827
▁yachachiq	-10.9827
▁misioneros	-10.9828
▁Sánchez	-10.9829
Las	-10.9833
▁haĝua	-10.9837
▁mboajepyre	-10.9837
▁solución	-10.9837
▁sexuales	-10.9838
▁Víctor	-10.9838
▁cadena	-10.9838
Santiago	-10.9839
▁aconseja	-10.9849
▁ŕa	-10.9849
▁3)	-10.9849
wasun	-10.9851
▁riquezas	-10.9851
▁repensa	-10.9852
▁compara	-10.9855
▁Ava	-10.9857
▁Tito	-10.986
▁prometió	-10.986
ñimportanteterei	-10.986
mena	-10.9862
▁rurasqa	-10.9864
mondo	-10.9865
glo	-10.9869
▁enterovépe	-10.9871
▁calma	-10.9871
▁qallaykurqa	-10.9872
▁1979	-10.9873
▁pá	-10.9877
▁loo	-10.9879
▁uñacht	-10.9882
▁vendrá	-10.9882
suyu	-10.9883
naykichikpaq	-10.9884
▁dia	-10.9889
▁ojapóma	-10.989
nawa	-10.9891
▁aguante	-10.9893
▁defensa	-10.9893
▁pópe	-10.9894
▁sipaskuna	-10.9896
▁jalee	-10.9906
apoha	-10.9907
masi	-10.9908
▁oikotaha	-10.991
ija	-10.9911
kasai	-10.9913
▁jawékibo	-10.9913
!”.	-10.9914
="{	-10.9916
▁1984	-10.9918
▁vecinos	-10.9922
▁ndä	-10.9927
▁públicas	-10.9927
▁debajo	-10.9928
▁pesca	-10.9933
NE	-10.9937
▁tentación	-10.9939
Jesús	-10.9939
▁señas	-10.994
nkichik	-10.9942
▁pastores	-10.9942
bin	-10.9946
nus	-10.9946
▁nichwan	-10.9947
nteha	-10.9948
▁folleto	-10.9949
▁Apa	-10.9951
▁pedirle	-10.9953
▁cualquiera	-10.9956
▁ministra	-10.996
▁españoles	-10.9961
▁tupachi	-10.9963
ronqui	-10.9967
▁kananchikpaq	-10.9967
▁funcionarios	-10.9972
▁automáticamente	-10.9972
hẽ	-10.9973
apýva	-10.9974
▁israelita	-10.9974
CIÓN	-10.9976
▁Chaco	-10.9977
apyeterei	-10.9978
ptinmi	-10.998
▁enkuénta	-10.9982
▁trate	-10.9984
hí	-10.9984
▁Hugo	-10.9985
yninta	-10.9987
ān	-10.9988
▁ilustra	-10.9989
▁Pal	-10.9993
▁dignidad	-10.9993
EN	-10.9994
▁Oñeha	-10.9995
▁Opavave	-11.0001
able	-11.0002
▁munaq	-11.0003
▁cultural	-11.0004
▁rit	-11.0005
▁contribuir	-11.0009
▁ukanakax	-11.001
▁hue	-11.0013
ségui	-11.0015
nel	-11.0015
▁artista	-11.0016
ante	-11.0016
guáre	-11.0018
▁estuviera	-11.0018
▁quiera	-11.0019
3).	-11.0021
nis	-11.0026
▁teniendo	-11.0027
▁avy	-11.0028
paqpas	-11.0029
▁Jean	-11.0029
▁yachachirqa	-11.003
▁kitilli	-11.0031
▁llaqtaqa	-11.0031
▁pusaq	-11.0034
▁omoneĩ	-11.0035
▁falsos	-11.0037
▁ñanendive	-11.0038
vin	-11.0039
▁jila	-11.004
▁plantea	-11.004
▁ruwaq	-11.0042
▁arca	-11.0045
▁llakisqa	-11.0045
▁1918	-11.0046
cimiento	-11.0047
▁cre	-11.0047
▁raíz	-11.005
▁hembirekópe	-11.005
▁jasy	-11.0053
ic	-11.0053
sqankurayku	-11.0053
▁4:8).	-11.0059
▁ame	-11.0059
▁1974	-11.0064
▁nina	-11.0064
▁CA	-11.0067
▁bebé	-11.0071
ñá	-11.0072
▁Martínez	-11.0073
▁Suyukuna	-11.0074
ciendo	-11.0074
▁ordenó	-11.0074
▁corte	-11.0074
▁Provincia	-11.0075
▁SA	-11.0075
Peteĩ	-11.0076
▁1955	-11.0076
▁cualidad	-11.008
quen	-11.0083
▁párrafos	-11.0083
▁Cincuenta	-11.0083
SPL	-11.0085
▁avanzada	-11.0085
▁civil	-11.0086
▁ñamboyke	-11.0087
vépe	-11.0087
▁Estamos	-11.0091
pxatayna	-11.0092
▁damos	-11.0093
▁osheki	-11.0095
▁participa	-11.0096
▁flores	-11.0097
▁1988	-11.0098
side	-11.0098
▁tiemponpi	-11.0102
▁um	-11.0107
▁religioso	-11.0109
kia	-11.011
▁Dijo	-11.0115
▁tic	-11.0115
pyahu	-11.0117
▁Satanas	-11.0118
▁acontecimientos	-11.0118
▁dirigió	-11.012
▁multiplicado	-11.012
▁hetaite	-11.012
▁mitad	-11.0122
▁kasqanrayku	-11.0126
ychu	-11.0126
▁solamente	-11.0128
▁manifestar	-11.0129
▁mismas	-11.0131
▁Ndaha	-11.0133
▁jára	-11.0133
▁Inter	-11.0135
▁awe	-11.0135
china	-11.0135
nakar	-11.0139
▁Hyãsia	-11.014
▁Trinidad	-11.014
▁intención	-11.014
▁teoría	-11.0141
▁producir	-11.0141
▁poderosa	-11.0142
▁1945	-11.0144
▁Mira	-11.0146
▁tarpuy	-11.0149
xca	-11.015
ÑA	-11.0151
▁adora	-11.0151
cie	-11.0151
yvy	-11.0151
▁Indígenas	-11.0153
▁guei	-11.0153
▁añade	-11.0154
▁},	-11.0155
ller	-11.0155
JE	-11.0157
▁necesitaba	-11.0159
▁3:1	-11.0164
PÑS	-11.0166
▁Ali	-11.0166
▁alguno	-11.0167
▁vivían	-11.0167
▁kua	-11.0167
▁66	-11.0167
npa	-11.0172
▁estrellas	-11.0178
▁Bible	-11.0178
nen	-11.0179
▁mése	-11.0181
pita	-11.0181
www	-11.0182
▁ō	-11.0183
IN	-11.0184
mayu	-11.0184
▁cartas	-11.0184
▁iñiqkuna	-11.0185
▁primérope	-11.0186
▁TAKIKUNA	-11.0186
ple	-11.0186
▁ocurre	-11.0187
▁1987	-11.0188
▁qawasun	-11.0189
▁imagina	-11.0191
íramo	-11.0191
▁omoteneuh	-11.0197
▁acompaña	-11.0198
▁hoja	-11.0199
▁ñemoneĩ	-11.0202
▁qhipa	-11.0202
▁ikangy	-11.0202
▁vuelva	-11.0204
cate	-11.0205
úvo	-11.0205
▁fortalece	-11.0206
▁reacción	-11.0209
rito	-11.021
lidad	-11.021
Ñ	-11.0211
▁omoñepyrũ	-11.0211
quac	-11.0212
▁54	-11.0215
▁Non	-11.0215
trata	-11.0215
▁runakunawan	-11.0216
▁nisqanpi	-11.0216
▁ponen	-11.0217
ncho	-11.0218
▁urqum	-11.0219
▁cambió	-11.022
▁piluta	-11.022
ote	-11.0221
qua	-11.0223
▁kar	-11.0225
▁queridos	-11.0227
gt	-11.0228
▁ikanta	-11.023
▁sana	-11.0231
▁llamaba	-11.0235
▁uksa	-11.0237
▁cookies	-11.0238
▁apropiado	-11.0243
anti	-11.0245
▁piel	-11.0247
▁judiokuna	-11.0247
kurqaku	-11.0249
▁sucesos	-11.025
▁barro	-11.025
▁jati	-11.0251
▁tienda	-11.0252
▁jopói	-11.0255
▁motivos	-11.0257
lmente	-11.0257
pos	-11.0258
▁wasin	-11.0258
gran	-11.0259
ỹvape	-11.0264
▁tö	-11.0265
abi	-11.0267
ampi	-11.0267
▁consulta	-11.0269
▁vea	-11.0274
▁Rebeca	-11.0278
▁Isabel	-11.0278
▁Wasi	-11.028
kunankupaq	-11.0282
yninchik	-11.0283
▁ñanderayhu	-11.0286
▁niya	-11.0289
kani	-11.0289
▁Horacio	-11.0289
▁omoingove	-11.0289
▁terreno	-11.029
▁correspondiente	-11.029
▁mete	-11.0291
▁yehuatl	-11.0292
▁nge	-11.0294
sqanpi	-11.0298
▁rresponsavilida	-11.0301
▁principalmente	-11.0302
▁cumple	-11.0306
▁reqsisqa	-11.0307
▁Aymara	-11.0313
▁Otro	-11.0316
▁1997	-11.0316
▁esposas	-11.0317
AL	-11.0317
ínte	-11.0317
▁Hetaiterei	-11.0318
▁organizado	-11.032
▁PÑS	-11.0321
▁garantiza	-11.0321
▁jú	-11.0323
ker	-11.0325
▁devoción	-11.0326
▁montañas	-11.0327
▁1971	-11.0327
tró	-11.0328
raha	-11.0329
▁eiro	-11.0329
mari	-11.0329
media	-11.0329
▁vaieterei	-11.033
rió	-11.0333
rca	-11.0333
0;	-11.0335
▁Ojapo	-11.0336
▁serpiente	-11.0336
▁irre	-11.0336
▁̱u	-11.0337
▁motiva	-11.0337
▁castigo	-11.034
▁rembi	-11.0344
▁kuyakuq	-11.0345
▁hablado	-11.0345
▁Awya	-11.0347
▁ruta	-11.035
▁tome	-11.0351
▁ichapas	-11.0351
ỹijóta	-11.0354
▁Imp	-11.0356
▁Llaqta	-11.0359
▁omoañete	-11.0359
▁munayninta	-11.0361
▁1965	-11.0362
▁Norte	-11.0364
▁injusticia	-11.0365
▁Siria	-11.0365
▁ambuéva	-11.0367
ptinkuqa	-11.0368
dí	-11.0369
▁útiles	-11.0371
▁aycha	-11.0372
▁andar	-11.0373
▁84	-11.0373
▁relata	-11.0374
▁yachachin	-11.0375
GA	-11.0376
▁unidos	-11.0377
ej	-11.0377
-1	-11.0379
▁Diostam	-11.0382
hina	-11.0383
▁ojeporavo	-11.0384
▁27:	-11.0387
tino	-11.0387
eza	-11.0388
tequi	-11.0388
▁Servicio	-11.0389
▁uñja	-11.039
▁iyo	-11.039
cro	-11.0392
kirirĩ	-11.0394
rmón	-11.0396
▁dólares	-11.0396
▁golpe	-11.0396
▁jepuru	-11.0397
renda	-11.0397
▁thoki	-11.0397
%2$	-11.0398
chisqa	-11.0403
Diospa	-11.0405
▁resolución	-11.0405
quia	-11.0406
▁hoki	-11.0406
chkaspa	-11.0407
▁jehechauka	-11.0409
▁mandamientos	-11.0412
▁barco	-11.0416
Ex	-11.0419
▁1975	-11.042
Min	-11.0421
▁Tur	-11.0422
▁imitãva	-11.0424
▁jaikove	-11.0427
▁}.	-11.0431
▁destino	-11.0438
▁bautiza	-11.0438
▁oinxon	-11.0438
▁máva	-11.0439
▁permitirá	-11.0439
▁corazones	-11.0441
▁Epáña	-11.0441
▁Plantilla	-11.0441
▁querían	-11.0442
▁XIV	-11.0442
GUA	-11.0444
▁clara	-11.0445
▁guerras	-11.0449
▁verde	-11.045
̱ni	-11.0451
ãhára	-11.0452
▁oma	-11.0453
▁decimos	-11.0455
▁sembrar	-11.0457
Deuteronomio	-11.0457
riwa	-11.0459
▁Joseph	-11.0464
▁yuyayniyoq	-11.0464
▁PARA	-11.0465
▁ní	-11.0468
damente	-11.0468
▁Tres	-11.0474
▁perspectiva	-11.0476
CHA	-11.0477
berg	-11.0477
▁SU	-11.0478
▁“%1$	-11.0479
▁qaya	-11.048
cauh	-11.0481
▁Nobel	-11.0484
▁viúda	-11.0488
Commons	-11.0492
mática	-11.0493
epyre	-11.0494
▁Unos	-11.0495
▁allinpaq	-11.0497
nay	-11.0502
▁audio	-11.0506
aje	-11.0506
êva	-11.0509
▁Pampa	-11.0512
▁moõpa	-11.0513
▁ipochy	-11.0514
mombarete	-11.0517
▁uku	-11.0518
▁contigo	-11.0523
▁ricos	-11.0525
▁pasan	-11.0526
▁agradecidos	-11.0527
▁Moa	-11.0528
▁oguata	-11.0528
TU	-11.0529
▁Mor	-11.053
▁nten	-11.0532
▁altar	-11.0533
ẽi	-11.0534
▁unay	-11.0534
▁permitido	-11.0535
▁willawanchik	-11.0538
▁soportar	-11.0539
▁consecuencia	-11.0543
▁oikovéva	-11.0543
▁porãvéta	-11.0544
▁casados	-11.0544
▁recibimos	-11.0547
kina	-11.0547
taanan	-11.0548
▁Mus	-11.0551
rga	-11.0551
▁markanx	-11.0551
▁coloca	-11.0553
▁ná	-11.0554
TRA	-11.0557
▁hukmanyasqa	-11.0558
▁huchalliku	-11.0558
haguéicha	-11.0559
Ore	-11.0559
pres	-11.0563
▁vuelve	-11.0564
guenohẽ	-11.0565
cel	-11.057
▁ofreció	-11.0571
▁Toma	-11.0574
uku	-11.0574
▁oĩrõ	-11.0577
▁qawachiwanchik	-11.0578
▁Ad	-11.0579
▁corregi	-11.0581
▁yoiti	-11.0582
▁Espáña	-11.0582
▁crédito	-11.0582
raykum	-11.0584
▁reserva	-11.0584
▁cuesta	-11.0584
▁ñañeñandu	-11.0585
mbia	-11.0586
▁150	-11.0589
▁omomýi	-11.0589
▁esperan	-11.0591
▁Rojo	-11.0593
▁ejecución	-11.0594
▁Judea	-11.0595
ríamos	-11.0595
▁waray	-11.0597
▁raki	-11.0598
▁harka	-11.0599
▁mochi	-11.0601
▁millas	-11.0602
▁preso	-11.0604
▁Don	-11.0607
▁situwa	-11.0609
▁proyectos	-11.0609
uye	-11.061
▁hñä	-11.061
ndí	-11.0613
Lev	-11.0614
lada	-11.0614
▁pachapaq	-11.0615
▁kampa	-11.0617
▁ukjamaraki	-11.062
▁Eu	-11.0622
▁rurasqan	-11.0622
Ú	-11.0623
▁Xa	-11.0625
llas	-11.0626
▁Grigurya	-11.063
▁akllasqa	-11.0632
▁representantes	-11.0633
uru	-11.0636
▁simitam	-11.0636
▁ndoipotái	-11.0642
▁logró	-11.0642
▁chendive	-11.0642
▁JMP	-11.0642
▁mapo	-11.0642
▁qatiqninkuna	-11.0642
▁São	-11.0644
▁willakurqa	-11.0644
▁1961	-11.0645
▁planes	-11.0647
spayki	-11.0648
12).	-11.0648
▁animó	-11.0649
▁tarjeta	-11.0651
▁kaqnin	-11.0653
▁sano	-11.0653
▁refleja	-11.0654
▁impoiji	-11.0654
▁opurahéiva	-11.0654
▁Allpa	-11.0656
uva	-11.0656
tiki	-11.0656
▁1952	-11.0658
▁aprecia	-11.0658
▁tapuku	-11.0662
▁rikuri	-11.0662
▁trabajando	-11.0668
▁tiémpore	-11.0672
ikuaá	-11.0673
▁motor	-11.0673
▁pantay	-11.0674
▁reflexionar	-11.0675
▁mantenernos	-11.0676
▁Éxodo	-11.0677
▁oña	-11.0677
▁jamás	-11.0678
▁Ricardo	-11.0678
ifica	-11.0686
▁especie	-11.0687
pri	-11.0688
▁Gui	-11.0688
▁watuku	-11.0688
ô	-11.0688
▁yapuy	-11.069
▁Sãmbyhyhára	-11.0693
▁1949	-11.0694
San	-11.0694
▁convertirse	-11.0694
▁piensay	-11.0695
▁keyo	-11.0696
▁Jach	-11.0697
▁mayni	-11.0699
▁rurananchik	-11.0701
▁renuncia	-11.0702
xata	-11.0704
▁1976	-11.0705
▁iñakã	-11.0706
spaymi	-11.0707
▁hacían	-11.0707
▁buscan	-11.0711
▁fines	-11.0712
aqmi	-11.0714
▁jajapóta	-11.0714
▁opave	-11.0715
▁1944	-11.0719
▁riremi	-11.0719
▁candidato	-11.0724
▁serían	-11.0725
▁jak	-11.0725
▁parecido	-11.0726
▁"¿	-11.0728
▁prensa	-11.0729
NO	-11.0733
▁edifica	-11.0735
▁satisfacción	-11.0738
▁intenta	-11.0738
▁Kuatiarogue	-11.0741
▁1983	-11.0742
▁anuncia	-11.0742
jí	-11.0744
capítulo	-11.0744
reíva	-11.0745
▁kuyakuywan	-11.0746
servi	-11.0747
▁puévlope	-11.0747
▁risqanman	-11.0748
tépe	-11.0749
▁pobre	-11.075
▁Pueblo	-11.075
ñandu	-11.0751
▁Teko	-11.0752
▁1973	-11.0753
vale	-11.0753
▁liberar	-11.0756
nakapa	-11.0757
ço	-11.0759
▁minutos	-11.0762
▁saywitu	-11.0762
▁silencio	-11.0762
▁Social	-11.0763
huitl	-11.0766
pto	-11.0766
osa	-11.0768
▁ah	-11.0771
▁ndorekói	-11.0771
▁yachan	-11.0771
▁iniciar	-11.0774
▁vakapipopo	-11.0775
▁apareció	-11.0775
▁Qhapaq	-11.0776
▁ruwasqan	-11.0777
▁bri	-11.0779
káva	-11.0781
▁oipy	-11.0781
▁muda	-11.0781
▁mantiene	-11.0784
▁corona	-11.0785
▁cruel	-11.0786
▁Madrid	-11.0787
▁convencido	-11.0787
▁guardia	-11.0787
▁pecadores	-11.0788
!”	-11.079
Cuáles	-11.079
▁sincero	-11.0791
▁rréino	-11.0792
▁isrraelítape	-11.0794
▁Paraguaýpe	-11.0799
▁diversos	-11.0799
▁istória	-11.0799
▁Nabot	-11.0799
▁kawsakuyta	-11.0799
▁1977	-11.0802
▁1964	-11.0802
▁entró	-11.0803
▁runata	-11.0806
▁Evangelio	-11.0809
▁jóni	-11.0811
tec	-11.0812
▁Había	-11.0812
chas	-11.0814
▁angelkuna	-11.0814
▁entero	-11.0816
▁ñakariy	-11.0819
emo	-11.082
▁versíkulo	-11.082
tista	-11.0822
ngi	-11.0822
▁irpiri	-11.0823
▁James	-11.0825
tiendo	-11.0825
▁escritos	-11.0826
▁dirige	-11.083
▁Mas	-11.083
▁ibo	-11.0835
▁ñemurã	-11.0835
▁declaró	-11.0835
▁apnaq	-11.0836
▁lecciones	-11.0837
▁ijy	-11.0838
▁observar	-11.0842
▁ñemoñare	-11.0847
▁griega	-11.0848
▁Wiñay	-11.0848
erta	-11.0848
ek	-11.085
▁votos	-11.085
bú	-11.0853
tini	-11.0854
▁46	-11.0855
▁Todas	-11.0859
▁superficie	-11.086
▁Acab	-11.0863
▁mañakuy	-11.0869
betan	-11.087
▁orrespeta	-11.0871
▁Pérez	-11.0872
spanqa	-11.0883
▁zonas	-11.0883
keri	-11.0886
▁asignación	-11.0886
▁1962	-11.0887
▁1956	-11.0888
▁Crónicas	-11.0897
▁originario	-11.0899
▁kuyu	-11.0899
▁oimeraẽva	-11.0902
▁veía	-11.0905
▁informó	-11.0909
▁refugio	-11.0909
▁52	-11.091
▁concede	-11.0912
▁kutipim	-11.0913
▁preferencias	-11.0913
▁kasqa	-11.0914
▁potĩ	-11.0915
▁parientes	-11.0916
gal	-11.0917
▁Satanaspa	-11.0918
▁Antikunapi	-11.0921
▁IN	-11.0923
▁diga	-11.0924
▁iporãve	-11.0927
▁indi	-11.0927
▁cri	-11.093
▁arigua	-11.093
▁Tenía	-11.0931
▁MA	-11.0931
▁goberna	-11.0932
▁wañuy	-11.0932
maca	-11.0933
▁XX	-11.0934
▁Libro	-11.0934
▁ñañemoĩ	-11.0936
leo	-11.0938
▁sentirse	-11.094
▁hiciera	-11.0942
▁2:1	-11.0942
pochy	-11.0942
▁itech	-11.0945
kanta	-11.0946
▁pawqar	-11.0946
▁Eliminar	-11.0946
cept	-11.0947
irinakax	-11.0949
▁avi	-11.095
▁kantara	-11.0951
▁disponibles	-11.0951
▁Sichu	-11.0953
hendú	-11.0954
äw	-11.0956
mpiw	-11.0958
▁vídeo	-11.0958
▁Eclesiastés	-11.0959
▁generales	-11.0963
▁Lázaro	-11.0971
▁Belén	-11.0971
▁axcan	-11.0972
▁ataques	-11.0973
KUNA	-11.0976
▁divinas	-11.0978
tiene	-11.0979
cero	-11.098
bai	-11.098
▁cla	-11.098
▁Efraín	-11.0983
▁opción	-11.0986
▁pekao	-11.0986
▁qallayku	-11.0988
▁56	-11.099
purahéi	-11.099
▁Jara	-11.0992
arandu	-11.0992
▁kusisqam	-11.0993
▁advirtió	-11.0995
▁calles	-11.0996
tru	-11.0996
say	-11.0999
▁llapan	-11.0999
ling	-11.1
ïr	-11.1002
áre	-11.1008
▁risirwa	-11.1008
▁Betélpe	-11.1008
▁edificio	-11.1008
pra	-11.1009
▁rastreadores	-11.101
ptinkupas	-11.1012
▁1946	-11.1012
sqaykita	-11.1012
▁omohu	-11.1014
vert	-11.1014
▁atina	-11.1017
▁fotos	-11.1017
scentralizacion	-11.102
▁accidente	-11.102
▁disípulo	-11.102
▁apaqkuna	-11.1022
▁michĩmi	-11.1025
▁ojehe	-11.1029
▁ytoca	-11.1031
▁Colosenses	-11.1032
itereíva	-11.1033
ería	-11.1033
AS	-11.1038
▁conocía	-11.1039
tako	-11.1041
▁Costa	-11.1043
▁conocimientos	-11.1043
▁Jonatán	-11.1045
▁garantía	-11.1045
▁Apohare	-11.1045
▁reconocimiento	-11.1046
▁Cantón	-11.1046
rías	-11.1048
▁contó	-11.1048
▁Zo	-11.105
▁ayudarán	-11.1051
▁pequeñas	-11.1054
tiempo	-11.1055
▁Buscar	-11.1055
tlaca	-11.1055
▁yachayniyoq	-11.1059
▁otopa	-11.106
▁1967	-11.1061
▁descubrir	-11.1062
▁63	-11.1062
▁añepyrũ	-11.1062
▁takya	-11.1063
▁jarekóva	-11.1065
-8	-11.1067
▁raza	-11.1068
tanaka	-11.1068
▁omaña	-11.1069
▁desempeña	-11.1069
▁hacernos	-11.1072
▁Krus	-11.1073
▁Mil	-11.1074
siya	-11.1074
▁puesta	-11.1075
▁satisfacer	-11.1075
▁ñan	-11.1076
tat	-11.1077
▁hawka	-11.1077
▁hembi	-11.1078
▁ohayhúva	-11.1079
war	-11.1079
▁isiervokuérape	-11.108
amo	-11.108
▁ojeroviáva	-11.1081
▁bloqueado	-11.1082
▁Diputado	-11.1084
▁brinda	-11.1085
▁verdaderamente	-11.1085
▁hice	-11.1085
▁1943	-11.1086
▁pin	-11.1087
▁oñemohenda	-11.1087
▁obd	-11.1091
▁osalva	-11.1091
mboguejy	-11.1094
▁Camp	-11.1094
▁compositor	-11.1095
▁cárcel	-11.1095
▁1972	-11.1098
▁reinado	-11.1099
oc	-11.1099
Peẽ	-11.1101
RES	-11.1102
▁cumplió	-11.1104
▁predi	-11.1105
▁ojapoháicha	-11.1105
▁kasqanraykum	-11.1105
SO	-11.1107
Cu	-11.1108
rô	-11.1109
▁daba	-11.111
YA	-11.111
▁jark	-11.1112
NI	-11.1113
▁documentos	-11.1115
▁payman	-11.1115
▁tha	-11.1116
▁oip	-11.1118
▁ocupado	-11.1121
▁Aña	-11.1121
▁acá	-11.1122
▁1969	-11.1124
▁comparación	-11.1124
▁tratando	-11.1125
▁Miqueas	-11.1127
▁mirar	-11.1128
chkarqa	-11.1128
año	-11.1131
quién	-11.1132
▁vuelto	-11.1133
▁1953	-11.1136
▁47	-11.1137
mbý	-11.1145
Éx	-11.1146
▁scasca	-11.1146
▁lyi	-11.1147
▁pierde	-11.1148
▁alumnos	-11.1148
▁Wara	-11.1149
▁pha	-11.1155
▁letra	-11.1157
▁juventud	-11.1158
tun	-11.1158
▁París	-11.1158
▁judicial	-11.1162
▁profesional	-11.1162
▁28:19	-11.1162
▁llaqtanta	-11.1163
arse	-11.1163
▁Buliwyapi	-11.1164
tea	-11.1164
▁ky	-11.1165
▁tren	-11.1166
▁sexo	-11.1166
▁ix	-11.1167
évape	-11.1167
▁siga	-11.1168
▁Huch	-11.1171
▁trabaja	-11.1172
▁cuentata	-11.1174
tei	-11.1175
▁1936	-11.1175
▁mañakurqa	-11.1178
ñemongeta	-11.1179
kuña	-11.1182
▁Davídpe	-11.1183
▁mandu	-11.1183
ctu	-11.1184
▁ter	-11.1185
▁tupan	-11.1186
▁kawsayta	-11.1186
▁gotyove	-11.1189
▁roñe	-11.1189
warqaku	-11.1191
▁ñanemo	-11.1191
▁consideran	-11.1194
▁hagamos	-11.1194
▁Vyretáña	-11.1196
▁segúro	-11.1196
▁Ea	-11.1196
▁amba	-11.1199
▁unión	-11.1202
▁ninmi	-11.1205
▁Jaska	-11.1208
▁Michael	-11.1208
▁desean	-11.1215
▁MI	-11.1219
HE	-11.1219
▁}-	-11.122
LE	-11.122
▁BBC	-11.1221
▁doktór	-11.1221
▁traduce	-11.1221
▁atender	-11.1222
▁ríos	-11.1228
lú	-11.123
▁anda	-11.123
▁Toda	-11.1231
▁marangatu	-11.1233
▁enfermos	-11.1236
▁onqo	-11.1238
▁Dan	-11.1239
▁agrada	-11.1243
eichaguápa	-11.1246
▁conquista	-11.1247
▁Recordemos	-11.1247
▁recurso	-11.1249
▁tava	-11.1254
▁médicos	-11.1256
▁beneficio	-11.1256
▁PORTADA	-11.1259
▁aymuray	-11.1259
▁liverta	-11.1259
▁Voice	-11.1262
oni	-11.1265
marino	-11.1266
▁arýpe	-11.1267
▁ES	-11.1267
jy	-11.1268
pilla	-11.1269
▁ojegueraha	-11.1269
sunki	-11.1271
ypa	-11.1271
▁oiporúva	-11.1271
pora	-11.1273
boribi	-11.1274
▁Ing	-11.1277
dic	-11.1277
▁rembiapokue	-11.1277
▁amuy	-11.1279
dre	-11.128
mpix	-11.128
▁ukaxa	-11.1281
▁Municipal	-11.1283
misión	-11.1284
yriway	-11.1285
nama	-11.1286
KO	-11.1288
▁ojapóvare	-11.129
▁llaqtakuna	-11.1291
▁supera	-11.1291
▁Rama	-11.1291
▁Rio	-11.1292
▁mante	-11.1293
ykachi	-11.1294
imaynatam	-11.1295
heko	-11.1295
▁rumi	-11.1296
Ikatúpa	-11.1296
▁rebelión	-11.1297
▁īhuān	-11.1297
▁salario	-11.13
▁Sta	-11.1302
▁sasaw	-11.1302
eháicha	-11.1306
▁chiqa	-11.1306
parti	-11.1307
▁Imayna	-11.1309
▁markam	-11.1311
▁Bur	-11.1311
seh	-11.1312
▁Rima	-11.1314
▁puntata	-11.1315
▁dibujos	-11.1315
▁cueva	-11.1316
iw	-11.1317
▁tarikurqa	-11.1317
ard	-11.132
▁law	-11.1321
▁compromiso	-11.1323
▁cantar	-11.1324
niw	-11.1326
▁1963	-11.1326
▁paisano	-11.1327
▁1947	-11.1327
▁paywan	-11.1329
▁Ispaña	-11.1331
▁oke	-11.1336
▁maroni	-11.1338
▁ipuévlope	-11.1339
▁ojeiko	-11.134
▁Lot	-11.1343
▁Kupa	-11.1349
jero	-11.1353
▁warmiqa	-11.1356
▁apopyre	-11.1356
▁tita	-11.1357
izado	-11.1359
▁lanza	-11.1359
▁kawk	-11.136
▁mokõivéva	-11.1361
chó	-11.1361
▁Testamento	-11.1362
▁techaukaha	-11.1362
pur	-11.1362
▁JNE	-11.1362
▁hukkunata	-11.1362
▁ukampirus	-11.1363
▁imaginar	-11.1366
visa	-11.1367
nchej	-11.1367
▁admira	-11.1367
ñande	-11.1369
▁azul	-11.1369
▁Bel	-11.137
▁asu	-11.1371
▁tanteaku	-11.1371
▁engaña	-11.1372
manda	-11.1374
▁confirma	-11.1377
end	-11.1378
kunapim	-11.1378
▁kusiku	-11.1379
▁costumbres	-11.1381
juhú	-11.1384
▁kanqaku	-11.1384
▁emperador	-11.1387
apý	-11.1388
▁Ejemplopaq	-11.1388
▁armas	-11.1389
▁zo	-11.139
mil	-11.1391
▁ñoqanchik	-11.1392
▁llevaron	-11.1393
▁destruir	-11.1394
ab	-11.1394
▁okyhyje	-11.1394
▁phuqha	-11.1394
▁diferénte	-11.1395
▁Libertad	-11.1395
▁trabajan	-11.1396
èq	-11.1397
▁Nadie	-11.14
▁manantial	-11.1401
▁aruskip	-11.1401
▁itiémpo	-11.1402
▁kin	-11.1403
▁28:	-11.141
▁paymanta	-11.141
▁guyra	-11.1411
ː	-11.1413
▁prekursorádo	-11.1413
▁relacionados	-11.1417
ẽrã	-11.1417
▁nochi	-11.1418
▁determinar	-11.142
▁tipos	-11.1425
▁Maestro	-11.1426
ológica	-11.1426
▁onana	-11.1427
▁hete	-11.143
▁razonable	-11.1431
▁discípulo	-11.1431
▁hui	-11.1431
▁Chaynapim	-11.1432
▁ovendesi	-11.1432
▁canta	-11.1432
▁Oime	-11.1434
etereiha	-11.1434
VO	-11.1434
▁regocija	-11.1436
Quiénes	-11.1447
▁ohótava	-11.1448
uc	-11.1451
▁hapichakuérape	-11.1452
▁Soberano	-11.1452
▁polvo	-11.1452
▁sufrido	-11.1452
prim	-11.1454
▁kilómetro	-11.1457
▁Common	-11.1457
▁llakipaya	-11.1458
▁serviqninkuna	-11.1459
ísta	-11.1459
▁milagro	-11.146
▁yanapachiku	-11.1462
nankama	-11.1464
▁examina	-11.1465
▁podremos	-11.1465
▁vosotros	-11.1465
▁alcohol	-11.1465
▁atipanke	-11.1466
▁instalación	-11.1466
ografía	-11.1467
▁kuyanaku	-11.1468
rrespeta	-11.147
▁unquy	-11.1471
poch	-11.1472
▁oporombo	-11.1473
motenonde	-11.1474
▁jahayhuha	-11.1474
▁jina	-11.1476
cial	-11.1477
studia	-11.1478
MANTA	-11.148
▁hablamos	-11.1482
▁oikéva	-11.1482
▁diera	-11.1482
dera	-11.1482
▁qillqaq	-11.1484
tante	-11.1485
▁riq	-11.1486
ológico	-11.1488
▁mancha	-11.1491
▁intento	-11.1492
tsika	-11.1493
erto	-11.1493
▁jejopy	-11.1493
▁Piense	-11.1493
▁Mur	-11.1494
▁Emboguejy	-11.1496
wit	-11.1498
DI	-11.1499
▁seguido	-11.1499
▁ninka	-11.15
▁veamos	-11.1503
▁amistadninchik	-11.1504
▁jepysokue	-11.1504
▁yuritayna	-11.1504
▁oñemboja	-11.1505
▁historiador	-11.1505
wara	-11.1509
▁110	-11.1513
riya	-11.1513
▁Municipio	-11.1517
NTE	-11.1518
ãjey	-11.1518
▁1985	-11.152
nqachu	-11.1521
»	-11.1525
▁abre	-11.1526
▁kapuq	-11.1526
▁enseñan	-11.1526
▁yatiya	-11.153
▁Agustín	-11.153
▁dormir	-11.153
▁frío	-11.153
▁Ruvicha	-11.153
▁Il	-11.1531
▁Aya	-11.1531
▁trato	-11.1532
▁phu	-11.1534
▁Chuya	-11.1535
▁llakiku	-11.1537
▁rimarqa	-11.1539
rima	-11.154
▁reve	-11.1542
▁Colegio	-11.1543
▁Jefté	-11.1543
▁kó	-11.1547
bus	-11.1547
▁ite	-11.1548
▁Asá	-11.155
▁practica	-11.155
▁cámara	-11.1552
▁plena	-11.1553
ãme	-11.1555
▁izquierda	-11.1556
ehao	-11.1557
▁tunka	-11.1558
▁Roberto	-11.1559
▁jaska	-11.1561
▁millón	-11.1562
▁rodea	-11.1562
▁negocio	-11.1562
▁vaígui	-11.1564
Estoy	-11.1564
epu	-11.1565
>{	-11.1567
▁itla	-11.1568
▁Regional	-11.1569
▁mezcla	-11.1569
▁abuela	-11.1569
▁ayer	-11.157
▁alabanza	-11.157
▁actualización	-11.1571
Hu	-11.1571
▁15:1	-11.1573
loc	-11.1577
NC	-11.1577
pxiwa	-11.1581
▁ñanderesarái	-11.1583
▁meka	-11.1584
gú	-11.1584
▁Párrafo	-11.1585
dar	-11.1586
ãvo	-11.1587
▁14:1	-11.1588
▁pos	-11.159
tivas	-11.1595
▁Londres	-11.1596
▁extremo	-11.1596
▁kunatix	-11.1597
▁apenas	-11.1602
▁kai	-11.1603
▁jehaipyre	-11.1606
▁ijedáva	-11.1606
▁soldado	-11.1607
lum	-11.1608
▁corrupción	-11.1609
▁kuñataĩ	-11.1609
▁deberían	-11.161
▁cumplido	-11.1611
▁justifica	-11.1611
pat	-11.1611
▁shima	-11.1612
▁1957	-11.1612
▁Carmen	-11.1612
▁ovechakuéra	-11.1615
▁considerado	-11.1617
▁rikchanachiy	-11.1619
xto	-11.1621
▁misionéro	-11.1622
▁1920	-11.1625
▁Historia	-11.1627
liza	-11.1628
▁etc	-11.1628
leg	-11.1628
cayotl	-11.163
▁oficiales	-11.1638
Chay	-11.1639
▁Colombia	-11.164
ux	-11.1641
▁repara	-11.1643
▁Cla	-11.1643
llaraq	-11.1644
▁Joel	-11.1646
jina	-11.1647
llpa	-11.1648
nxon	-11.1648
▁Eheka	-11.1649
▁qayllanpi	-11.1649
▁nirqam	-11.165
▁opaga	-11.1655
▁Mary	-11.1655
▁pudieran	-11.1658
▁oñemopu	-11.1659
▁impuestos	-11.166
▁reto	-11.166
▁Mexicanos	-11.1663
▁1954	-11.1666
▁wasipi	-11.1672
▁transforma	-11.1673
▁oipurúva	-11.1674
▁Desarrollo	-11.1675
▁Éfeso	-11.1675
▁ikatupyrýva	-11.1675
▁Tor	-11.1676
ham	-11.1679
veve	-11.168
grade	-11.1682
▁tapichakuéra	-11.1683
▁már	-11.1683
▁sale	-11.1685
agua	-11.1685
▁cenca	-11.1686
páta	-11.1687
▁Plurinacional	-11.1688
▁valioso	-11.1696
ninkupi	-11.1696
▁Gar	-11.1699
")	-11.1699
▁ñakarichi	-11.17
▁catca	-11.1702
▁pur	-11.1702
ñapataki	-11.1703
bro	-11.1706
▁haypa	-11.1711
hora	-11.1713
▁500	-11.1713
▁jaskáa	-11.1714
▁Ikatúpa	-11.1718
▁ogana	-11.172
▁analiza	-11.1724
▁tukupay	-11.1726
▁ignora	-11.1728
ár	-11.1729
Quieres	-11.173
▁masnin	-11.1732
▁necesaria	-11.1732
▁kusichi	-11.1732
ís	-11.1733
▁espiritualidad	-11.1733
▁nañande	-11.1735
kuái	-11.1737
mbyre	-11.1737
tín	-11.1737
▁27).	-11.1737
▁jarrespeta	-11.1737
Ho	-11.1738
cien	-11.174
▁recién	-11.1742
▁murieron	-11.1742
▁tendremos	-11.1742
▁vaikue	-11.1744
▁aranduka	-11.1745
▁ñahendu	-11.1747
▁manañam	-11.1748
cus	-11.1751
▁phi	-11.1752
▁dije	-11.1753
▁ndovaleiha	-11.1755
termina	-11.1755
▁cedro	-11.1756
▁Wakinpiqa	-11.1757
▁emplea	-11.1757
▁Lago	-11.1758
▁juzgar	-11.1758
▁sugerencias	-11.1758
▁bé	-11.1759
.\	-11.176
▁niyta	-11.176
▁wayra	-11.1763
▁qawarqa	-11.1765
ypas	-11.1768
▁Val	-11.1772
▁historial	-11.1772
▁llegada	-11.1773
axa	-11.1773
▁presentación	-11.1774
▁cientos	-11.1775
▁inicuo	-11.1777
▁bautizado	-11.1778
▁ág̃a	-11.178
▁corregir	-11.178
▁frontera	-11.1782
▁jaipuru	-11.1782
▁ñawpa	-11.1782
▁Omombe	-11.1785
▁víno	-11.1785
▁entidad	-11.1787
▁mera	-11.179
▁tumba	-11.1791
▁anunció	-11.1795
▁Cerro	-11.1797
zco	-11.1798
▁1968	-11.1798
▁correctamente	-11.18
SAL	-11.1802
▁tro	-11.1803
pil	-11.1803
CO	-11.1803
▁década	-11.1804
▁oikoha	-11.1805
!"	-11.1806
▁Russell	-11.1809
▁jesussen	-11.1809
▁Ñemo	-11.1809
▁pór	-11.1813
ñemomba	-11.1813
OR	-11.1819
▁llaqtaman	-11.182
ýramo	-11.1821
ntó	-11.1822
▁traducir	-11.1822
▁convierte	-11.1822
epy	-11.1826
▁décadas	-11.1827
▁hóga	-11.1827
tibo	-11.1827
oje	-11.1828
▁reiko	-11.1829
▁honrar	-11.1829
▁kene	-11.183
▁aime	-11.1831
▁sonqolla	-11.1833
▁ngaJ	-11.1836
kusqanta	-11.1838
▁40:	-11.1838
▁estaría	-11.1841
▁probar	-11.1841
▁tribus	-11.1842
▁Inglaterra	-11.1842
▁religiosa	-11.1845
▁perdona	-11.1845
▁culpable	-11.1847
gusta	-11.1847
iéndose	-11.185
▁rimari	-11.1851
▁jupanakax	-11.1852
sérõ	-11.1852
▁Rréinore	-11.1854
▁león	-11.1855
▁3:16).	-11.1855
▁Vo	-11.1858
▁serviq	-11.186
▁ápe	-11.1862
▁JESÚS	-11.1863
▁ituvakuéra	-11.1863
▁Estudiantes	-11.1863
▁aumento	-11.1864
ché	-11.1866
▁wakinpiqa	-11.1866
▁entorno	-11.1866
▁1948	-11.1867
▁paka	-11.1867
segi	-11.187
▁ombou	-11.187
▁maravillosa	-11.1872
▁ndaikatuiha	-11.1873
▁ninguno	-11.1876
▁haimete	-11.1877
▁sutinta	-11.1882
▁organismo	-11.1886
▁semillas	-11.1886
▁jawekeska	-11.1886
▁akanai	-11.1887
▁cerrar	-11.1887
▁xobonko	-11.1889
▁amuyu	-11.1891
▁Jaikuaaháicha	-11.1892
▁aplicaciones	-11.1892
▁chembo	-11.1894
▁grano	-11.1894
▁Chaynataq	-11.1895
▁preocupación	-11.1897
▁7:1	-11.1898
▁3:16	-11.1899
▁yura	-11.1899
▁chopa	-11.1903
▁Paraná	-11.1903
▁vinieron	-11.1903
▁ú	-11.1907
▁yacharqa	-11.1907
véramo	-11.1909
▁pó	-11.1909
▁Ehechauka	-11.1913
she	-11.1915
quien	-11.1915
▁permiten	-11.1915
▁ikatupyry	-11.1917
▁Absalón	-11.1917
▁contestó	-11.1917
▁Policía	-11.1917
juka	-11.1917
▁ojupi	-11.1917
▁capaces	-11.1917
ñorairõ	-11.1918
▁añadió	-11.1918
ándonos	-11.1918
ãiva	-11.1918
▁ESTUDIO	-11.1918
tama	-11.1919
▁quedar	-11.1921
▁v	-11.1921
▁watap	-11.1921
▁peligroso	-11.1922
▁Simón	-11.1925
▁trataba	-11.1926
▁musyaku	-11.1929
▁acabar	-11.193
▁gallina	-11.193
▁tetãnguéra	-11.1933
▁ñembohekopyahu	-11.1934
▁reunir	-11.1934
▁yuyay	-11.1937
▁munaychaku	-11.1939
▁ifamiliakuéra	-11.1941
manqa	-11.1944
▁Fundación	-11.1944
▁etiquetas	-11.195
poli	-11.1952
▁israelitakuna	-11.1954
▁malvado	-11.1954
myenyhẽ	-11.1955
ctli	-11.1957
▁ayamarq	-11.1958
▁regresa	-11.1959
▁ŕe	-11.1959
____	-11.196
potĩ	-11.1961
▁tapykuehoha	-11.1961
murqa	-11.1962
▁uraqi	-11.1962
kuera	-11.1963
▁campesino	-11.1965
▁jatopa	-11.1967
▁comprende	-11.1967
▁interna	-11.1968
▁Mendoza	-11.1971
▁impresión	-11.1971
▁Emo	-11.1974
▁puñu	-11.1975
▁willakuyta	-11.1977
ent	-11.1977
▁ampara	-11.1977
ON	-11.1979
▁paciente	-11.198
▁73	-11.1983
▁mohendahavusu	-11.1985
▁consuela	-11.1985
▁situasiónpe	-11.1987
▁memby	-11.1988
▁Ester	-11.1988
▁reacciona	-11.1988
▁31:	-11.199
▁4:1	-11.1992
▁hekojoja	-11.1995
ome	-11.1995
▁tecpatl	-11.1999
▁transporte	-11.1999
òq	-11.2005
></	-11.2006
▁Augusto	-11.2007
sqanchikmanta	-11.2007
▁mayi	-11.2008
▁Túva	-11.2009
▁eliminado	-11.2009
▁ruwananchik	-11.201
▁huñu	-11.201
▁emocionante	-11.201
▁romanos	-11.2011
sqayku	-11.2011
▁PAGINAPI	-11.2013
▁conservar	-11.2013
▁penderehe	-11.2013
▁20.	-11.2014
▁Ukat	-11.2014
tados	-11.2017
▁sor	-11.2017
▁62	-11.2018
titlan	-11.2019
▁ojapótava	-11.2023
rín	-11.2024
énsia	-11.2024
ampa	-11.2026
▁Cur	-11.2026
▁2007-2010	-11.2026
▁Hebreas	-11.2026
añataki	-11.2028
▁1978	-11.203
xt	-11.2031
▁aprendió	-11.2031
▁ogueropu	-11.2032
ũme	-11.2034
▁héravape	-11.2036
▁Ika	-11.2036
▁echar	-11.2039
▁msnm	-11.204
▁horqo	-11.204
▁ipláta	-11.2041
▁Wak	-11.2045
puku	-11.2045
▁Caín	-11.2046
▁ojejapova	-11.2048
guen	-11.2048
▁55	-11.205
gus	-11.2051
▁mun	-11.2052
▁sigan	-11.2053
▁kompromíso	-11.2054
▁jerére	-11.2054
▁Raúl	-11.2055
lía	-11.2055
▁qatiqninkunata	-11.2056
▁Mēxihco	-11.2058
rita	-11.2059
pxäna	-11.206
copa	-11.2065
▁83	-11.2066
▁abundante	-11.2066
▁wañukusqan	-11.2068
nqui	-11.2068
▁US	-11.2069
▁jaka	-11.2076
='	-11.2076
▁Anti	-11.208
▁qati	-11.208
▁Ariqipa	-11.2081
▁instrucción	-11.2081
▁Claudio	-11.2081
MAN	-11.2082
▁ojere	-11.2082
▁electo	-11.2082
▁limita	-11.2083
ili	-11.2084
▁necesarias	-11.2087
tlal	-11.2091
▁oveja	-11.2092
▁Jerusalen	-11.2094
▁pensaba	-11.2094
▁Mexihco	-11.2095
▁mbeguekatúpe	-11.2095
▁salmísta	-11.2095
▁kamachisqanta	-11.2099
▁irundy	-11.2099
▁iku	-11.21
▁ojesareko	-11.2102
sur	-11.2102
tieron	-11.2103
▁necesarios	-11.2103
ang	-11.2103
▁Mora	-11.2107
▁My	-11.2107
▁iñañáva	-11.2108
▁kósa	-11.2108
▁universal	-11.2109
▁concepto	-11.2109
▁experiencias	-11.2111
▁sienta	-11.2112
▁wishawe	-11.2113
uérpo	-11.2114
▁11:1	-11.2114
▁llorar	-11.2114
▁demanda	-11.2117
Ra	-11.2118
▁guar	-11.2118
▁Red	-11.212
▁fragmento	-11.2123
▁61	-11.2123
▁pudieron	-11.2124
rovia	-11.2124
▁nombra	-11.2127
▁tetãygua	-11.2128
▁op	-11.2129
karu	-11.213
nteva	-11.213
▁conocen	-11.2131
▁afecta	-11.2133
ninchikta	-11.2134
▁kuaapy	-11.2134
ída	-11.2134
▁Uk	-11.2136
Eclesiastés	-11.2136
▁Caballero	-11.2137
▁ejati	-11.2137
▁ÑANE	-11.2137
▁400	-11.2138
▁manchaku	-11.2138
Link	-11.214
▁28).	-11.2141
nado	-11.2142
▁Angel	-11.2144
▁administrador	-11.2148
▁Elias	-11.2149
ychikchu	-11.215
▁histórico	-11.2151
▁caminar	-11.2153
▁qi	-11.2153
▁kara	-11.2154
pýpe	-11.2154
▁ojevale	-11.2155
▁ordena	-11.2155
▁atributo	-11.2155
▁preparado	-11.2157
khu	-11.2161
▁pla	-11.2163
▁Griegas	-11.2165
▁sirkuíto	-11.2165
CIONES	-11.2165
▁Santos	-11.2169
▁universidad	-11.217
ética	-11.2171
▁mono	-11.2172
▁Tú	-11.2172
▁Ak	-11.2173
▁35).	-11.2175
itario	-11.2178
▁brasileño	-11.2179
▁Isaias	-11.2179
▁Alejandro	-11.2181
▁willarqa	-11.2183
versa	-11.2183
ñapa	-11.2183
mus	-11.2185
axon	-11.2185
▁tira	-11.2185
▁víctimas	-11.2189
▁pota	-11.219
▁tiyanku	-11.219
resa	-11.2191
ptinkum	-11.2192
▁adultos	-11.2192
:26).	-11.2194
kuére	-11.2196
chiuh	-11.2197
▁4:2	-11.2198
▁dá	-11.2204
▁dige	-11.2205
▁exacto	-11.2207
▁challwa	-11.2207
▁símbolo	-11.2207
agradese	-11.2208
▁echa	-11.2209
▁oikóvo	-11.221
tlahtōlli	-11.221
marca	-11.2214
nikichik	-11.2214
▁pat	-11.2218
tiuh	-11.2219
▁mapa	-11.222
▁Premio	-11.2221
▁patrón	-11.2221
▁funcionario	-11.2222
ndá	-11.2222
dez	-11.2222
▁bienestar	-11.2222
▁medicina	-11.2223
▁angel	-11.2224
▁Fuente	-11.2225
▁1938	-11.2226
▁representante	-11.2227
▁kutimu	-11.2227
biendo	-11.2228
kuni	-11.2229
▁wara	-11.2231
kiro	-11.2231
machi	-11.2234
▁aprovechar	-11.2235
▁tuve	-11.2236
▁willakusqan	-11.2236
▁Kimsa	-11.2239
▁jacha	-11.2243
yó	-11.2245
▁hesakã	-11.2245
▁achkallaña	-11.2246
▁NA	-11.2248
▁Finalmente	-11.2249
yay	-11.2249
iano	-11.225
▁palo	-11.225
kaku	-11.2251
▁Nocon	-11.2251
lán	-11.2251
▁curar	-11.2257
ẽramo	-11.226
nkir	-11.226
toca	-11.2261
lma	-11.2261
uká	-11.2262
▁panel	-11.2262
▁morotĩ	-11.2263
▁Anqash	-11.2264
sax	-11.2264
▁cubrir	-11.2266
▁preguntan	-11.2267
▁munaspaqa	-11.2271
▁pruwinsyap	-11.2274
▁mencionó	-11.2277
▁sufrió	-11.2277
▁Har	-11.2278
▁frase	-11.2279
Nóta	-11.228
ztli	-11.2286
▁TE	-11.2286
plo	-11.2287
▁ógape	-11.229
ehína	-11.2291
▁aseguró	-11.2291
▁yaqapaschá	-11.2291
Mana	-11.2292
▁haría	-11.2294
▁preocupaciones	-11.2295
▁piense	-11.2296
▁Cue	-11.2297
▁rembe	-11.2297
rova	-11.2297
▁punchawmi	-11.2298
▁piti	-11.2298
▁pinta	-11.2299
cán	-11.2301
▁Paraguayo	-11.2303
Heta	-11.2304
:29).	-11.2305
▁cincuenta	-11.2305
▁desprecia	-11.2306
▁nzaya	-11.2306
▁reglas	-11.2306
▁Pas	-11.2309
▁ukhamat	-11.2309
▁jichha	-11.2311
spawa	-11.2312
▁hoga	-11.2314
▁kasukuspa	-11.2314
▁constante	-11.2317
▁hual	-11.2317
▁kárselpe	-11.2317
▁rec	-11.2318
▁yuyaq	-11.2318
▁ikanai	-11.2319
▁Barr	-11.2322
▁Inti	-11.2322
▁iuh	-11.2323
▁oguapy	-11.2328
▁oĩtaha	-11.233
▁91	-11.2332
▁mantuvo	-11.2333
▁aranway	-11.2333
eka	-11.2336
▁Mishiku	-11.2336
̱t	-11.2338
▁Haga	-11.2339
▁Ger	-11.234
▁qawan	-11.234
▁jeheka	-11.2341
▁pensó	-11.2341
▁publica	-11.2342
▁jero	-11.2345
moneĩ	-11.2345
▁Péva	-11.2345
hepyme	-11.2346
▁hembiguaikuéra	-11.2347
▁Abrir	-11.2348
▁jonin	-11.2349
rate	-11.235
Puedo	-11.2352
▁Pri	-11.2353
▁bibliapa	-11.2353
baonra	-11.2353
▁Aswanqa	-11.2355
▁Vivi	-11.2357
ñatende	-11.2357
gada	-11.236
▁ciertos	-11.236
▁Oñepyrũ	-11.236
apxi	-11.2361
▁nirqaku	-11.2361
▁argentino	-11.2362
▁misericordioso	-11.2362
▁traducciones	-11.2362
napaqqa	-11.2362
▁rembipuru	-11.2363
curr	-11.2364
▁enferma	-11.2365
▁Kat	-11.2366
ñemo	-11.2366
anqa	-11.2368
▁pesos	-11.237
rece	-11.2372
vor	-11.2373
▁pitapas	-11.2373
▁conferencia	-11.2374
▁Félix	-11.2376
▁calor	-11.2377
▁consulte	-11.2379
▁amplia	-11.238
▁tantas	-11.238
▁arco	-11.2381
▁orresivi	-11.2381
▁adquirir	-11.2382
mohenda	-11.2385
▁ik	-11.2386
lista	-11.2387
▁ojokuaikuaáva	-11.239
▁quinientos	-11.239
▁Urin	-11.2391
▁hikuta	-11.2391
▁PA	-11.2392
▁ñana	-11.2392
▁cristianokunapa	-11.2394
▁kachkaptin	-11.2395
▁uña	-11.2398
mopotĩ	-11.2399
▁reforma	-11.2401
▁nere	-11.2402
▁gobierna	-11.2404
▁temprano	-11.2404
▁médica	-11.2405
▁debió	-11.2407
spanpas	-11.2407
▁deberá	-11.241
▁deberán	-11.241
oti	-11.241
▁Manamá	-11.2413
▁voluntarios	-11.2414
▁paita	-11.2416
▁ukanx	-11.2416
▁Salomon	-11.2419
▁Kád	-11.242
▁sapallan	-11.2421
▁cabe	-11.2421
▁oñemba	-11.2422
kotevẽ	-11.2422
▁miki	-11.2423
▁jonibaon	-11.2423
▁SI	-11.2425
ñatak	-11.2429
value	-11.2431
▁sha	-11.2432
▁invisible	-11.2433
▁apariencia	-11.2433
▁aipytyvõ	-11.2434
scar	-11.2435
▁pyhareve	-11.2436
▁tembiapoite	-11.2437
▁Ter	-11.2438
▁kati	-11.2439
▁nacion	-11.244
▁Térã	-11.2443
▁ñanemba	-11.2444
▁69	-11.2444
70	-11.2444
guerohory	-11.2446
▁ijehénte	-11.2447
▁fuimos	-11.2448
▁hermosa	-11.2449
▁).	-11.2449
▁jahupytýta	-11.245
▁cantante	-11.245
▁omoheñói	-11.245
▁brazos	-11.245
▁ñuqa	-11.2452
▁HE	-11.2453
▁jaagradese	-11.2455
▁Ob	-11.2458
oki	-11.2458
▁sufren	-11.2459
▁yvytu	-11.2461
▁yora	-11.2462
gueru	-11.2463
▁opciones	-11.2463
▁Mara	-11.2465
▁ñangarekoha	-11.2465
▁venta	-11.2465
▁terminado	-11.2468
kane	-11.2471
▁kallpanchakuna	-11.2472
▁nacionmanta	-11.2472
▁vienen	-11.2475
▁1966	-11.2476
nada	-11.2477
myasãi	-11.2477
▁bibliata	-11.2478
▁personalmente	-11.2479
▁VII	-11.2479
▁vence	-11.2484
▁ovisita	-11.2484
▁darles	-11.2484
▁korasõ	-11.2485
▁130	-11.2487
▁yupaykuna	-11.2487
▁yvypórape	-11.2487
culo	-11.2488
rõguáicha	-11.249
▁Silva	-11.2491
▁taytacha	-11.2493
guera	-11.2494
▁mburuvichakuéra	-11.2494
▁emba	-11.2495
ide	-11.2495
▁llegará	-11.2496
▁manta	-11.2497
▁Aca	-11.2497
▁có	-11.2498
▁rikuy	-11.2498
▁diaria	-11.25
joa	-11.25
▁camina	-11.2503
▁Hech	-11.2507
▁nacionales	-11.2508
▁tapukuy	-11.2508
▁ayudarlos	-11.251
fir	-11.2511
▁ipotĩ	-11.2514
▁actualmente	-11.2515
▁servísio	-11.2519
▁infierno	-11.2519
▁ndohejái	-11.2519
▁16:1	-11.252
▁kasqanpi	-11.2521
teki	-11.2521
Ef	-11.2523
▁Han	-11.2525
▁banco	-11.2525
teni	-11.2526
▁sonqomanta	-11.2528
▁okañy	-11.2531
▁ñasẽ	-11.2531
▁colores	-11.2532
▁Richard	-11.2534
hó	-11.2535
hek	-11.2537
nim	-11.2537
▁órganos	-11.2538
▁patio	-11.2541
▁prestar	-11.2542
▁mexica	-11.2542
▁leche	-11.2542
▁parecen	-11.2545
▁sentí	-11.2546
▁escena	-11.2547
▁fútbol	-11.2548
▁ñawi	-11.2548
▁abrió	-11.2548
scrib	-11.2549
▁mbyte	-11.2549
▁pashini	-11.2549
▁Asu	-11.255
ego	-11.2552
diendo	-11.2554
▁sabios	-11.2555
▁jare	-11.2557
▁[1]	-11.2557
gh	-11.2558
▁Kuna	-11.2559
▁jaská	-11.256
▁Venezuela	-11.2563
▁ojetradusi	-11.2563
▁terremoto	-11.2563
▁vínculo	-11.2563
▁positivo	-11.2563
▁akana	-11.2563
wasqanchikta	-11.2564
érõ	-11.2564
▁moñe	-11.2565
rekóva	-11.2566
rco	-11.2566
▁ojehupyty	-11.2569
▁Entéro	-11.2569
▁—,	-11.2572
▁consiste	-11.2572
bores	-11.2574
▁Jesucristopa	-11.2574
▁capítulos	-11.2575
▁Ban	-11.2577
▁Rahab	-11.2577
▁Bretaña	-11.2577
nilla	-11.2578
▁esforzarnos	-11.2578
▁lágrimas	-11.2578
▁resa	-11.258
ticos	-11.2581
▁6:1	-11.2582
fect	-11.2583
▁2:3	-11.2586
▁ÑE	-11.2586
▁kantunmi	-11.2588
▁comunica	-11.2591
▁aprendí	-11.2592
▁encargado	-11.2593
scribir	-11.2594
ayi	-11.2595
ytapas	-11.2596
▁factores	-11.2597
▁Torre	-11.2599
▁presentado	-11.2604
▁ruwaspa	-11.2604
kuqkuna	-11.2605
▁abierta	-11.2606
ñandú	-11.2606
tahápe	-11.2606
▁núnka	-11.2606
▁corto	-11.2609
▁técnica	-11.2609
▁1951	-11.2611
▁machaq	-11.2613
▁alabar	-11.2615
posición	-11.2617
pina	-11.2619
rqam	-11.262
vera	-11.262
▁cristianismo	-11.2621
▁iñimportanteha	-11.2621
▁Josey	-11.2623
▁disco	-11.2624
▁religiosas	-11.2626
Esto	-11.2627
▁Valle	-11.2628
▁jiwa	-11.2628
rape	-11.2629
qlla	-11.263
▁nisqanku	-11.263
Ar	-11.2633
▁»	-11.2633
▁tenonde	-11.2634
▁nó	-11.2635
▁dedicación	-11.2636
pxaraki	-11.2636
Núm	-11.2637
▁Mayor	-11.2638
▁esperando	-11.2638
èx	-11.2639
▁(7	-11.2645
▁forman	-11.2648
izada	-11.2648
▁llamk	-11.2649
▁bautizó	-11.265
▁colegio	-11.265
▁Kha	-11.265
▁viviendo	-11.265
▁rimapaya	-11.2651
▁roiko	-11.2651
û	-11.2652
▁aprovecha	-11.2652
▁limpio	-11.2653
4-	-11.2656
▁oñemosẽ	-11.2656
bert	-11.266
▁adapta	-11.2663
mera	-11.2664
▁tocar	-11.2664
▁economía	-11.2665
▁2:2	-11.2665
aguy	-11.2667
chtli	-11.2667
▁Kunanqa	-11.2668
▁oina	-11.2671
wasi	-11.2671
▁oga	-11.2671
kambia	-11.2671
▁Ante	-11.2672
▁usan	-11.2672
▁bibliamanta	-11.2673
▁mitãme	-11.2674
Éxodo	-11.2676
▁ikonha	-11.2676
▁ojuehegui	-11.2677
▁Hayt	-11.2677
taxa	-11.2678
▁comprensión	-11.2679
▁yvýpe	-11.268
sqaymanta	-11.2681
▁objetos	-11.2683
▁científicos	-11.2683
▁enfrentar	-11.2686
chaku	-11.2687
▁jó	-11.2687
▁tarikunku	-11.2688
salva	-11.2689
▁cumplirá	-11.2689
nä	-11.2691
sten	-11.2691
▁kusikuywan	-11.2691
▁Cer	-11.2693
▁sukursál	-11.2694
▁Imagen	-11.2695
▁Urqunaka	-11.2695
tió	-11.2699
▁autorida	-11.2701
ptinpas	-11.2702
▁cruz	-11.2705
▁proclama	-11.2705
▁positiva	-11.2709
▁lluqsi	-11.2709
▁hmända	-11.2709
▁kristiánope	-11.2709
▁diferencias	-11.271
19).	-11.2713
▁jupanaka	-11.2718
▁watapa	-11.2719
▁180	-11.2722
▁Zu	-11.2723
▁Google	-11.2724
Castigación	-11.2725
▁jatianra	-11.2725
▁}">	-11.2726
▁iñepyrũme	-11.2727
úre	-11.2727
▁1959	-11.2728
▁oiméva	-11.2728
▁neporãva	-11.2728
pira	-11.2731
▁huknin	-11.2732
▁jaskati	-11.2733
pacho	-11.2733
▁Ky	-11.2734
▁tlal	-11.2737
▁estima	-11.274
▁Er	-11.2741
▁opeka	-11.2742
▁ñemohenda	-11.2744
▁plato	-11.2746
▁Victoria	-11.2746
oh	-11.2748
bol	-11.2749
llawan	-11.2751
▁Movimiento	-11.2753
▁nahániri	-11.2753
▁Mariscal	-11.2753
▁maman	-11.2753
up	-11.2755
Nda	-11.2756
anan	-11.2756
op	-11.2757
▁pacientes	-11.2757
mbá	-11.2757
▁Inca	-11.2759
chaw	-11.2759
▁1925	-11.276
▁Punu	-11.2762
▁humilla	-11.2763
▁negra	-11.2763
▁suyukuna	-11.2764
▁tukuq	-11.2766
▁destruido	-11.2768
Genesis	-11.277
sáva	-11.2771
▁(8	-11.2772
▁ojei	-11.2772
ýrape	-11.2773
plan	-11.2777
ónica	-11.2777
▁Profecía	-11.2783
▁indefinido	-11.2783
▁uelis	-11.2783
▁quedaron	-11.2783
▁proviene	-11.2783
mple	-11.2783
▁experimentado	-11.2784
▁marcadores	-11.2787
▁díape	-11.2788
sqam	-11.2792
mboyké	-11.2794
▁reho	-11.2794
▁reinos	-11.2794
▁tuqin	-11.2795
▁rimasqan	-11.2797
▁periódico	-11.2797
▁Qillqa	-11.2797
▁hetápe	-11.2798
LU	-11.2801
▁orepytyvõ	-11.2801
roma	-11.2802
▁vecino	-11.2803
titu	-11.2803
ptiy	-11.2803
▁testigonkuna	-11.2805
▁religionkuna	-11.2806
▁apredika	-11.2806
▁4:3	-11.2807
▁willay	-11.2807
▁hapichakuéra	-11.2807
▁51	-11.2809
▁pachata	-11.2809
wasqanchikmanta	-11.281
ñó	-11.2811
ẽtaha	-11.2812
▁Rubén	-11.2812
epytyvõrã	-11.2813
▁peichagua	-11.2813
▁Crón	-11.2814
▁ñakambia	-11.2815
rup	-11.2821
waya	-11.2823
▁pri	-11.2823
▁She	-11.2824
reka	-11.2824
▁Cua	-11.2826
▁omotenondéva	-11.2827
▁ventanas	-11.2828
▁nts	-11.283
▁Paraguaya	-11.2831
▁Juda	-11.2831
dá	-11.2834
IDAD	-11.2835
▁relaciona	-11.2835
▁Embogue	-11.284
:“	-11.2846
▁1942	-11.2847
▁1932	-11.2849
▁Ñañe	-11.285
▁sigamos	-11.2852
▁estarán	-11.2852
▁bal	-11.2854
▁finales	-11.2855
▁Chaypim	-11.2856
▁bestia	-11.2857
▁abundancia	-11.2857
▁Galilea	-11.2858
▁dicta	-11.2861
▁jeý	-11.287
▁próxima	-11.2872
▁Tembipuru	-11.2872
▁pytyvõhára	-11.2873
▁nacer	-11.2873
lito	-11.2873
pake	-11.2874
Cristo	-11.2875
▁jere	-11.2876
▁jaskáakin	-11.2878
▁sabían	-11.2879
▁rurana	-11.2883
▁5:2	-11.2885
▁tratan	-11.2887
ndar	-11.2891
▁electoral	-11.2894
▁Chili	-11.2899
▁71	-11.29
▁yachachwan	-11.29
▁Qam	-11.2901
▁carretera	-11.2902
▁corriente	-11.2902
▁ndehegui	-11.2902
▁tekorosã	-11.2903
▁punchawpi	-11.2903
Kay	-11.2904
▁ñemi	-11.2905
▁contribuye	-11.2906
spankuqa	-11.2907
JA	-11.2908
▁pájaro	-11.2908
▁oba	-11.2912
▁oadora	-11.2915
yaku	-11.2916
▁establece	-11.2916
▁Tro	-11.2917
▁tembiasakue	-11.2918
▁logrado	-11.2919
▁canción	-11.2921
▁ok	-11.2922
▁kasqantam	-11.2922
▁1935	-11.2923
kusqa	-11.2925
▁hetã	-11.2925
▁Janiw	-11.2926
▁nañane	-11.2929
▁Society	-11.2932
▁juajuha	-11.2932
IS	-11.2933
▁noko	-11.2933
nanpaqmi	-11.2937
áke	-11.2939
Allin	-11.294
▁1931	-11.294
lida	-11.294
▁informes	-11.2942
nichu	-11.2944
▁Ed	-11.2946
seg	-11.2946
▁sinchi	-11.2946
▁roga	-11.2947
ag̃ui	-11.2947
▁músico	-11.2947
▁Windows	-11.2947
▁Piensa	-11.2948
▁Real	-11.2948
▁excepción	-11.2948
▁latín	-11.2949
▁VIII	-11.295
▁Cordero	-11.295
▁inmoralidad	-11.295
▁Men	-11.2951
▁responsables	-11.2951
▁encanta	-11.2951
ier	-11.2959
tir	-11.2959
▁Página	-11.2962
▁adulterio	-11.2962
▁Awki	-11.2963
▁oñandu	-11.2963
▁escala	-11.2972
▁tuichaite	-11.2975
▁recordó	-11.2977
▁pumbyry	-11.2978
"-	-11.2978
▁cuadro	-11.2978
▁ejecutar	-11.2982
yeti	-11.2984
▁Yachachi	-11.2986
▁qosan	-11.2988
▁kallpancharqa	-11.2989
terei	-11.2989
▁mue	-11.2989
▁Bre	-11.2992
BrandShortName	-11.2992
▁Católica	-11.2992
▁caracteres	-11.2992
▁perfección	-11.2992
▁conversaciones	-11.2994
▁ombovy	-11.2995
▁pun	-11.2999
▁oñembyasy	-11.2999
▁gira	-11.2999
▁mor	-11.3001
▁Abi	-11.3002
▁kapi	-11.3005
▁mandamiento	-11.3006
vévape	-11.3006
▁mboy	-11.3007
▁esclavitud	-11.3008
▁válida	-11.3008
▁afirmó	-11.3008
▁desconocido	-11.3008
▁novia	-11.3008
▁qipa	-11.3008
<	-11.3011
▁bautizarse	-11.3015
▁huñunakuy	-11.3016
▁42:	-11.3017
▁omohenda	-11.3019
."-	-11.3022
▁poli	-11.3022
quili	-11.3023
▁yoiya	-11.3025
▁añeha	-11.3027
tol	-11.3029
▁escriba	-11.303
▁yatxata	-11.3031
yani	-11.3031
▁ojepe	-11.3034
nega	-11.3036
▁envía	-11.3037
▁temimbo	-11.304
râ	-11.3041
▁preparación	-11.3044
▁pohýi	-11.3044
▁raro	-11.3046
▁atiende	-11.3049
▁representan	-11.305
▁ñongatu	-11.305
jere	-11.3052
▁chico	-11.3053
émonos	-11.3053
▁Chuqiyapu	-11.3053
▁filosofía	-11.3053
▁Humanos	-11.3053
Máva	-11.3053
▁xá	-11.3054
▁Tiempo	-11.3055
▁Embojuruja	-11.3055
▁Ij	-11.3059
▁cabello	-11.3059
mbareté	-11.306
:27).	-11.3063
▁taytan	-11.3065
cula	-11.3068
nun	-11.3069
rani	-11.307
utu	-11.3072
▁oso	-11.3072
▁ÑANDEJÁRA	-11.3073
Pero	-11.3075
▁valiente	-11.3076
▁canciones	-11.3078
Hab	-11.3078
ney	-11.3082
▁mencionado	-11.3082
ʉ	-11.3084
Léase	-11.3084
▁muro	-11.3084
▁Wañu	-11.3086
cl	-11.3086
▁ayo	-11.3089
▁aumentar	-11.3089
▁Max	-11.309
chú	-11.3091
▁escrita	-11.3095
▁saranta	-11.3099
▁sumo	-11.3099
▁ehérsito	-11.3099
▁Organización	-11.3102
▁ipasiénsia	-11.3103
▁Teo	-11.3104
▁bachi	-11.3107
▁pon	-11.3107
▁jaoka	-11.3108
▁dejan	-11.3109
▁trampa	-11.311
rend	-11.3111
▁join	-11.3112
▁iñiyninkupi	-11.3112
▁ācatl	-11.3114
▁salieron	-11.3115
ça	-11.3119
nso	-11.3119
▁revisión	-11.312
▁rato	-11.3122
▁Opaite	-11.3122
▁flecha	-11.3122
¡	-11.3124
▁sasacha	-11.3125
▁categoría	-11.313
▁inferior	-11.313
▁dibuja	-11.313
évare	-11.3132
apópe	-11.3133
piwan	-11.3136
▁tabla	-11.3137
▁55:	-11.3138
▁obedientes	-11.3139
▁consolar	-11.3142
maka	-11.3143
̃	-11.3143
Pre	-11.3144
▁CSS	-11.3145
▁habilidades	-11.3145
▁Cuba	-11.3148
▁1870	-11.3149
bida	-11.3151
ig	-11.3152
▁1:3	-11.3152
ñemitỹ	-11.3156
▁casarasqa	-11.3156
▁1910	-11.3157
▁Marka	-11.3158
ñongatu	-11.3158
▁regiones	-11.316
▁afrontar	-11.3161
ñatakix	-11.3163
▁ohupytýta	-11.3164
▁decirse	-11.3164
▁Sy	-11.3166
▁firmemente	-11.3167
chkaptin	-11.3168
▁119:	-11.3168
▁límite	-11.3169
▁preciosa	-11.3169
▁potencia	-11.3171
▁puertas	-11.3171
▁predicamos	-11.3171
▁ukanak	-11.3171
▁hũ	-11.3172
▁75	-11.3175
▁creía	-11.3176
▁ño	-11.3176
▁culto	-11.3176
▁Char	-11.3176
▁ofrecen	-11.3178
▁saludable	-11.3179
▁establezca	-11.3179
▁creyentes	-11.3181
use	-11.3182
▁amp	-11.3182
gana	-11.3185
▁roja	-11.3189
▁jasypo	-11.3191
▁opiniones	-11.3191
▁Alonso	-11.3191
vid	-11.3193
▁odio	-11.3193
▁convencidos	-11.3194
mboty	-11.3195
▁chinka	-11.3197
▁atsa	-11.3199
▁Bat	-11.3203
▁estudiánte	-11.3211
ayata	-11.3213
▁pocas	-11.3213
▁añembo	-11.3213
▁idisipulokuéra	-11.3222
henói	-11.3223
▁doble	-11.3224
ok	-11.3225
▁1929	-11.3229
▁iñiy	-11.323
cah	-11.3233
more	-11.3235
▁alimentar	-11.3235
1-	-11.3237
cana	-11.3237
▁círculo	-11.3238
▁kuyakuy	-11.3238
▁Uruguay	-11.3238
▁Parece	-11.324
▁nuya	-11.3241
Éxo	-11.3241
xat	-11.3242
uyu	-11.3245
▁adoptar	-11.3246
▁Mé	-11.3248
▁páh	-11.3253
▁ceremonia	-11.3253
▁estadounidense	-11.3253
▁adoradores	-11.3254
xonra	-11.3259
gido	-11.3261
▁ymave	-11.3262
▁Gri	-11.3263
▁lawman	-11.3264
▁consideraba	-11.3266
rka	-11.3266
▁sobrevivir	-11.3266
▁itoca	-11.3267
▁influye	-11.3269
▁cliente	-11.3269
▁basura	-11.3269
▁gratitud	-11.3269
▁decreto	-11.327
upé	-11.3271
tel	-11.3271
idos	-11.3272
Podría	-11.3273
▁lur	-11.3279
▁henda	-11.3279
▁porãpa	-11.3281
bes	-11.3286
▁Llu	-11.3288
▁derrama	-11.329
▁digital	-11.3291
▁provecho	-11.3292
200	-11.3293
Cha	-11.3294
▁112	-11.3298
▁criaturas	-11.3299
▁ndoro	-11.3299
qay	-11.3299
▁influir	-11.33
▁Janeiro	-11.33
osamente	-11.3305
▁tuakuéra	-11.3306
Leey	-11.3306
▁jugar	-11.3308
veimaha	-11.3309
▁avión	-11.3317
▁Hanaq	-11.3319
▁arapy	-11.332
▁puru	-11.3322
ville	-11.3322
▁prioridad	-11.3322
dónde	-11.3327
▁fuentes	-11.3328
▁willakuykuna	-11.3329
:14,	-11.3329
rehe	-11.333
pyrã	-11.3331
▁Navidad	-11.3331
▁adecuado	-11.3331
▁claridad	-11.3331
▁yacharu	-11.3332
▁muralla	-11.3332
▁katupyry	-11.3336
all	-11.3338
▁verano	-11.3339
▁patron	-11.334
▁okaru	-11.334
gur	-11.3342
▁túa	-11.3343
monge	-11.3345
▁Vargas	-11.3347
▁espalda	-11.3347
▁er	-11.3349
▁ikanwe	-11.335
▁ñanesãmbyhy	-11.335
▁Evangelios	-11.335
▁internacionales	-11.335
▁acercarse	-11.335
Manam	-11.3351
▁ñembyai	-11.3351
▁Emoneĩ	-11.3352
kutu	-11.3354
▁municipio	-11.3355
iqi	-11.3357
sqayta	-11.3357
▁económico	-11.3358
▁temi	-11.3358
▁Puka	-11.3362
takeri	-11.3362
▁noĩri	-11.3363
kuynin	-11.3365
▁acusa	-11.3365
▁amigokuéra	-11.3366
▁Oro	-11.3368
▁allinchu	-11.3368
▁Enterove	-11.3368
▁listo	-11.3371
▁esfuerzan	-11.3371
kota	-11.3371
▁Simi	-11.3372
▁yachasun	-11.3375
▁Qhichwa	-11.3378
▁advierte	-11.3378
▁atiyniyoq	-11.3378
▁determinación	-11.3378
▁huey	-11.3378
▁Ñapensamína	-11.3379
▁eje	-11.3379
japyhy	-11.3381
rekópe	-11.3382
nista	-11.3383
▁abra	-11.3388
▁17:1	-11.3389
▁estrella	-11.3389
▁rova	-11.3392
▁unancha	-11.3394
▁Diluvio	-11.3394
▁nendive	-11.3394
▁repente	-11.3395
▁postura	-11.3395
▁cultiva	-11.3396
▁©	-11.3397
antsi	-11.3398
▁qepancha	-11.3399
vel	-11.3399
anu	-11.3401
deo	-11.3401
▁watanpi	-11.3401
▁utt	-11.3403
akã	-11.3403
napaqmi	-11.3405
▁tōnalli	-11.341
▁Herodes	-11.341
▁escogido	-11.341
▁exterior	-11.341
▁ñä	-11.341
▁ohechaukáta	-11.341
▁impo	-11.3412
▁Flor	-11.3413
hor	-11.3413
mej	-11.3415
▁65:	-11.3418
▁Radio	-11.3419
▁chino	-11.3419
:1-4).	-11.342
▁3:5	-11.342
cci	-11.3425
▁Knorr	-11.3426
▁SOBRE	-11.3426
▁oscuridad	-11.3426
▁parecida	-11.3426
▁escolar	-11.3426
▁nomomba	-11.3427
table	-11.3428
▁Vicente	-11.3428
tario	-11.3429
ytam	-11.3429
▁partidos	-11.343
ios	-11.3431
▁Israelguápe	-11.3433
▁kaqkunaqa	-11.3434
▁qillqata	-11.3434
ñani	-11.3434
▁mater	-11.3434
▁Kaymi	-11.3436
▁riqueza	-11.3437
▁conformidad	-11.3441
▁markachirinaka	-11.3442
▁Satanasqa	-11.3444
▁candidatos	-11.3445
mic	-11.3445
▁Vamos	-11.3449
▁ojejoko	-11.3449
▁Jer	-11.3449
▁quedan	-11.3449
▁Vol	-11.345
▁Peter	-11.345
Je	-11.3455
▁7:9	-11.3456
▁upémarõ	-11.3457
▁ist	-11.3459
▁Tenda	-11.3459
▁tsu	-11.346
▁exhortación	-11.346
tuq	-11.346
moñeñandu	-11.346
PP	-11.3461
▁allinkuna	-11.3461
▁comen	-11.3467
▁propuesta	-11.3471
▁Ecuador	-11.3473
▁pichqa	-11.3473
▁(*)	-11.3473
▁piensanku	-11.3475
▁judía	-11.3476
mbotavy	-11.3478
▁astudia	-11.3479
shita	-11.348
▁hallar	-11.3482
▁ayudaron	-11.3484
óva	-11.3485
The	-11.3486
▁1917	-11.3486
▁aprecio	-11.3489
▁molesta	-11.349
▁PRO	-11.3491
▁ojepredika	-11.3492
▁xeati	-11.3492
uha	-11.3493
▁jara	-11.3494
pépe	-11.3495
▁phaxsit	-11.3495
▁profundas	-11.3499
týpe	-11.3503
▁viaja	-11.3503
aguapý	-11.3505
▁cuestiona	-11.3505
▁indican	-11.3505
▁iñehémplo	-11.3505
▁bandera	-11.3505
▁penal	-11.3506
▁subir	-11.3507
▁palacio	-11.3507
▁Romero	-11.3507
▁confiable	-11.3509
▁Quienes	-11.3509
▁ñamano	-11.351
▁visible	-11.3513
▁sumaqta	-11.3519
▁tapia	-11.352
▁riká	-11.352
▁thogi	-11.3522
▁53	-11.3522
▁micro	-11.3523
▁enfrenta	-11.3525
▁(3)	-11.3525
rena	-11.3525
ight	-11.3526
▁formado	-11.3528
▁yosi	-11.3532
rru	-11.3534
moingo	-11.3535
▁portugués	-11.3537
▁iñermáno	-11.3537
▁firmes	-11.354
RU	-11.3543
▁amombe	-11.3543
moherakuã	-11.3544
▁pensado	-11.3545
visita	-11.3547
pki	-11.3549
dado	-11.3552
▁género	-11.3553
Mal	-11.3553
▁KAQ	-11.3553
mä	-11.3553
jejapo	-11.3554
▁Mokõi	-11.3554
▁jist	-11.3557
ish	-11.3557
kusqan	-11.3558
ificado	-11.3559
Filip	-11.3559
▁vidas	-11.3559
▁160	-11.3561
dela	-11.3561
▁enseñado	-11.3562
aban	-11.3563
▁guaraníme	-11.3564
▁mexicas	-11.3566
nakaxa	-11.3567
▁Caleb	-11.3569
cular	-11.357
▁falsas	-11.3571
▁Bri	-11.3572
▁asociación	-11.3572
▁Isa	-11.3573
▁chayllaraq	-11.3576
▁munasqan	-11.3576
evéva	-11.3578
▁Flores	-11.3578
▁6:3	-11.3579
▁qhawa	-11.358
éiramo	-11.3581
▁engañar	-11.3581
▁Cata	-11.3582
vil	-11.3584
▁Faraón	-11.3585
▁patriarca	-11.3585
▁ojoayhu	-11.3585
▁evita	-11.3587
▁ansianokuéra	-11.3588
▁Yalapi	-11.3592
▁runakunamanta	-11.3593
meran	-11.3594
ẽrendú	-11.3594
▁POR	-11.3596
llar	-11.3597
▁teki	-11.3598
▁wanaku	-11.36
▁siguiendo	-11.3601
▁tōchtli	-11.3601
cú	-11.3601
▁vital	-11.3603
▁kunayman	-11.3603
▁chaykuna	-11.3604
▁métodos	-11.3605
riba	-11.3605
▁operdona	-11.3605
▁bá	-11.3608
▁Corea	-11.3611
▁ohecháva	-11.3611
▁hukkuna	-11.3612
▁taller	-11.3613
▁ñawpari	-11.3614
kati	-11.3616
nero	-11.3617
▁Gómez	-11.3617
▁enseguida	-11.3617
▁entretenimiento	-11.3617
▁reconoció	-11.3617
▁Raquel	-11.3617
▁kavaju	-11.3617
▁ñongatupyre	-11.3618
▁organiza	-11.3622
▁teníamos	-11.3623
▁ogueroviáva	-11.3624
▁gustaba	-11.3624
▁ancianokuna	-11.3624
quixti	-11.3624
qkunapa	-11.3624
▁representación	-11.3627
▁oikuaase	-11.3629
▁qhaway	-11.3629
▁ohendúva	-11.3631
llanpi	-11.3632
▁fabrica	-11.3633
▁metztli	-11.3633
Ama	-11.3634
▁Grecia	-11.3634
▁escapar	-11.3634
▁sombra	-11.3635
▁kèq	-11.3636
▁1934	-11.3639
▁Ángel	-11.3641
▁ejercer	-11.3642
taro	-11.3642
▁opensá	-11.3645
▁estación	-11.3646
ypy	-11.3646
▁aproximadamente	-11.3647
▁Bas	-11.3647
▁OÑE	-11.3647
▁ohayhuha	-11.3648
▁Bernabé	-11.3649
▁obispo	-11.3649
▁ura	-11.3652
▁Wakinku	-11.3653
ruspan	-11.3655
▁áñorupi	-11.366
Jo	-11.3661
▁Indígena	-11.3664
Hi	-11.3665
tē	-11.3665
▁konsiénsia	-11.3666
ndida	-11.3666
▁24:3	-11.3667
▁yachasunchik	-11.3668
▁eskuéla	-11.3669
▁kachkaspan	-11.3671
▁cuáles	-11.3672
guasúi	-11.3673
chispa	-11.3677
rata	-11.3678
▁tlahtol	-11.3678
▁jeman	-11.3681
▁rega	-11.3681
▁chile	-11.3681
▁planea	-11.3682
▁Distritupiqa	-11.3682
▁dulce	-11.3682
▁cónyuges	-11.3682
▁sallqa	-11.3683
▁mínimo	-11.3683
▁yachasqanchik	-11.3683
▁maña	-11.3683
▁Sociedad	-11.3685
cca	-11.3686
este	-11.3686
▁mat	-11.3687
▁señoran	-11.3689
UR	-11.3692
▁Ancha	-11.3696
▁morales	-11.3698
▁esforzamos	-11.3698
▁siguieron	-11.3698
sqanman	-11.3698
▁causar	-11.3699
▁Évape	-11.3699
▁explicación	-11.3704
▁Edi	-11.3704
▁mbytépe	-11.3705
Tienes	-11.3705
▁regularmente	-11.3705
▁inte	-11.3707
▁Umalliq	-11.3707
▁Cro	-11.3709
▁conduce	-11.3709
▁oity	-11.3709
▁Ah	-11.3709
Araka	-11.371
▁Saulo	-11.3712
▁valiosa	-11.3713
evéicharõ	-11.3714
▁ocurrido	-11.3714
▁tlahtohuani	-11.3714
▁rekovépe	-11.3715
itas	-11.3715
chiua	-11.3716
▁sérro	-11.3716
rekóramo	-11.3717
llapaq	-11.3717
▁hunta	-11.3719
▁600	-11.3724
▁Copa	-11.3725
▁Puma	-11.3726
kta	-11.3728
▁axeti	-11.3728
▁adolescente	-11.3729
▁presupuesto	-11.3731
▁jaskaaxon	-11.3731
▁hecha	-11.3731
▁mochiuh	-11.3732
▁olvida	-11.3733
▁yokabo	-11.3735
▁cabal	-11.3735
▁33:	-11.3736
▁pozo	-11.3736
▁biti	-11.3736
ento	-11.3736
▁distintas	-11.3737
ypaq	-11.3737
▁joa	-11.3738
▁confía	-11.3738
▁karunchaku	-11.3739
tái	-11.374
ños	-11.3741
500	-11.3741
kunqa	-11.3742
▁dichos	-11.3742
▁ymaite	-11.3745
▁herido	-11.3745
▁uya	-11.3746
▁ndoguerekói	-11.3747
▁llampu	-11.3747
▁diablo	-11.3747
▁árka	-11.3748
kunanchik	-11.3748
▁hingi	-11.375
ntí	-11.375
▁Ciertamente	-11.3752
mantawan	-11.3752
huica	-11.3752
▁suyunaka	-11.3753
▁Mariano	-11.3754
▁kasqanku	-11.3756
▁pare	-11.3757
▁pai	-11.3759
▁séptimo	-11.3763
▁Tenochtitlan	-11.3763
▁refería	-11.3763
yol	-11.3764
▁99	-11.3764
▁Imagínese	-11.3765
mama	-11.3765
▁muni	-11.3765
▁últimas	-11.3766
▁fil	-11.3768
▁keská	-11.3768
▁ikyre	-11.377
nei	-11.377
tsiri	-11.3771
▁orre	-11.3771
▁hustísia	-11.3772
▁llaman	-11.3774
▁odefende	-11.3775
jái	-11.3775
▁iménape	-11.3775
dd	-11.3778
▁vivienda	-11.378
▁Máva	-11.378
▁Public	-11.378
nú	-11.378
▁recomienda	-11.3781
▁adolescentes	-11.3781
▁ixquich	-11.3782
:22,	-11.3783
▁bena	-11.3784
▁aju	-11.3786
▁tlacatl	-11.3787
▁ypýpe	-11.3789
▁axe	-11.3789
▁antepasados	-11.3791
▁asocia	-11.3791
▁Arhintina	-11.3794
▁pregunte	-11.3796
▁Brooklyn	-11.3796
▁reveló	-11.3797
▁parcial	-11.3797
UN	-11.3797
kumpli	-11.3797
▁Kikin	-11.3801
▁arena	-11.3802
▁LO	-11.3805
guna	-11.3805
▁chayamu	-11.3807
▁iñ	-11.3809
▁Algo	-11.3811
▁basta	-11.3812
▁ÑANDE	-11.3812
▁iñumílde	-11.3812
▁procura	-11.3813
▁resucitado	-11.3815
▁municipal	-11.3817
▁yuya	-11.3818
▁California	-11.382
chkani	-11.382
sqankuraykum	-11.3821
▁Apu	-11.3822
▁kanki	-11.3823
:12,	-11.3825
▁nemandu	-11.3825
▁viajar	-11.3826
▁tekome	-11.3828
▁ombosako	-11.3828
▁recientemente	-11.3832
▁nisqanqa	-11.3833
funda	-11.3835
▁tiempochaku	-11.3837
▁Chayqa	-11.3839
▁hap	-11.3841
▁Parque	-11.3841
zos	-11.3841
▁estuvieron	-11.3842
▁descubr	-11.3843
nanchikmi	-11.3845
▁procedimiento	-11.3845
▁Junta	-11.3845
▁suerte	-11.3846
▁1).	-11.3847
▁ikana	-11.3848
▁mikuy	-11.385
▁isiervokuéra	-11.3853
▁derrota	-11.3853
kuaáta	-11.3854
▁6:2	-11.3858
ýta	-11.3859
chari	-11.386
▁Uficial	-11.3862
jesareko	-11.3862
jam	-11.3862
guáicha	-11.3863
▁habita	-11.3863
▁Plaza	-11.3863
UE	-11.3864
▁Sir	-11.3865
kate	-11.3866
onda	-11.3867
neki	-11.3867
▁apachi	-11.3868
▁facultades	-11.3868
▁japyhypy	-11.3874
dieron	-11.3874
▁parque	-11.3875
apyha	-11.3876
ptinchik	-11.3878
▁empieza	-11.3878
▁expresiones	-11.3878
▁direcciones	-11.388
▁Tract	-11.388
▁Moises	-11.3881
siwi	-11.3883
▁favorece	-11.3884
▁1937	-11.3884
▁Adan	-11.3884
▁axea	-11.3885
▁cometer	-11.3887
▁Dé	-11.3887
rillo	-11.389
▁oporohayhu	-11.389
▁Emombe	-11.3892
ruwa	-11.3894
▁Mc	-11.3894
▁chinkachi	-11.3895
▁Governánte	-11.3895
▁Circuito	-11.3895
▁pevépa	-11.3895
rez	-11.3896
pya	-11.3897
▁reipytyvõ	-11.3897
▁ruranapaq	-11.3897
▁metro	-11.3898
▁asumir	-11.3898
yguápe	-11.3899
▁nan	-11.39
▁munanku	-11.3901
▁adicionales	-11.3902
ERÃ	-11.3905
▁kaniku	-11.3905
▁oñeporandu	-11.3906
rovi	-11.3907
▁sat	-11.3908
▁Prometida	-11.3911
▁numerosos	-11.3911
▁oñepyrũma	-11.3912
▁aguã	-11.3912
▁escritores	-11.3915
ikove	-11.3918
▁variedad	-11.3919
hechákuri	-11.3922
▁wai	-11.3924
▁Mach	-11.3924
▁eskuélape	-11.3925
ninku	-11.3926
▁entendimiento	-11.3928
aporãva	-11.3931
▁dejará	-11.3931
▁iporãta	-11.3932
▁2:4	-11.3933
▁QUÉ	-11.3934
porandú	-11.3935
▁cine	-11.3935
▁kananta	-11.3936
▁ñepyrũrã	-11.3941
▁cen	-11.3943
▁santa	-11.3944
▁Alianza	-11.3945
▁lénto	-11.3945
spay	-11.3945
▁cocina	-11.3946
▁Tanto	-11.3946
pyty	-11.3947
▁runakunapas	-11.3948
▁76	-11.3948
jä	-11.3948
Este	-11.3949
▁dudas	-11.395
▁suceder	-11.3951
▁main	-11.3953
▁ponga	-11.3955
▁codicia	-11.3961
gor	-11.3962
chaq	-11.3963
▁guýpe	-11.3966
Jaweti	-11.3969
ãkena	-11.3969
▁huir	-11.3969
urã	-11.397
▁ñamoĩ	-11.3973
Haykapi	-11.3974
▁́i	-11.3974
▁vía	-11.3977
▁publicó	-11.3978
▁préso	-11.3978
ola	-11.398
▁leña	-11.3981
ñane	-11.3981
▁operde	-11.3981
▁gasta	-11.3983
cuer	-11.3986
▁móvil	-11.3986
▁nisqakunaqa	-11.3987
Imayna	-11.3987
▁llakipayakuq	-11.3988
▁OJE	-11.3988
-6	-11.3991
ther	-11.3992
▁onanke	-11.3992
POR	-11.3994
lizar	-11.3994
▁wakllanwatam	-11.3995
▁defiende	-11.3995
▁quita	-11.3995
▁iwe	-11.3998
▁quitar	-11.3999
rjama	-11.4
▁kun	-11.4001
▁sarta	-11.4005
fin	-11.4005
cina	-11.4011
▁posesión	-11.4012
▁iñirũnguéra	-11.4012
▁Thomas	-11.4012
▁obvio	-11.4012
▁uvei	-11.4012
▁oiporiahuvereko	-11.4013
▁funcionamiento	-11.4013
▁ñakumpli	-11.4014
teĩ	-11.4014
▁1982	-11.4015
▁debate	-11.4018
inko	-11.4018
▁000	-11.402
▁placer	-11.402
▁"¡	-11.4024
kamu	-11.4025
CC	-11.4028
▁tlatohuani	-11.4028
▁Tendayke	-11.4028
▁colonia	-11.4029
▁complementos	-11.403
▁ipyahuvéva	-11.403
▁bebida	-11.403
chos	-11.4032
und	-11.4032
▁ijurujáva	-11.4036
▁resucitar	-11.4036
Añetehápe	-11.4036
uve	-11.4036
▁utj	-11.4037
uki	-11.404
temo	-11.4044
▁pachamanta	-11.4044
▁Segunda	-11.4045
nkupi	-11.4045
▁Louis	-11.4046
▁tentaciones	-11.4046
▁certificados	-11.4047
▁ataca	-11.4048
5.000	-11.4048
▁solía	-11.4051
▁expulsado	-11.4051
bón	-11.4052
nakampi	-11.4053
▁Chaymantam	-11.4055
▁kapu	-11.4055
yer	-11.4057
ntá	-11.4059
▁kitipi	-11.4059
od	-11.406
▁oguero	-11.406
▁cargar	-11.4061
Mia	-11.4061
ÑE	-11.4062
▁adecuada	-11.4062
▁Yaqapaschá	-11.4062
▁Noemí	-11.4063
mac	-11.4063
lló	-11.4065
▁caña	-11.4066
▁PÁGINAS	-11.4069
tería	-11.4071
▁vigila	-11.4077
▁Mardoqueo	-11.4079
Com	-11.4079
sho	-11.408
▁chaytaqa	-11.4084
bit	-11.4086
▁relacionadas	-11.4087
▁entregar	-11.4088
▁kana	-11.4092
▁ponerse	-11.4093
▁Tan	-11.4095
atawa	-11.4096
▁alianza	-11.4096
siñ	-11.4096
▁Lista	-11.4098
▁mirando	-11.4099
▁86	-11.4099
riri	-11.4099
▁tle	-11.41
▁números	-11.4101
▁reaccionar	-11.4101
▁reñeñandu	-11.4103
quito	-11.4105
▁iken	-11.4108
▁chí	-11.4112
▁hekópe	-11.4113
▁yoinabo	-11.4113
▁ombotuicha	-11.4114
▁meni	-11.4115
▁tendencia	-11.4115
Be	-11.4116
▁navegadores	-11.4116
▁moõ	-11.4117
▁ré	-11.4117
▁ojapotaha	-11.4118
▁esposos	-11.4118
▁Pra	-11.4118
▁trajo	-11.4119
cuil	-11.4122
zas	-11.4122
▁disc	-11.4125
rieka	-11.4127
pɨ	-11.4128
myanyhẽ	-11.413
▁examen	-11.413
▁Asiria	-11.413
▁yachanku	-11.4132
▁sistemas	-11.4133
▁analizaremos	-11.4133
mini	-11.4135
chen	-11.4135
taynawa	-11.4136
▁asta	-11.4136
▁provincias	-11.4136
▁Iro	-11.4139
guí	-11.414
▁ciudadano	-11.4142
div	-11.4142
▁3:​1	-11.4146
▁Torres	-11.4146
▁amuyt	-11.4146
▁Abrahan	-11.4147
▁ñawincha	-11.4147
▁Bíbliagui	-11.4147
▁unhídope	-11.4148
▁qillqasqan	-11.415
▁áreas	-11.4152
momichĩ	-11.4152
llatam	-11.4153
uwa	-11.4154
Jehova	-11.4155
▁INEI	-11.4156
▁Sar	-11.4156
▁provoca	-11.4158
▁jei	-11.416
▁llumpa	-11.416
▁jaqinakax	-11.4161
▁paykunawan	-11.4161
javy	-11.4163
▁Itália	-11.4164
▁Táva	-11.4164
xti	-11.4165
▁tarikun	-11.4166
▁Pallan	-11.4169
▁hasýva	-11.417
▁bebe	-11.417
2-	-11.4171
vénte	-11.4173
▁suyos	-11.4175
▁mamakuna	-11.4175
milla	-11.4176
scrito	-11.4176
▁atibo	-11.4177
▁3:2	-11.4179
lisa	-11.418
▁evolución	-11.4181
▁rrekuádro	-11.4181
▁30:	-11.4181
Imakunata	-11.4181
▁tradición	-11.4181
▁cooperación	-11.4182
▁hacerle	-11.4185
▁vimos	-11.4185
▁osa	-11.4186
toc	-11.4188
▁volverá	-11.4188
▁apaq	-11.4189
▁entendía	-11.419
▁sabes	-11.419
rum	-11.4191
▁Gálatas	-11.4192
▁Véase	-11.4192
sqaykimanta	-11.4196
▁opurahéi	-11.4197
▁reaccionó	-11.4198
▁generoso	-11.4198
chej	-11.42
▁Ciencias	-11.4201
guer	-11.4202
▁qulla	-11.4202
Ba	-11.4203
▁decían	-11.4204
▁techo	-11.4205
▁ganas	-11.4205
▁formato	-11.4206
bili	-11.4206
▁iñiqmasinkuna	-11.421
piri	-11.421
CH	-11.4211
pl	-11.4211
rayhu	-11.4212
▁escuelas	-11.4214
▁sapaq	-11.4215
▁imperfección	-11.4215
▁vivido	-11.4215
▁Error	-11.4215
▁canasta	-11.4216
▁́li	-11.422
label	-11.422
LLA	-11.422
▁Churin	-11.4221
japóvo	-11.4221
▁madero	-11.4221
▁estudiando	-11.4222
▁cola	-11.4222
cocha	-11.4222
ão	-11.4223
nico	-11.4223
mira	-11.4224
▁tiempopiqa	-11.4225
▁59	-11.4226
lor	-11.4227
▁concentra	-11.4227
▁\	-11.4229
▁doy	-11.4231
▁Quin	-11.4231
▁ukjam	-11.4232
▁comun	-11.4234
▁garantizar	-11.4235
cieron	-11.4236
▁opo	-11.4236
▁use	-11.4237
tinin	-11.4237
thu	-11.4237
▁chika	-11.4238
▁oikó	-11.4239
Daniel	-11.4241
▁tuviera	-11.4241
▁memi	-11.4242
▁nopensái	-11.4243
▁iñaña	-11.4245
▁jueces	-11.4249
▁proxy	-11.4249
sqanchikman	-11.4249
▁rembiguái	-11.4249
▁añeñandu	-11.4251
▁qallarirqan	-11.4251
▁Javy	-11.4251
▁esperamos	-11.4253
▁sujeta	-11.4254
Li	-11.4255
▁colaboradores	-11.4257
▁Asimismo	-11.4259
▁agrega	-11.4261
▁reheguáva	-11.4265
▁inspirado	-11.4266
▁Itaipú	-11.4266
▁yanapakuyninta	-11.4266
gn	-11.4267
warqanchik	-11.4267
▁kóicha	-11.4268
▁gotho	-11.4269
ord	-11.4269
▁Embojuaju	-11.427
▁Calli	-11.4274
▁ukampi	-11.4275
▁Sobre	-11.4275
▁consideración	-11.4277
▁rysýi	-11.4277
Apoc	-11.4279
▁ñepyrũha	-11.4281
▁aprobado	-11.4284
bati	-11.4284
▁rabe	-11.4285
▁ramas	-11.4285
▁inspiración	-11.4287
ñeñandu	-11.4287
▁conflicto	-11.4288
▁socio	-11.4288
▁pasará	-11.4288
cle	-11.4295
▁Peru	-11.4295
éramos	-11.4298
()	-11.43
▁Nicolás	-11.4301
▁velocidad	-11.4301
mero	-11.4301
▁Ruiz	-11.4303
▁Tomás	-11.4304
▁tarda	-11.4304
ẽrendúi	-11.4306
▁Fin	-11.4308
▁sorprende	-11.4308
▁Bru	-11.4309
▁detalle	-11.431
ayasi	-11.4315
GU	-11.4315
▁altepetl	-11.4315
lico	-11.4316
▁Oficina	-11.4318
▁activista	-11.4318
▁recopila	-11.4319
▁Tai	-11.4325
ntla	-11.4327
▁taypi	-11.433
▁rabé	-11.433
▁jaipota	-11.4334
ware	-11.4335
▁apacibilidad	-11.4335
▁Filipinas	-11.4335
stan	-11.4336
pix	-11.4336
▁Esaú	-11.4337
▁CHE	-11.4337
Jaoka	-11.4338
eveichagua	-11.4338
▁ésta	-11.4339
▁encontraron	-11.4339
▁orilla	-11.434
▁ndaiporimo	-11.434
▁ogusta	-11.4344
▁deuda	-11.435
▁ayllun	-11.4351
▁paylla	-11.4351
ykita	-11.4351
▁témplope	-11.4352
▁imaynatam	-11.4353
▁Hacienda	-11.4353
▁Ayuda	-11.4353
▁Ñahesa	-11.4354
uelo	-11.4358
ciera	-11.4361
▁manchakuspa	-11.4361
-16	-11.4363
UU	-11.4364
▁nemba	-11.4365
▁11:2	-11.4365
▁yanapayku	-11.4366
kói	-11.4367
▁wila	-11.4369
▁noñemoneĩri	-11.437
▁aquellas	-11.4372
rakuéra	-11.4373
▁koiran	-11.4373
ncio	-11.4376
waka	-11.4376
▁bí	-11.4381
jepokuaa	-11.4383
▁nisqata	-11.4385
▁huevos	-11.4386
▁cobra	-11.4386
▁tarikuspa	-11.4386
puniw	-11.4387
▁maestra	-11.4387
▁170	-11.4388
▁Cá	-11.4393
▁recto	-11.4393
▁declaraciones	-11.4395
▁Jefe	-11.4396
▁libropa	-11.4396
g̃ua	-11.4397
▁warmanku	-11.4399
NG	-11.4399
▁uñjasi	-11.44
▁campa	-11.4401
▁Mag	-11.4404
kuchu	-11.4405
▁casó	-11.4406
▁opoko	-11.4408
▁obligación	-11.441
▁kepa	-11.441
▁miel	-11.4411
▁darnos	-11.4414
▁Az	-11.4416
moheñói	-11.4416
ÁN	-11.4417
▁irnaqa	-11.4419
▁llapa	-11.4419
▁Willa	-11.4421
jagarra	-11.4421
▁Satanáspe	-11.4421
▁Academia	-11.4422
▁necesite	-11.4423
Oñe	-11.4423
ración	-11.4423
▁kutipi	-11.4425
▁kamayuq	-11.4426
▁parezca	-11.4426
parte	-11.4427
▁logra	-11.4429
▁soltero	-11.4431
».	-11.4431
▁kilo	-11.4434
▁memite	-11.4436
▁ndoiko	-11.4437
▁For	-11.4438
▁Galeano	-11.444
tlahto	-11.444
▁regularidad	-11.4441
▁Runakuna	-11.4441
▁profunda	-11.4443
yninpi	-11.4443
▁ninkata	-11.4448
répe	-11.4448
▁llamkaq	-11.4449
catzin	-11.4454
▁presu	-11.4457
▁sinagoga	-11.4457
▁club	-11.4457
code	-11.4458
kuaáma	-11.4458
▁Medio	-11.4458
ueterei	-11.4459
▁empecé	-11.446
atl	-11.4461
sqankupi	-11.4462
winak	-11.4463
▁opina	-11.4464
met	-11.4464
imayna	-11.4466
cente	-11.4468
▁ohekombo	-11.447
▁conflictos	-11.447
▁realizada	-11.4471
neo	-11.4471
▁Qatiqnin	-11.4472
▁condenado	-11.4474
▁kóntrape	-11.4475
pol	-11.4475
▁Rojas	-11.4479
cada	-11.4479
éame	-11.448
▁hentekuéra	-11.4481
▁Wal	-11.4483
8-	-11.4484
kanon	-11.4484
▁lí	-11.4485
uch	-11.4485
▁133	-11.4488
▁Parroquia	-11.4489
puka	-11.4489
▁ciudadanía	-11.4492
kira	-11.4496
chrome	-11.4496
kunamantam	-11.4496
▁hilo	-11.45
▁primeras	-11.4501
verdad	-11.4506
itz	-11.4507
lino	-11.4508
▁Ear	-11.4508
▁apopyvusu	-11.451
▁Filipos	-11.4511
▁periodo	-11.4511
avo	-11.4511
▁Yoyo	-11.4513
▁iporãveha	-11.4513
codes	-11.4514
▁oñeguenohẽ	-11.4517
▁mamay	-11.4518
law	-11.452
▁wakcha	-11.4521
▁kachkanku	-11.4522
▁Moiséspe	-11.4524
▁rurasqanku	-11.4525
▁IKATU	-11.4528
▁opera	-11.4528
bamba	-11.4528
▁riqsisqa	-11.4528
▁muere	-11.4529
roga	-11.453
▁nacionkuna	-11.453
▁capa	-11.453
Bo	-11.4531
lda	-11.4533
lus	-11.4535
▁negar	-11.4536
▁mando	-11.4538
▁selección	-11.4539
▁Ayala	-11.454
Sabe	-11.454
▁tukuyta	-11.4541
▁tela	-11.4542
▁exhorta	-11.4542
▁pág	-11.4543
▁tsika	-11.4544
▁Judicial	-11.4545
matl	-11.4546
▁ñomongeta	-11.4546
▁tsama	-11.4546
▁critica	-11.4547
▁recuperación	-11.4547
▁yawar	-11.4549
▁experimenta	-11.4554
▁allintapuni	-11.4555
rekói	-11.4555
▁Nd	-11.4557
▁profesionales	-11.4557
▁verlo	-11.4557
paschá	-11.4559
▁uch	-11.4561
ojo	-11.4562
▁Guillermo	-11.4563
▁Popular	-11.4563
▁extraordinario	-11.4563
▁kompléto	-11.4563
▁kamachisqan	-11.4564
▁tekotevẽterei	-11.4564
▁Pat	-11.4566
▁oñembyai	-11.4567
▁Cinco	-11.4567
keska	-11.4568
▁revistas	-11.4569
lic	-11.4571
▁natekotevẽi	-11.4572
mann	-11.4573
▁Nombre	-11.4573
omo	-11.4574
▁anga	-11.4578
▁tasi	-11.4579
▁Hágsater	-11.4581
▁Nemachiyōtīlli	-11.4581
▁cólera	-11.4581
▁oparupiete	-11.4581
▁suticha	-11.4581
▁deseaba	-11.4582
▁oñepyrû	-11.4582
▁ñamotenonde	-11.4584
▁uj	-11.4588
▁ndaipori	-11.4589
uili	-11.459
▁tembiaporã	-11.4591
▁Og̃uahẽ	-11.4596
▁cuerpos	-11.4597
Ilustraciones	-11.4598
▁Lingũísticas	-11.4598
▁descubierto	-11.4598
▁Añadir	-11.4599
▁envidia	-11.4599
▁moneda	-11.46
▁jehechajey	-11.46
▁sesenta	-11.46
rresivi	-11.46
▁vean	-11.46
▁bits	-11.4601
▁Diccionario	-11.4602
▁1927	-11.4606
▁Senadores	-11.4607
muerte	-11.4609
▁4:6	-11.461
▁Ñamomba	-11.4615
▁Egíptope	-11.4616
▁Tampoco	-11.4616
▁global	-11.4616
▁disposiciones	-11.4616
▁alegre	-11.4618
▁Munisipyu	-11.4619
lique	-11.462
▁llamados	-11.462
▁kananku	-11.4622
▁sentimiento	-11.4624
▁espiritupa	-11.4626
▁viendo	-11.4627
▁Hunin	-11.4628
EL	-11.4629
Chu	-11.4629
fá	-11.463
▁absoluta	-11.463
▁cuento	-11.4631
▁Piruwpa	-11.4631
▁qorqa	-11.4638
yrakuéra	-11.4639
▁jema	-11.4639
▁111	-11.4639
iporavo	-11.464
vió	-11.4641
▁Eikuaa	-11.4641
▁Ol	-11.4641
▁jiki	-11.4642
▁llegan	-11.4642
▁Cap	-11.4643
fica	-11.4643
▁iOS	-11.4645
mbojuehe	-11.4646
p̱u	-11.4646
gica	-11.4647
▁miraynin	-11.4652
▁espesiál	-11.4652
▁efod	-11.4652
▁pasajes	-11.4652
▁nisán	-11.4653
▁hábitos	-11.4655
▁ñi	-11.4659
-21	-11.4659
▁ñaña	-11.466
▁Oscar	-11.4661
▁chaynam	-11.4662
▁digno	-11.4662
▁motla	-11.4663
BI	-11.4663
kangy	-11.4665
▁iñamígo	-11.4665
GO	-11.4665
▁Suyu	-11.4666
yachi	-11.4666
niri	-11.4667
▁(10	-11.4667
▁rupa	-11.467
▁Benjamín	-11.467
▁sorpresa	-11.467
▁violento	-11.467
▁falleció	-11.467
▁pila	-11.4671
▁ministros	-11.4672
▁yachachiy	-11.4674
kä	-11.4674
▁roservi	-11.4675
▁yuriwi	-11.4675
▁frutos	-11.4678
▁omoñe	-11.4679
grado	-11.4679
▁trabajaba	-11.4681
wiri	-11.4681
sqanmi	-11.4681
ctiv	-11.4683
▁hatarichi	-11.4684
fon	-11.4686
▁identificar	-11.4686
▁Kashamarka	-11.4688
▁injusto	-11.4688
▁previsto	-11.4688
▁régimen	-11.4688
▁XIX	-11.4688
▁nacionkunapi	-11.4688
▁rovake	-11.4692
▁Ati	-11.4693
dición	-11.4694
▁77	-11.4694
▁eliminará	-11.4696
▁servido	-11.4697
kusun	-11.4698
aitian	-11.4698
▁kaspanku	-11.4701
▁perfékto	-11.4701
▁Cre	-11.4701
▁warmikuna	-11.4702
▁mote	-11.4703
▁Pennsylvania	-11.4706
▁invitó	-11.4706
▁mosaica	-11.4706
▁Peña	-11.4706
▁actualizaciones	-11.4706
▁revy	-11.4708
▁Ame	-11.4709
▁Leví	-11.4709
Tú	-11.471
sipxi	-11.4711
▁waki	-11.4712
▁ñañeme	-11.4714
▁necesitaban	-11.4716
-7	-11.4717
Deu	-11.4717
▁remi	-11.4718
▁rao	-11.472
▁sá	-11.4721
▁discusión	-11.4724
▁construye	-11.4724
▁justa	-11.4726
▁kallpanchasqa	-11.4728
landa	-11.473
WA	-11.4733
jevautisa	-11.4734
▁jeporavo	-11.4734
▁techapyrã	-11.4734
▁iya	-11.4735
▁reje	-11.4736
▁Puno	-11.4737
▁ojerúre	-11.4738
▁78	-11.4739
yen	-11.4741
▁Techapyrã	-11.4742
▁Archivo	-11.4742
▁Bakebo	-11.4742
▁USA	-11.4742
▁jeporu	-11.4744
▁contenta	-11.4744
mbojoja	-11.4744
:11,	-11.4746
▁tiempopipas	-11.4746
cy	-11.4747
osos	-11.4749
jama	-11.4749
Opa	-11.475
▁ambo	-11.475
▁niwaq	-11.475
▁peiko	-11.4751
KI	-11.4752
QUÉ	-11.4753
ñemi	-11.4754
qqa	-11.4754
ök	-11.4754
▁inicial	-11.4755
▁anat	-11.4756
▁directa	-11.4756
evete	-11.4756
▁jaservív	-11.4758
▁príncipe	-11.476
▁gigante	-11.476
▁moderna	-11.476
▁animál	-11.476
▁jajuhu	-11.476
▁gen	-11.4762
▁Yuraq	-11.4762
▁wataña	-11.4762
▁yokata	-11.4763
Upe	-11.4763
rangue	-11.4763
tene	-11.4763
▁10:1	-11.4764
ft	-11.4765
siña	-11.4766
▁añeteha	-11.4766
▁reducir	-11.4767
-12	-11.4768
▁jehaipy	-11.477
▁Iñ	-11.477
▁establecerá	-11.477
▁Hor	-11.477
▁continúa	-11.4772
▁cumplen	-11.4772
▁6:9	-11.4774
▁vela	-11.4775
▁4:8	-11.4776
▁renonderã	-11.4778
▁Índice	-11.4778
▁vieja	-11.4778
mohu	-11.4779
▁quince	-11.4781
▁amistades	-11.4781
▁Haz	-11.4782
▁iglesias	-11.4782
▁chaykunata	-11.4783
▁estemos	-11.4784
Fili	-11.4788
▁torre	-11.4788
GI	-11.4789
▁poeta	-11.4789
▁yoina	-11.4791
▁utilizan	-11.4791
▁mokõiha	-11.4791
▁ojekuaáva	-11.4792
ẽma	-11.4792
▁llaqtamanta	-11.4793
▁hago	-11.4794
▁protegido	-11.4796
▁Henry	-11.4796
▁reh	-11.4797
▁suyakuy	-11.4797
▁fila	-11.4798
▁escuchó	-11.4798
uj	-11.4801
▁librar	-11.4801
kti	-11.4802
▁Misiones	-11.4802
shiri	-11.4802
iyari	-11.4802
▁abandona	-11.4805
▁peje	-11.4805
▁ojapoha	-11.4807
▁(5.	-11.4807
▁cortar	-11.4809
3-	-11.4811
rg	-11.4811
spankupas	-11.4811
▁1900	-11.4811
▁kikinku	-11.4812
HU	-11.4812
▁jucha	-11.4812
▁especies	-11.4813
▁ītōca	-11.4814
▁Imperio	-11.4814
PU	-11.4815
▁Jane	-11.4815
▁Pachantin	-11.4815
▁alcanza	-11.4816
chauka	-11.4816
ntero	-11.4816
▁expertos	-11.4817
▁68	-11.4819
▁Alfredo	-11.482
tuqit	-11.4822
▁verá	-11.4823
nanmantaqa	-11.4824
▁sinceras	-11.4825
▁Asa	-11.4825
▁oprepara	-11.4828
▁12:2	-11.4829
▁delito	-11.4831
tï	-11.4832
š	-11.4832
▁regresó	-11.4832
▁cáncer	-11.4832
▁estableció	-11.4832
▁oĩvare	-11.4833
▁progresar	-11.4833
pitaq	-11.4834
▁Creación	-11.4834
▁Fil	-11.4834
▁abraza	-11.4836
▁pecho	-11.4836
▁JE	-11.4839
▁cargos	-11.4842
▁electorales	-11.4843
▁fuga	-11.4847
oco	-11.4849
▁Tuicha	-11.485
▁intervención	-11.485
▁puchukarqan	-11.4851
▁purureko	-11.4851
▁aparecen	-11.4858
▁chiqap	-11.4859
▁unida	-11.4861
▁revis	-11.4866
▁querer	-11.4866
▁ñepytyvõ	-11.4867
▁astawanmi	-11.4868
▁yachachikuypi	-11.4869
▁llevará	-11.487
▁llegamos	-11.4872
▁Morales	-11.4872
guapy	-11.4878
▁Mai	-11.4878
▁War	-11.4879
tiya	-11.4879
cepción	-11.4883
▁11:3	-11.4885
▁Wankawillka	-11.4887
▁neskara	-11.4887
▁jehai	-11.4887
▁Upeichaite	-11.4888
▁roca	-11.4888
▁sarambi	-11.4889
▁elimina	-11.489
▁Emoinge	-11.489
xia	-11.4892
▁olvidemos	-11.4895
▁permanece	-11.4895
hni	-11.4896
▁8:1	-11.4897
▁mimi	-11.4898
tique	-11.4901
cico	-11.4901
gel	-11.4902
▁yachanapaq	-11.4902
▁foro	-11.4902
ptikiqa	-11.4904
▁produjo	-11.4905
▁Alegre	-11.4905
▁descargar	-11.4906
▁jaguerovia	-11.4907
▁Tec	-11.4909
Ay	-11.491
▁lliwmanta	-11.4911
▁Ap	-11.4913
mico	-11.4913
▁Salones	-11.4913
▁engaño	-11.4913
▁ambuépe	-11.4914
▁kuyakuynin	-11.4914
▁ñoqanchikpas	-11.4914
mático	-11.4918
xka	-11.492
▁Servi	-11.492
▁yuh	-11.4921
̱efi	-11.4924
▁juramento	-11.4924
▁rastreo	-11.4924
▁Óscar	-11.4924
▁negativa	-11.4924
▁Virgen	-11.4924
▁impide	-11.4925
▁41:	-11.4925
▁secretario	-11.4926
▁decirle	-11.4927
▁pusi	-11.4927
▁predican	-11.4928
▁consola	-11.4929
kanke	-11.493
▁Leon	-11.493
▁inicuos	-11.4931
▁griégo	-11.4931
▁xki	-11.4932
▁ndojapo	-11.4935
▁ndoikóiva	-11.4935
▁fariseos	-11.4936
▁llevaban	-11.4936
▁1913	-11.494
▁similares	-11.494
gno	-11.4941
▁Seguro	-11.4942
▁mató	-11.4942
▁jeýma	-11.4942
▁Biblioteca	-11.4942
▁Querétaro	-11.4942
▁interno	-11.4944
▁precisamente	-11.4945
▁Yala	-11.4945
tillo	-11.4945
▁Cambiar	-11.4946
▁iprovléma	-11.4946
kri	-11.4948
▁kaniri	-11.4949
▁1928	-11.4951
etee	-11.4951
▁apoha	-11.4952
LIT	-11.4954
▁wakinku	-11.4957
▁hombro	-11.4961
▁ñandutiveve	-11.4962
▁sinceramente	-11.4962
tum	-11.4963
▁Mark	-11.4963
▁NE	-11.4963
▁ñañemongeta	-11.4964
▁serviqninkunata	-11.4964
▁administrativa	-11.4965
▁pytyvõha	-11.4965
▁versiones	-11.4968
sqankuman	-11.4969
mboaje	-11.497
siri	-11.4972
▁wichiyku	-11.4972
lencia	-11.4973
iporavó	-11.4974
▁ñaikotevẽva	-11.4977
▁ñañemoag̃ui	-11.4977
wri	-11.4978
▁Bolívar	-11.4979
▁),	-11.4979
▁decididos	-11.4983
oz	-11.4984
mawe	-11.4985
avi	-11.4985
▁ashi	-11.4987
tiz	-11.4987
▁solicita	-11.4988
▁Fre	-11.4993
kichik	-11.4994
Oje	-11.4994
▁involucra	-11.4994
▁Color	-11.4995
▁chaki	-11.4995
íamos	-11.4995
▁ruraspa	-11.4995
▁illa	-11.4995
calli	-11.4996
▁naiporãi	-11.4997
▁Eskuéla	-11.4997
▁Facultad	-11.4997
▁añadir	-11.4999
▁notable	-11.4999
▁salmo	-11.5
▁upeichaite	-11.5001
▁moambue	-11.5002
Ndép	-11.5002
▁Ts	-11.5003
▁tío	-11.5004
▁reñeha	-11.5005
guái	-11.5006
star	-11.5007
▁95	-11.5007
kuérare	-11.5008
▁intendente	-11.5009
▁reciente	-11.5011
▁iñiq	-11.5012
IR	-11.5013
lice	-11.5013
▁Juez	-11.5013
▁tercero	-11.5014
tze	-11.5014
▁compasivo	-11.5016
▁prudente	-11.5016
▁rendimiento	-11.5016
▁ojupe	-11.5017
▁puerto	-11.5017
▁labios	-11.5019
ceso	-11.5019
Tito	-11.502
ipu	-11.502
▁2020	-11.502
tlahtol	-11.5021
▁toman	-11.5021
nene	-11.5023
nakanx	-11.5025
▁yanapasunki	-11.5026
itereiha	-11.5026
▁olvide	-11.5026
▁poravorã	-11.5026
▁virus	-11.5027
▁pasaba	-11.5028
▁huñunakuyman	-11.5029
Piruw	-11.503
▁amiga	-11.5031
nankupaqmi	-11.5032
▁yanapayta	-11.5034
▁Hospital	-11.5034
▁Recuerde	-11.5034
utuqsi	-11.5035
▁procedimientos	-11.5035
▁Turismo	-11.5035
▁ñembyaty	-11.5037
▁imapi	-11.5037
▁kaypi	-11.5037
▁warmacha	-11.5039
▁Acatl	-11.5039
INA	-11.5039
▁noches	-11.5042
▁dejamos	-11.5044
▁Muna	-11.5044
▁tradicional	-11.5044
▁Yanapa	-11.5047
▁semejante	-11.5047
▁Moisespa	-11.5051
deci	-11.5051
predika	-11.5053
▁entrevista	-11.5053
▁Tochtli	-11.5054
▁mbyky	-11.5059
▁ombopy	-11.5061
▁jaya	-11.5063
▁peteĩteĩ	-11.5063
chwanmi	-11.5064
▁llulla	-11.5065
nique	-11.5066
véntema	-11.5066
llq	-11.5066
▁espiritun	-11.5071
ÉICHAPA	-11.5072
▁belleza	-11.5072
▁iñorganisasión	-11.5072
▁upérupi	-11.5072
▁podér	-11.5072
▁levantó	-11.5072
▁Nazaret	-11.5073
▁30).	-11.5073
▁Reco	-11.5074
▁utan	-11.5075
▁ruranankupaq	-11.5076
▁pagina	-11.5076
▁ME	-11.5077
▁rantinpi	-11.5078
nita	-11.508
▁servidores	-11.508
▁tele	-11.5081
▁hogares	-11.5085
täna	-11.5086
▁jikxatasi	-11.5088
▁Años	-11.5089
▁kena	-11.5089
▁kasukunanchik	-11.509
▁Democrático	-11.509
▁módulo	-11.509
▁qanchis	-11.509
▁At	-11.5091
▁colección	-11.5091
▁kristo	-11.5091
ñeme	-11.5092
pyah	-11.5095
▁Mer	-11.5095
▁ukja	-11.5097
caya	-11.5097
ÍA	-11.5098
▁superiores	-11.5098
▁desarrollado	-11.5099
▁jamuqa	-11.51
▁negocios	-11.5101
SP	-11.5101
piña	-11.5101
▁RO	-11.5102
▁Kulumbya	-11.5102
▁procede	-11.5103
▁tuqit	-11.5104
▁aumenta	-11.5104
siste	-11.5104
ykipi	-11.5107
▁capitulo	-11.5107
tiyu	-11.5109
▁Jordán	-11.5109
▁Mekiku	-11.5109
▁creada	-11.511
pýva	-11.5111
aju	-11.5112
▁Pet	-11.5114
▁Plata	-11.5115
▁excelentes	-11.5115
▁Kara	-11.5117
▁pida	-11.5117
▁Wan	-11.5119
▁extraño	-11.5119
qninkuna	-11.5119
▁Diospaq	-11.512
▁seguramente	-11.512
nkuman	-11.5125
▁detener	-11.5126
sqanqa	-11.5127
▁Chaynallataqmi	-11.5128
▁Microsoft	-11.5128
▁satisfecho	-11.5128
▁Muerto	-11.5129
▁oviaha	-11.5129
▁Tayka	-11.5131
mbojoapy	-11.5131
▁Astawan	-11.5132
▁levantar	-11.5132
▁Esteban	-11.5132
lita	-11.5136
ẽve	-11.5136
▁ruwasqa	-11.5138
▁ñaimo	-11.5139
▁llullaku	-11.514
▁órgano	-11.5141
mond	-11.5142
qhi	-11.5142
▁shinanya	-11.5143
▁unqu	-11.5145
fue	-11.5145
rson	-11.5146
▁décima	-11.5147
▁PORÃ	-11.5147
▁Suñay	-11.5148
▁unanchasqa	-11.5148
cama	-11.515
▁Ehechajey	-11.5151
max	-11.5153
▁educativa	-11.5153
visión	-11.5153
▁misterio	-11.5156
▁suyo	-11.5158
ído	-11.5158
▁iñiyninchikpi	-11.5159
▁científico	-11.516
▁watukuq	-11.5161
▁Cuauh	-11.5163
cayo	-11.5164
Mira	-11.5164
▁quedado	-11.5165
▁Nínive	-11.5165
▁utilizó	-11.5165
▁Eikutu	-11.5165
nchikpi	-11.5165
▁reime	-11.5166
ges	-11.5167
▁ropredika	-11.5169
▁educativo	-11.517
dul	-11.517
▁procesos	-11.5171
▁narra	-11.5172
▁rovy	-11.5173
▁deporte	-11.5173
yapxi	-11.5174
▁ojapóvo	-11.5174
▁misa	-11.5175
fil	-11.5177
sistió	-11.5178
Todo	-11.5178
▁tuichave	-11.5179
gente	-11.5179
▁serviy	-11.518
rana	-11.5182
KENA	-11.5182
guýpe	-11.5183
▁porãita	-11.5183
gón	-11.5184
▁piñakuynin	-11.5184
firma	-11.5186
tlā	-11.5187
▁Ernesto	-11.5189
▁organismos	-11.519
▁rirqa	-11.5195
▁únicamente	-11.5195
▁productor	-11.5195
ykunata	-11.5197
gon	-11.5199
▁tomaron	-11.52
▁somete	-11.5202
▁equilibrio	-11.5203
▁mundiál	-11.5203
▁ijapu	-11.5203
▁Italya	-11.5203
▁pensamos	-11.5203
▁hallará	-11.5203
▁dejemos	-11.5209
▁ruwanapaq	-11.5209
▁brillante	-11.521
▁koty	-11.5212
▁menú	-11.5213
▁ombotavy	-11.5214
o̱t	-11.5216
▁reales	-11.5217
everã	-11.5218
▁integra	-11.5219
▁canal	-11.5219
▁Kuatia	-11.5221
▁Biografía	-11.5223
itaria	-11.5223
:​6	-11.5224
▁warmakuna	-11.5224
inter	-11.5225
Una	-11.5225
▁gato	-11.5226
▁yachaspa	-11.5229
nch	-11.523
▁tasa	-11.5231
▁tomin	-11.5232
▁Ejapo	-11.5232
▁munanchik	-11.5237
úma	-11.5237
skiwa	-11.5237
vir	-11.5238
▁tesoros	-11.5239
▁Manaraq	-11.524
▁Jain	-11.524
▁incluir	-11.5241
▁transmitir	-11.5241
▁x̱eni	-11.5241
▁continua	-11.5243
kunanmanta	-11.5244
awe	-11.5244
xei	-11.525
▁maqa	-11.525
▁separa	-11.5252
yeteri	-11.5253
▁ahmo	-11.5253
▁realizan	-11.5254
▁EE	-11.5254
▁ohejá	-11.5255
tuqi	-11.5255
▁reservi	-11.5259
▁mirada	-11.5259
kanabo	-11.526
▁Páblope	-11.526
▁lámpara	-11.526
▁residencia	-11.526
nakas	-11.526
▁Sistema	-11.526
▁oró	-11.5261
▁obligaciones	-11.5262
▁kusa	-11.5264
PO	-11.5267
▁Wiki	-11.5269
▁nocon	-11.5269
▁sentirá	-11.5269
shire	-11.527
paxa	-11.527
▁ouha	-11.5271
▁musya	-11.5273
sqanwan	-11.5274
rurqani	-11.5274
Ru	-11.5276
nachu	-11.5276
ag̃agua	-11.5277
mitã	-11.5277
▁ukaw	-11.5277
ýgui	-11.5278
▁Ramírez	-11.5279
▁Seguridad	-11.5279
▁ojeskrivi	-11.5281
▁ARTÍCULOS	-11.5281
▁piden	-11.5282
▁Estudia	-11.5285
NDI	-11.5285
Oh	-11.5287
▁ojeroviaha	-11.5287
tlahtoca	-11.5288
aprovecha	-11.5288
sunkichik	-11.529
tzintli	-11.5291
▁Tengo	-11.5294
▁nóta	-11.5295
chwanchu	-11.5295
▁ukjama	-11.5295
Señor	-11.5296
▁estábamos	-11.5296
▁basada	-11.5296
▁uraq	-11.5297
▁Legislativa	-11.5298
▁asesinado	-11.5298
▁vendisión	-11.5298
▁máquina	-11.5298
▁peteĩha	-11.5299
’̱	-11.53
▁entiendenapaq	-11.5301
clus	-11.5301
▁Llapallan	-11.5303
▁Jajepy	-11.5303
▁nuna	-11.5305
▁mencionada	-11.5305
ìx	-11.5306
▁qan	-11.5307
ntari	-11.531
▁wiñaq	-11.5313
▁5:3	-11.5314
aitépe	-11.5316
▁aprendiendo	-11.5317
▁várko	-11.5317
▁notísia	-11.5317
▁tembiporu	-11.5318
front	-11.5318
▁Samaria	-11.5318
▁tequi	-11.5318
▁sienti	-11.5319
▁tsiere	-11.5319
▁qawari	-11.5322
▁ojopy	-11.5322
▁Mala	-11.5323
▁tantos	-11.5324
▁anual	-11.5325
nohẽ	-11.5326
ádo	-11.5326
harakuéra	-11.5329
▁Pastor	-11.5331
ducir	-11.5332
Biblia	-11.5332
rato	-11.5334
ninmanta	-11.5335
▁1941,	-11.5336
▁ojevautisá	-11.5336
▁audiencia	-11.5336
▁bendice	-11.5336
▁Pilato	-11.5336
▁ninchik	-11.5337
ékena	-11.5338
▁nisqankuna	-11.5338
miri	-11.5339
▁kiri	-11.534
wu	-11.5342
▁leyendo	-11.5342
▁alee	-11.5343
▁omoherakuã	-11.5343
ético	-11.5344
▁creo	-11.5344
▁26).	-11.5348
▁jeýva	-11.5348
mbohovai	-11.5351
▁Warma	-11.5351
▁seguía	-11.5352
Verdad	-11.5352
▁personajes	-11.5352
▁zi	-11.5354
prueba	-11.5354
▁destacó	-11.5355
▁consumo	-11.5356
▁ijapytepekuéra	-11.5356
Nota	-11.5356
nden	-11.5357
▁Chaypaqqa	-11.5359
ikuaágui	-11.5359
▁rakiy	-11.536
cidad	-11.5363
▁Kayna	-11.5363
▁Qawa	-11.5363
▁wak	-11.5364
▁playa	-11.5365
▁qunqa	-11.5367
fé	-11.5369
▁doctrina	-11.5371
▁maypi	-11.5371
kasi	-11.5372
venga	-11.5373
?...	-11.5374
▁iprekursorádo	-11.5374
▁acercó	-11.5374
ç	-11.5376
pán	-11.5376
anaka	-11.5378
▁bero	-11.5379
▁tristeza	-11.5379
▁fiestas	-11.538
▁informar	-11.5381
▁waranq	-11.5383
▁eñongatu	-11.5383
▁tie	-11.5384
▁sienteku	-11.5388
▁jiskt	-11.539
▁Fiscal	-11.5392
kóta	-11.5393
▁brilla	-11.5393
▁reputación	-11.5394
▁jal	-11.5395
▁eventos	-11.5396
OL	-11.5396
▁Habla	-11.5398
▁dientes	-11.5399
tok	-11.5399
▁ĩ	-11.54
▁quchamanta	-11.54
▁lájare	-11.54
▁akax	-11.5401
▁débiles	-11.5401
▁ermanokuérandi	-11.5402
▁Armada	-11.5403
▁tekoha	-11.5404
▁lá	-11.5404
far	-11.5405
▁Bajo	-11.5407
▁ojeprepara	-11.5408
▁kato	-11.5408
▁llamkayta	-11.5409
▁amó	-11.5411
▁Bon	-11.5411
burg	-11.5411
inas	-11.5411
▁muyu	-11.5412
▁bloqueo	-11.5413
▁impuésto	-11.5413
▁oñentende	-11.5413
americana	-11.5413
▁futura	-11.5414
▁(17	-11.5414
▁Chaywanpas	-11.5416
▁goza	-11.5416
▁markanakan	-11.5417
▁jejoko	-11.5417
íre	-11.5417
▁Emp	-11.5417
s̱e	-11.5418
gli	-11.5418
▁admite	-11.5421
▁29:	-11.5422
▁Año	-11.5422
▁volumen	-11.5423
▁celebración	-11.5424
▁genera	-11.5425
▁opytáta	-11.5426
mentos	-11.5428
nanchikta	-11.5429
rö	-11.5431
▁iva	-11.5432
▁mostrado	-11.5432
▁Irlanda	-11.5432
▁aplicable	-11.5433
▁crisis	-11.5433
▁inhustísia	-11.5434
▁campamento	-11.5434
▁oikuaáva	-11.5435
▁chaynapim	-11.5436
▁eterno	-11.5436
▁bases	-11.5436
lones	-11.5441
▁250	-11.5442
arenda	-11.5443
▁Castro	-11.5447
▁alcalde	-11.5447
▁confiamos	-11.5447
mitl	-11.5451
▁deriva	-11.5451
▁Amarumayu	-11.5452
▁Ejército	-11.5452
▁meméramo	-11.5452
▁robo	-11.5452
▁Cristianas	-11.5452
mientos	-11.5453
▁seguirá	-11.5455
▁Ome	-11.5455
▁Tre	-11.5456
▁maravillosas	-11.5458
▁rendir	-11.5458
▁mboyvemi	-11.5458
▁kachka	-11.546
▁ayudarle	-11.5461
▁kamachikuy	-11.5462
ting	-11.5463
▁riy	-11.5464
▁gastos	-11.5465
AM	-11.5468
evai	-11.5469
▁1916	-11.547
▁Jajapó	-11.5471
▁Internétpe	-11.5471
▁automóvil	-11.5471
▁seguimiento	-11.5471
lly	-11.5472
▁89	-11.5473
Tiene	-11.5475
▁caída	-11.5475
▁opavavé	-11.5476
▁distintos	-11.5477
▁Ste	-11.5478
ñemoñe	-11.5478
itereíma	-11.5479
Neh	-11.548
▁anuncios	-11.5481
ificar	-11.5485
▁arreglo	-11.5486
▁encontraba	-11.5487
▁Mont	-11.5488
sqankuqa	-11.5488
mbovy	-11.5488
▁contribución	-11.5489
▁oñepyrũva	-11.549
▁Sebastián	-11.549
▁eficaz	-11.549
▁encuentre	-11.549
▁Club	-11.549
▁thakhi	-11.5491
jki	-11.5491
▁afuera	-11.5491
▁XVI	-11.5491
tier	-11.5492
seterei	-11.5492
marandu	-11.5492
sivo	-11.5493
▁menores	-11.5493
yú	-11.5494
▁nieve	-11.5494
▁habitación	-11.5494
spayá	-11.5495
▁ceder	-11.5496
▁sed	-11.5498
gura	-11.5499
▁ohupytýva	-11.5502
▁Soy	-11.5504
▁mávape	-11.5504
).*	-11.5505
tores	-11.5505
jawe	-11.5506
▁yoiyai	-11.5508
▁coche	-11.5509
▁específico	-11.551
▁independencia	-11.551
▁ñaneimperfékto	-11.551
▁tormenta	-11.551
▁consejero	-11.551
▁ndoikovéima	-11.551
▁anive	-11.5512
▁orerehe	-11.5512
▁junt	-11.5513
▁películas	-11.5513
▁comercial	-11.5514
ible	-11.5516
▁intentarlo	-11.5516
▁opytu	-11.5517
sum	-11.5518
user	-11.5518
llamanta	-11.5518
Imamantam	-11.5519
▁qollqeta	-11.552
kuaáramo	-11.552
▁tengas	-11.5521
▁piensaspa	-11.5521
quy	-11.5522
▁Ph	-11.5523
nny	-11.5523
▁ojeporúva	-11.5524
▁dirigido	-11.5524
▁aaprende	-11.5527
▁técnico	-11.5528
▁pia	-11.5528
▁llaqtakunapi	-11.5528
▁prenda	-11.5529
▁arroja	-11.553
▁inspirada	-11.553
▁anciana	-11.5531
▁naman	-11.5531
▁mortal	-11.5534
▁tumpa	-11.5535
▁fla	-11.5535
porãve	-11.5536
▁regla	-11.5537
rix	-11.5538
▁Davidqa	-11.5538
iste	-11.554
▁5:28	-11.554
▁ribojo	-11.554
▁ojoaju	-11.5541
▁pára	-11.5541
▁lamar	-11.5545
▁recuerdo	-11.5547
-17	-11.5548
cher	-11.5549
▁cristiandad	-11.5549
▁ikatúma	-11.5549
▁santuario	-11.5549
▁editado	-11.555
▁class	-11.5551
ẽgui	-11.5555
▁dones	-11.5557
aguasúpe	-11.5557
GUI	-11.5558
▁espiritunwan	-11.5559
▁culturas	-11.5561
inti	-11.5561
▁eikuaa	-11.5562
▁designado	-11.5562
▁seleccionado	-11.5565
lotl	-11.5566
nampiki	-11.5566
apove	-11.5566
▁reqsiku	-11.5566
▁compatible	-11.5568
▁comentario	-11.557
▁ubicación	-11.5571
ándolo	-11.5571
▁oni	-11.5571
pón	-11.5572
▁ruwasqanku	-11.5572
▁et	-11.5573
▁visitas	-11.5574
Pitaq	-11.5575
ilhui	-11.5576
▁preguntarnos	-11.5578
runku	-11.558
▁haces	-11.558
▁hesa	-11.558
▁entregó	-11.5581
▁instalado	-11.5582
▁runakunatam	-11.5583
▁oinna	-11.5583
▁rajy	-11.5583
▁residentes	-11.5583
▁sacrificar	-11.5584
▁silla	-11.5584
▁energías	-11.5585
▁manifiesta	-11.5585
ñä	-11.5588
Sigan	-11.5588
▁Emoambue	-11.5588
▁Niño	-11.559
▁jaikóta	-11.559
▁causado	-11.5591
▁kenai	-11.5593
▁Suntur	-11.5595
▁ry	-11.5595
▁vender	-11.5597
▁oserví	-11.5597
▁cría	-11.5597
▁ninantaq	-11.5598
antes	-11.5599
mboheraguapy	-11.5602
nón	-11.5603
▁warmin	-11.5605
▁Super	-11.5606
▁declarar	-11.5606
▁chaskisqan	-11.5606
time	-11.5607
ò	-11.5608
▁estímulo	-11.5608
▁vevída	-11.5608
а	-11.5608
▁ñeha	-11.5609
▁traslada	-11.5609
▁pondrá	-11.5609
▁mitãnguéra	-11.561
▁qillqaypi	-11.561
▁147	-11.5611
cora	-11.5613
ancha	-11.5613
▁ñemby	-11.5614
▁jaikuaávo	-11.5616
wari	-11.5617
puniwa	-11.562
▁winota	-11.5621
▁wishati	-11.5622
▁Kaypi	-11.5626
▁folléto	-11.5627
▁pendiente	-11.5628
▁distribución	-11.5628
▁Kamachiq	-11.5631
▁difund	-11.5633
▁31).	-11.5633
ramoguáicha	-11.5635
▁Latina	-11.5642
▁101	-11.5642
▁actúa	-11.5644
▁incluyendo	-11.5647
▁Jiménez	-11.5647
▁producido	-11.5647
▁áñope	-11.5647
ntya	-11.565
▁kyhyje	-11.5651
mbogue	-11.5653
▁só	-11.5655
▁iñiqmasinchikmi	-11.5658
▁ich	-11.5658
▁ñamo	-11.5661
▁Diosninchik	-11.5662
▁directo	-11.5663
▁diputados	-11.5666
▁aswanmi	-11.5666
▁nza̱yo	-11.5667
▁práctico	-11.5667
▁vacío	-11.5667
▁nacionniyoq	-11.5667
▁allinqa	-11.5668
▁comercio	-11.5672
recha	-11.5674
▁enseñarles	-11.5678
niyku	-11.5679
▁oasepta	-11.5683
Toda	-11.5685
▁Goliat	-11.5687
▁campesina	-11.5687
▁cobertura	-11.5687
▁teatro	-11.5687
▁“%	-11.5687
▁khiti	-11.5687
▁ä	-11.5688
▁soltera	-11.5689
ẽrõite	-11.569
▁tca	-11.569
▁negativos	-11.5691
▁Ojekuaa	-11.5691
Imaynata	-11.5692
▁osolusiona	-11.5693
▁sutichasqa	-11.5695
▁expone	-11.5696
mine	-11.5696
▁jajavy	-11.5697
num	-11.5698
▁conversa	-11.5698
▁manataqmi	-11.5699
▁puntapi	-11.57
▁conocidos	-11.57
▁omonguera	-11.57
▁sesiones	-11.5702
▁Eric	-11.5702
▁cercano	-11.5703
Filipenses	-11.5704
▁ojehechakuaa	-11.5706
▁arapokõindy	-11.5707
▁quedarse	-11.5707
▁iñambue	-11.5707
▁tekojoja	-11.5707
▁extiende	-11.5708
vére	-11.5709
sach	-11.571
▁monta	-11.571
▁norma	-11.5711
▁cap	-11.5711
▁cristianokunata	-11.5712
▁Ken	-11.5716
▁Tara	-11.5718
▁tene	-11.5719
▁emocional	-11.5719
-15	-11.5719
rahu	-11.572
▁empresario	-11.5721
▁Hesu	-11.5721
▁ohayhueterei	-11.5724
ngatú	-11.5725
qkunam	-11.5725
▁qull	-11.5725
▁xiuhpan	-11.5726
▁áñorema	-11.5728
▁kawsarichi	-11.5729
▁autorización	-11.573
nakapax	-11.5731
▁benxoa	-11.5731
▁mitrum	-11.5733
misa	-11.5733
▁educa	-11.5735
▁xika	-11.5736
▁hasẽ	-11.5736
▁Feli	-11.5738
▁sp	-11.5738
▁Casi	-11.5739
▁dichas	-11.5739
▁Otras	-11.5741
▁conductor	-11.5744
katupyrý	-11.5745
▁chayman	-11.5746
▁manifestó	-11.5746
▁italiano	-11.5746
▁Qawasun	-11.5747
CIA	-11.5747
▁individuos	-11.5747
▁upévagui	-11.5748
mete	-11.5748
▁asigna	-11.5748
▁Teresa	-11.5749
▁japorohayhu	-11.5749
▁jaki	-11.5753
▁ohasá	-11.5754
▁niwa	-11.5755
▁punchawkunapi	-11.5755
▁imperio	-11.5758
▁plátano	-11.5759
▁uñj	-11.5761
jera	-11.5764
oya	-11.5764
▁apacible	-11.5766
▁súbditos	-11.5766
▁vuestra	-11.5766
▁arrastra	-11.5766
▁caliente	-11.5766
▁estudiayta	-11.5767
▁bondadoso	-11.5767
▁espiritunta	-11.5768
▁cena	-11.5768
▁(15	-11.577
▁señalado	-11.5772
▁ancho	-11.5773
▁potencial	-11.5773
▁multiplica	-11.5774
CHI	-11.5776
▁runakunapaq	-11.5776
▁harán	-11.5777
▁kaspan	-11.5777
▁paro	-11.5779
CU	-11.5779
▁munarqaku	-11.5779
▁ejércitos	-11.5781
▁vende	-11.5782
rden	-11.5783
▁yanta	-11.5783
ãmbaité	-11.5783
▁idisipulokuérap	-11.5786
lga	-11.5786
▁confiado	-11.5786
▁Europea	-11.5786
▁kalindaryuyuq	-11.5786
▁raíces	-11.5786
▁oprometéva	-11.5786
▁almacena	-11.5786
▁kunanqa	-11.5787
▁kawsachkanku	-11.5787
▁ijyvy	-11.5788
▁reconocido	-11.5788
sic	-11.5788
▁Cuenta	-11.5789
▁café	-11.5789
▁Jahechakuaa	-11.5798
▁ukatxa	-11.5799
▁Malaquías	-11.58
▁qarikuna	-11.58
▁mamo	-11.5801
▁Emondo	-11.5801
allqa	-11.5802
▁anu	-11.5803
▁etapa	-11.5803
vida	-11.5804
▁reunió	-11.5804
▁yvyramáta	-11.5806
▁sencillo	-11.5806
▁añáme	-11.5806
fal	-11.5807
▁myakãha	-11.5807
▁valiosas	-11.5808
▁106	-11.5808
▁esforzarse	-11.5811
lect	-11.5811
noxiki	-11.5812
▁Juana	-11.5813
▁emohenda	-11.5816
Name	-11.5818
▁yachanankupaq	-11.5818
▁despertar	-11.5819
▁óro	-11.5819
kunatawan	-11.5823
▁imapipas	-11.5823
▁mokõive	-11.5824
▁Contra	-11.5824
▁pono	-11.5825
▁menia	-11.5826
▁fortaleza	-11.5826
▁orendive	-11.5826
▁rrío	-11.5827
▁identifica	-11.5827
▁servichikurqa	-11.5827
:13,	-11.5828
▁Jeike	-11.583
hecháta	-11.5831
juru	-11.5832
▁ojoajúva	-11.5833
▁Oñemo	-11.5833
▁Wanuku	-11.5833
EKUE	-11.5835
▁huerta	-11.5836
▁huesos	-11.5837
▁Jatian	-11.5837
▁juegos	-11.5838
nakap	-11.5839
▁peñe	-11.5839
▁Jisk	-11.5839
▁criar	-11.584
rekórõ	-11.584
MB	-11.5842
▁rápida	-11.5843
bur	-11.5843
▁insist	-11.5843
uan	-11.5845
▁famoso	-11.5847
▁libres	-11.5847
▁busque	-11.5847
▁hñu	-11.585
▁ihénte	-11.5851
▁Lin	-11.5856
abora	-11.5858
ribira	-11.5858
▁oñehesa	-11.5859
▁Necesita	-11.586
▁ndahe	-11.5861
alrededor	-11.5864
▁kuyawasqanchik	-11.5865
▁Ukampirus	-11.5867
▁kuatiaroguépe	-11.5867
▁primogénito	-11.5867
▁referirse	-11.5867
▁univérso	-11.5867
▁virtual	-11.5867
▁arranca	-11.5867
▁tesoro	-11.5869
▁paqari	-11.587
▁Qawasqanchik	-11.5871
▁usado	-11.5873
kunawanmi	-11.5875
▁Juch	-11.5876
▁adicional	-11.5878
▁kaspanpas	-11.5879
▁Chrome	-11.5879
tetl	-11.588
ull	-11.588
▁Fra	-11.5882
dge	-11.5883
▁bakebaon	-11.5884
Paraguái	-11.5885
▁harina	-11.5887
▁Museo	-11.5887
▁manifestantes	-11.5887
▁pedimos	-11.5887
▁guivéma	-11.5888
▁wañukuptin	-11.5891
▁tlama	-11.5892
nkunapi	-11.5893
▁creencia	-11.5895
▁oñemyesakã	-11.5897
▁1924	-11.5897
Drama	-11.5899
▁Ayakuchu	-11.5899
▁yachachikuyta	-11.59
0%	-11.5901
▁ordenador	-11.5903
▁uñakip	-11.5904
▁espirituál	-11.5904
Ñe	-11.5905
▁copa	-11.5905
▁afectar	-11.5906
▁Canaán	-11.5907
▁arroyo	-11.5907
apói	-11.5907
áramos	-11.5908
llanta	-11.591
▁https	-11.591
vita	-11.5911
▁escudo	-11.5912
▁mayqan	-11.5912
yiri	-11.5913
tatsiri	-11.5913
▁Bro	-11.5913
rit	-11.5916
▁ñuqanchik	-11.5918
▁viola	-11.5919
▁oñepytyvõ	-11.5922
kal	-11.5922
▁kaman	-11.5926
▁Chaypi	-11.5926
▁yachachikuypim	-11.5926
▁Joaquín	-11.5927
▁lomímonte	-11.5927
▁pyharépe	-11.5927
▁simbólico	-11.5927
▁levadura	-11.5927
▁ilegal	-11.5927
Ustedes	-11.5929
▁Bill	-11.593
▁defecto	-11.593
sano	-11.5931
tter	-11.5931
▁satanas	-11.5931
visor	-11.5932
▁niñas	-11.5933
▁ojaposéva	-11.5939
▁lograrlo	-11.5941
▁Chaynatam	-11.5942
▁nz	-11.5942
▁Wo	-11.5943
▁participan	-11.5943
▁califica	-11.5943
▁IX	-11.5944
▁Guerrero	-11.5948
▁jornada	-11.5948
▁Josías	-11.5948
▁Gobiernon	-11.5948
▁reunieron	-11.5948
▁baña	-11.5948
kra	-11.5949
limit	-11.5949
▁20:1	-11.595
bil	-11.595
FE	-11.5951
▁relaj	-11.5953
clo	-11.5953
▁poca	-11.5955
▁eiporavo	-11.5956
▁Lliw	-11.5957
▁mayna	-11.5958
▁800	-11.5959
▁leído	-11.596
▁Mia	-11.596
▁pertenecen	-11.5961
wk	-11.5962
Nos	-11.5963
▁Baja	-11.5964
▁ishi	-11.5965
▁Saul	-11.5965
▁2.000	-11.5967
▁og̃uahẽta	-11.5967
▁Seleccione	-11.5968
trá	-11.5974
▁cifra	-11.5974
kunapipas	-11.5975
▁Paso	-11.5975
▁Shu	-11.5976
apóta	-11.5982
▁kuñanguéra	-11.5982
▁comporta	-11.5984
▁mó	-11.5984
agradeseterei	-11.5985
▁caballos	-11.5985
▁digan	-11.5987
Nueva	-11.5987
Pay	-11.5987
▁tabernáculo	-11.5989
▁preciso	-11.5989
▁3:15).	-11.5989
▁Predica	-11.599
rqanku	-11.599
▁evaluación	-11.5991
▁honrado	-11.5995
▁Manataqmi	-11.5996
végui	-11.5996
▁chica	-11.5997
▁rantiku	-11.5997
▁yacharqam	-11.5999
▁injusticias	-11.5999
▁Lic	-11.6
siwa	-11.6
▁hä	-11.6002
▁607	-11.6002
▁ayudara	-11.6002
▁18:1	-11.6003
its	-11.6006
▁ID	-11.6007
▁mach	-11.6009
▁Barcelona	-11.6009
▁ISBN	-11.6009
Kóva	-11.6009
▁fundamento	-11.6009
▁magnífico	-11.6009
▁impacto	-11.6009
▁ndojeroviái	-11.6009
kuchkan	-11.6009
▁Qo	-11.601
▁Walter	-11.601
▁veinti	-11.601
▁yatiqañ	-11.6013
▁gatho	-11.6014
ỹta	-11.6015
▁decirlo	-11.6016
▁xeime	-11.6017
▁propiedades	-11.6021
▁renunciar	-11.6021
▁més	-11.6022
▁odesidíva	-11.6024
▁ndaiporiha	-11.6024
▁98	-11.6027
nyi	-11.6027
▁Prado	-11.6027
▁japoro	-11.6027
▁anata	-11.6027
▁huchapaku	-11.6028
▁golpea	-11.6028
tzino	-11.6029
▁Timotéope	-11.6029
▁cerámica	-11.6029
▁Observatorio	-11.603
▁asesor	-11.603
▁comentó	-11.6031
▁Come	-11.6033
▁lingüística	-11.6035
▁Eñongatu	-11.6035
▁videos	-11.6036
▁scua	-11.6037
▁ñamokyre	-11.6038
Ý	-11.6038
▁ukhax	-11.6039
mondó	-11.604
▁drogas	-11.6042
▁wañuqkuna	-11.6044
▁79	-11.6046
quil	-11.6047
▁asesinato	-11.605
▁diccionario	-11.605
▁gratuita	-11.605
▁rembiguaikuéra	-11.605
ykiwan	-11.6054
▁ñamombarete	-11.6054
▁eñe	-11.6055
gía	-11.6057
▁correr	-11.6057
▁municipios	-11.606
▁localidad	-11.6062
▁michĩva	-11.6065
▁Primer	-11.6065
MOS	-11.6066
▁privadas	-11.6067
mabi	-11.6067
▁Jesucrístope	-11.6067
cru	-11.6068
▁116	-11.6069
MBO	-11.6069
▁paypi	-11.607
▁Taha	-11.6071
▁quisiera	-11.6071
▁rogapýpe	-11.6071
▁urgente	-11.6071
▁script	-11.6071
▁ñemoambue	-11.6071
▁ajerure	-11.6071
▁8:3	-11.6071
chakuy	-11.6073
▁Emoĩ	-11.6073
▁57	-11.6074
▁Franz	-11.6074
tuicha	-11.6075
▁tenta	-11.6076
▁Mir	-11.6077
▁oipotaha	-11.6077
▁85	-11.6078
▁ide	-11.6079
perde	-11.6079
▁haberse	-11.608
▁Cul	-11.6081
ores	-11.6082
kh	-11.6082
konsola	-11.6083
▁mit	-11.6083
▁seremos	-11.6084
▁127	-11.6085
▁paisanos	-11.6086
Acaso	-11.6087
▁guasú	-11.6089
▁chó	-11.6091
▁Cornelio	-11.6091
▁Jehosafat	-11.6091
▁eternidad	-11.6091
▁roipytyvõ	-11.6091
vía	-11.6092
ẽmbaite	-11.6092
▁Daher	-11.6093
▁kachi	-11.6094
▁Kichwa	-11.6094
aix	-11.6096
ksa	-11.6098
▁iporãite	-11.6098
waptinchik	-11.6098
▁(12	-11.6098
▁kasqanchik	-11.6098
▁sutillata	-11.61
▁ihentekuéra	-11.6103
▁gracia	-11.6104
▁isi	-11.6105
▁akham	-11.6105
▁lógico	-11.6108
▁crees	-11.6112
▁puvlikadór	-11.6112
terra	-11.6112
▁qawasunchik	-11.6115
▁robar	-11.6115
▁tsinki	-11.6116
▁habitan	-11.6117
▁ndape	-11.6117
▁runakunap	-11.6121
▁ndache	-11.6121
▁celular	-11.6121
táramo	-11.6124
regua	-11.6124
▁Señora	-11.6127
▁registrado	-11.6128
▁Arte	-11.6128
▁obstáculos	-11.6128
▁daños	-11.6129
▁pelíkula	-11.6133
▁trívu	-11.6133
▁Duarte	-11.6133
▁vyrorei	-11.6133
▁decidieron	-11.6133
▁convenio	-11.6133
imanasqataq	-11.6135
▁jefes	-11.6136
▁impuesto	-11.6136
▁oikóramo	-11.6139
▁dispone	-11.6141
[...]
